<pad>	0
<unk>	0
<s>	0
</s>	0
▁d	-0
▁l	-1
en	-2
es	-3
ai	-4
▁p	-5
ou	-6
on	-7
▁s	-8
▁c	-9
re	-10
an	-11
qu	-12
▁m	-13
▁de	-14
er	-15
▁a	-16
ent	-17
et	-18
▁qu	-19
▁t	-20
ait	-21
il	-22
ne	-23
it	-24
eu	-25
ar	-26
▁v	-27
▁f	-28
is	-29
in	-30
le	-31
▁et	-32
▁la	-33
▁j	-34
▁le	-35
▁n	-36
or	-37
ais	-38
te	-39
▁à	-40
ous	-41
▁u	-42
▁r	-43
▁que	-44
▁b	-45
om	-46
as	-47
ant	-48
us	-49
our	-50
ét	-51
el	-52
▁en	-53
au	-54
ir	-55
▁les	-56
eur	-57
ur	-58
em	-59
me	-60
at	-61
ons	-62
ro	-63
▁av	-64
▁je	-65
▁h	-66
ch	-67
▁re	-68
ans	-69
--	-70
tre	-71
▁--	-72
▁un	-73
▁par	-74
▁pas	-75
▁g	-76
est	-77
ce	-78
▁au	-79
ag	-80
al	-81
ri	-82
▁ne	-83
▁ét	-84
▁il	-85
and	-86
av	-87
▁ch	-88
▁des	-89
▁qui	-90
ment	-91
end	-92
▁pl	-93
▁C	-94
▁du	-95
▁se	-96
▁M	-97
▁L	-98
▁une	-99
▁com	-100
os	-101
ui	-102
oi	-103
ouv	-104
ion	-105
ont	-106
▁vous	-107
▁dans	-108
out	-109
▁pr	-110
aient	-111
ien	-112
▁pour	-113
ab	-114
és	-115
▁ce	-116
elle	-117
▁tr	-118
ée	-119
res	-120
▁sur	-121
se	-122
ap	-123
ol	-124
ép	-125
ort	-126
▁J	-127
ain	-128
▁me	-129
▁o	-130
▁A	-131
ond	-132
éc	-133
am	-134
▁in	-135
ie	-136
que	-137
ff	-138
▁P	-139
▁«	-140
ut	-141
▁plus	-142
ers	-143
un	-144
▁e	-145
▁S	-146
ec	-147
les	-148
▁son	-149
pr	-150
▁I	-151
ac	-152
▁nous	-153
▁si	-154
ette	-155
onn	-156
oir	-157
ère	-158
si	-159
▁dit	-160
▁mais	-161
▁E	-162
id	-163
eux	-164
uis	-165
▁était	-166
ard	-167
▁lui	-168
ez	-169
▁tout	-170
▁th	-171
ad	-172
ement	-173
li	-174
ès	-175
oin	-176
ois	-177
▁mon	-178
im	-179
▁Je	-180
▁cette	-181
▁pro	-182
▁avec	-183
aire	-184
▁N	-185
▁avait	-186
..	-187
▁bien	-188
▁sa	-189
▁quel	-190
ig	-191
▁D	-192
▁gr	-193
▁Il	-194
iv	-195
ire	-196
▁ma	-197
ot	-198
ér	-199
agn	-200
ure	-201
ux	-202
▁vo	-203
une	-204
▁y	-205
ang	-206
▁al	-207
eurs	-208
able	-209
▁est	-210
▁comme	-211
▁ses	-212
▁dé	-213
ing	-214
onc	-215
ue	-216
ille	-217
age	-218
▁é	-219
▁ent	-220
ord	-221
▁rép	-222
▁w	-223
mes	-224
emp	-225
ic	-226
ier	-227
aut	-228
ess	-229
ation	-230
être	-231
ors	-232
ert	-233
uit	-234
eau	-235
▁ar	-236
▁ou	-237
▁dem	-238
oute	-239
▁elle	-240
était	-241
▁ex	-242
▁dis	-243
▁ces	-244
▁peu	-245
ions	-246
ill	-247
▁the	-248
ême	-249
▁T	-250
pp	-251
▁O	-252
▁ser	-253
▁Le	-254
▁con	-255
▁dev	-256
êt	-257
emb	-258
ieur	-259
ité	-260
oup	-261
▁br	-262
▁deux	-263
▁moi	-264
▁B	-265
app	-266
ieu	-267
▁su	-268
ques	-269
ées	-270
▁!	-271
▁F	-272
▁V	-273
oul	-274
iss	-275
ore	-276
aine	-277
ine	-278
▁répond	-279
che	-280
▁fait	-281
▁sans	-282
ôt	-283
▁»	-284
▁H	-285
endre	-286
endant	-287
▁on	-288
ens	-289
ail	-290
rt	-291
ong	-292
st	-293
rent	-294
ra	-295
▁mes	-296
▁car	-297
ours	-298
ance	-299
▁Mais	-300
▁mar	-301
▁for	-302
ût	-303
aiss	-304
ul	-305
▁grand	-306
▁comp	-307
ré	-308
omme	-309
ière	-310
▁cel	-311
enc	-312
ble	-313
eure	-314
▁part	-315
▁main	-316
▁as	-317
▁pouv	-318
▁at	-319
ter	-320
▁Q	-321
oy	-322
ence	-323
onsieur	-324
▁tro	-325
ante	-326
onne	-327
èrent	-328
▁leur	-329
▁enc	-330
cc	-331
Art	-332
agnan	-333
Artagnan	-334
én	-335
▁fut	-336
omb	-337
▁même	-338
um	-339
de	-340
▁?	-341
ge	-342
▁été	-343
art	-344
▁faire	-345
▁cont	-346
aux	-347
▁R	-348
▁donc	-349
▁ter	-350
▁où	-351
▁im	-352
▁ret	-353
▁G	-354
ct	-355
▁pass	-356
ass	-357
▁am	-358
▁trouv	-359
▁encore	-360
▁temp	-361
▁reg	-362
.»	-363
▁fr	-364
▁puis	-365
orte	-366
▁all	-367
▁app	-368
▁répondit	-369
éri	-370
ite	-371
▁demand	-372
vous	-373
all	-374
if	-375
▁ré	-376
▁cons	-377
ieux	-378
▁dont	-379
▁aus	-380
hos	-381
près	-382
▁La	-383
▁jus	-384
▁aux	-385
▁cap	-386
ed	-387
▁per	-388
avais	-389
riv	-390
anc	-391
▁seu	-392
ile	-393
ay	-394
▁Et	-395
ils	-396
▁no	-397
▁poin	-398
rait	-399
▁rem	-400
erv	-401
int	-402
▁être	-403
▁monsieur	-404
▁regard	-405
▁ven	-406
ci	-407
je	-408
ête	-409
▁man	-410
cher	-411
▁En	-412
▁Qu	-413
éd	-414
esp	-415
lement	-416
ist	-417
ace	-418
▁dire	-419
▁temps	-420
▁di	-421
ett	-422
▁comm	-423
▁quelque	-424
▁Ce	-425
▁to	-426
▁ils	-427
gn	-428
▁long	-429
ith	-430
▁so	-431
pos	-432
▁quelques	-433
rem	-434
▁cr	-435
▁and	-436
▁ob	-437
auv	-438
▁rec	-439
▁point	-440
▁votre	-441
▁jour	-442
tres	-443
▁cela	-444
air	-445
oins	-446
▁aussi	-447
ique	-448
avait	-449
og	-450
▁éc	-451
▁cro	-452
▁donn	-453
▁cour	-454
omp	-455
▁ab	-456
▁sous	-457
▁att	-458
asse	-459
▁pet	-460
▁ni	-461
▁vers	-462
lle	-463
eures	-464
bre	-465
▁mer	-466
▁après	-467
▁trois	-468
▁an	-469
▁rien	-470
▁of	-471
▁voy	-472
▁ép	-473
▁trav	-474
ître	-475
▁chos	-476
▁entre	-477
embl	-478
▁capit	-479
uiv	-480
▁fois	-481
▁U	-482
prit	-483
▁coup	-484
▁alors	-485
▁étaient	-486
écri	-487
▁toute	-488
▁mal	-489
fin	-490
▁quand	-491
enir	-492
▁Les	-493
▁homme	-494
▁fl	-495
▁là	-496
onde	-497
▁dés	-498
▁port	-499
▁fer	-500
▁rev	-501
▁jam	-502
▁tou	-503
▁heures	-504
are	-505
▁eff	-506
▁prof	-507
elles	-508
▁col	-509
▁capitaine	-510
▁pos	-511
mp	-512
itu	-513
▁déc	-514
ex	-515
ants	-516
▁très	-517
...	-518
yr	-519
iè	-520
▁mil	-521
ob	-522
ient	-523
▁fit	-524
ve	-525
▁cent	-526
sez	-527
▁jusqu	-528
op	-529
▁prem	-530
▁notre	-531
▁peut	-532
oment	-533
roff	-534
encroff	-535
▁moment	-536
▁Pencroff	-537
aill	-538
enant	-539
ég	-540
▁;	-541
▁avoir	-542
▁ai	-543
▁moins	-544
▁sec	-545
île	-546
▁mont	-547
ide	-548
▁jamais	-549
dre	-550
ches	-551
▁sont	-552
él	-553
▁fem	-554
▁jeu	-555
▁arriv	-556
yrus	-557
▁Cyrus	-558
▁eu	-559
rai	-560
▁co	-561
▁suis	-562
▁vis	-563
ate	-564
up	-565
ied	-566
▁suiv	-567
ommes	-568
▁rés	-569
att	-570
thos	-571
▁conv	-572
▁_	-573
▁rep	-574
▁sou	-575
▁tous	-576
arb	-577
ourn	-578
ât	-579
▁terre	-580
▁pens	-581
▁sembl	-582
▁fort	-583
▁Vous	-584
ise	-585
▁cher	-586
ainsi	-587
▁parl	-588
▁yeux	-589
▁pied	-590
▁vie	-591
▁cet	-592
▁ainsi	-593
▁leurs	-594
étais	-595
▁laiss	-596
oc	-597
▁der	-598
▁porte	-599
▁Sm	-600
▁"	-601
▁pouvait	-602
▁voul	-603
▁acc	-604
▁sent	-605
▁Smith	-606
▁fais	-607
▁dép	-608
jours	-609
ale	-610
ect	-611
ettre	-612
ev	-613
ins	-614
ature	-615
!»	-616
▁–	-617
▁non	-618
▁inst	-619
êtes	-620
▁cor	-621
▁cham	-622
arr	-623
iez	-624
▁toujours	-625
écria	-626
▁Athos	-627
▁voi	-628
▁femme	-629
tr	-630
▁conn	-631
pendant	-632
▁On	-633
use	-634
lev	-635
▁toutes	-636
▁Oui	-637
▁nouv	-638
▁he	-639
irent	-640
▁pers	-641
▁dou	-642
atre	-643
rais	-644
ress	-645
▁wh	-646
▁voir	-647
▁env	-648
▁ca	-649
▁sav	-650
▁avaient	-651
enait	-652
eil	-653
▁auc	-654
▁tête	-655
▁pendant	-656
▁rest	-657
ages	-658
ente	-659
▁déj	-660
▁Mil	-661
urent	-662
▁beau	-663
ots	-664
▁autre	-665
▁près	-666
▁contin	-667
▁serv	-668
▁sol	-669
▁chose	-670
iers	-671
▁pris	-672
▁tu	-673
roit	-674
sible	-675
▁jeune	-676
▁fus	-677
▁int	-678
ady	-679
ign	-680
▁grande	-681
od	-682
▁cin	-683
inc	-684
▁aff	-685
▁cert	-686
▁préc	-687
ets	-688
▁dét	-689
▁sort	-690
▁eût	-691
ange	-692
▁faut	-693
▁viv	-694
▁demanda	-695
▁petit	-696
▁ad	-697
ouvr	-698
ables	-699
▁aur	-700
quel	-701
▁imp	-702
▁Nous	-703
ues	-704
ôte	-705
▁pu	-706
▁avez	-707
▁char	-708
▁:	-709
▁inc	-710
▁min	-711
▁emp	-712
tement	-713
▁contre	-714
▁quatre	-715
ip	-716
▁nom	-717
▁nuit	-718
▁bl	-719
▁prés	-720
ram	-721
▁heure	-722
oire	-723
▁avant	-724
▁cond	-725
iqu	-726
▁compagn	-727
▁Milady	-728
▁compr	-729
▁jours	-730
ow	-731
pt	-732
ran	-733
lez	-734
▁vol	-735
ave	-736
autre	-737
puis	-738
ition	-739
eus	-740
▁gl	-741
▁lors	-742
▁rapp	-743
▁assez	-744
▁travers	-745
▁be	-746
och	-747
▁hab	-748
▁cri	-749
▁trop	-750
ilus	-751
▁reconn	-752
ice	-753
arbert	-754
ations	-755
év	-756
he	-757
iment	-758
autilus	-759
tenant	-760
▁cl	-761
▁bon	-762
▁ap	-763
ouver	-764
▁côt	-765
ix	-766
aires	-767
▁chev	-768
▁ind	-769
▁mat	-770
uite	-771
ret	-772
orter	-773
ici	-774
▁Ch	-775
▁exp	-776
▁lieu	-777
ément	-778
ingt	-779
ardin	-780
erre	-781
▁was	-782
tant	-783
▁cou	-784
▁sal	-785
▁Port	-786
▁gard	-787
▁doute	-788
▁feu	-789
heure	-790
▁serait	-791
ogg	-792
▁pe	-793
ies	-794
▁Fogg	-795
ib	-796
▁riv	-797
▁Un	-798
▁dern	-799
▁mis	-800
▁devant	-801
ner	-802
▁mur	-803
▁déjà	-804
▁maître	-805
▁Harbert	-806
même	-807
....	-808
▁sais	-809
▁seul	-810
▁monde	-811
act	-812
ouss	-813
ombre	-814
éch	-815
▁mille	-816
Nautilus	-817
▁quit	-818
mer	-819
▁his	-820
▁obs	-821
ces	-822
▁chambre	-823
▁W	-824
▁that	-825
▁À	-826
▁haut	-827
▁soit	-828
▁enf	-829
anger	-830
rez	-831
igne	-832
▁Elle	-833
▁rais	-834
▁continu	-835
▁év	-836
ents	-837
anch	-838
▁devait	-839
ze	-840
ingén	-841
ver	-842
▁Au	-843
▁effet	-844
ame	-845
endu	-846
quet	-847
▁tomb	-848
▁nature	-849
çon	-850
▁autres	-851
fois	-852
rière	-853
▁êtes	-854
▁ag	-855
ingénieur	-856
▁ass	-857
▁Porthos	-858
nes	-859
emin	-860
▁bou	-861
▁sour	-862
▁pieds	-863
▁voix	-864
▁tant	-865
min	-866
▁depuis	-867
gl	-868
este	-869
▁jet	-870
▁Mme	-871
rer	-872
aque	-873
▁Dieu	-874
▁nos	-875
▁can	-876
▁Non	-877
illes	-878
▁soir	-879
ardinal	-880
ich	-881
▁esp	-882
▁conf	-883
▁st	-884
oign	-885
▁celui	-886
▁cardinal	-887
quer	-888
▁vou	-889
ade	-890
▁fût	-891
▁mort	-892
orm	-893
tes	-894
iens	-895
▁bord	-896
bl	-897
▁hommes	-898
ça	-899
▁nav	-900
aî	-901
emo	-902
aud	-903
ures	-904
▁Nemo	-905
oit	-906
▁lar	-907
▁ren	-908
▁1	-909
▁Roch	-910
▁es	-911
▁diff	-912
fait	-913
▁Par	-914
▁cal	-915
▁vit	-916
ole	-917
ud	-918
ientôt	-919
▁Cons	-920
ande	-921
ramis	-922
fl	-923
omm	-924
▁Al	-925
▁Bon	-926
▁fin	-927
▁peine	-928
temp	-929
aître	-930
ouvert	-931
lig	-932
ros	-933
dess	-934
acc	-935
▁liv	-936
▁comment	-937
▁fall	-938
▁vingt	-939
▁dist	-940
▁quoi	-941
▁milieu	-942
ilà	-943
▁De	-944
▁seulement	-945
▁my	-946
▁cinq	-947
ell	-948
▁Eh	-949
lice	-950
▁prom	-951
▁furent	-952
roch	-953
issait	-954
▁partie	-955
▁maintenant	-956
▁vi	-957
▁petite	-958
▁it	-959
▁côté	-960
▁reprit	-961
ester	-962
▁laqu	-963
là	-964
ck	-965
quoi	-966
▁or	-967
itude	-968
▁personne	-969
rit	-970
ult	-971
▁souv	-972
ém	-973
▁prendre	-974
iel	-975
▁profond	-976
▁ord	-977
▁vos	-978
antes	-979
▁fond	-980
▁mieux	-981
▁éch	-982
ph	-983
par	-984
▁desc	-985
▁marin	-986
▁él	-987
▁vér	-988
▁ici	-989
▁Conseil	-990
▁chez	-991
▁mous	-992
coup	-993
▁enfin	-994
▁matin	-995
▁route	-996
ailleurs	-997
▁Sp	-998
▁Aramis	-999
pris	-1000
▁rap	-1001
erç	-1002
uss	-1003
▁dix	-1004
ug	-1005
▁had	-1006
étaient	-1007
▁Cependant	-1008
ié	-1009
▁Si	-1010
enu	-1011
ense	-1012
iques	-1013
▁maison	-1014
ments	-1015
▁parler	-1016
ach	-1017
▁pres	-1018
▁prod	-1019
▁vent	-1020
▁vrai	-1021
▁pay	-1022
▁compagnons	-1023
uli	-1024
▁gar	-1025
▁Une	-1026
▁supp	-1027
▁crois	-1028
▁observ	-1029
ouse	-1030
▁Nab	-1031
▁perd	-1032
ères	-1033
aise	-1034
ilett	-1035
▁rend	-1036
▁chemin	-1037
ines	-1038
ains	-1039
▁ver	-1040
▁Ned	-1041
oncle	-1042
▁vu	-1043
▁lit	-1044
▁mot	-1045
anqu	-1046
▁bas	-1047
▁Spilett	-1048
▁bientôt	-1049
enez	-1050
▁étr	-1051
▁mains	-1052
▁Rochester	-1053
part	-1054
ction	-1055
jet	-1056
▁coeur	-1057
abord	-1058
▁prop	-1059
▁oncle	-1060
▁première	-1061
ccup	-1062
▁rou	-1063
▁demi	-1064
▁roi	-1065
▁sauv	-1066
esse	-1067
iste	-1068
▁lev	-1069
èv	-1070
▁fro	-1071
avez	-1072
▁colons	-1073
▁donner	-1074
ly	-1075
▁pri	-1076
▁sp	-1077
▁bes	-1078
ane	-1079
ablement	-1080
▁beaucoup	-1081
ps	-1082
▁bras	-1083
▁É	-1084
▁ph	-1085
▁moy	-1086
aisse	-1087
▁dév	-1088
▁écl	-1089
▁Passe	-1090
▁mad	-1091
née	-1092
▁imm	-1093
▁coul	-1094
▁eaux	-1095
édé	-1096
moi	-1097
emain	-1098
▁bois	-1099
▁quest	-1100
partout	-1101
▁Passepartout	-1102
▁tour	-1103
iter	-1104
▁déf	-1105
gne	-1106
arrêt	-1107
ats	-1108
▁Mr	-1109
▁cas	-1110
▁eux	-1111
acieux	-1112
▁exc	-1113
▁bout	-1114
▁Puis	-1115
▁choses	-1116
▁instant	-1117
▁aucune	-1118
▁réc	-1119
▁nouveau	-1120
bli	-1121
▁sc	-1122
▁loin	-1123
▁sû	-1124
▁you	-1125
▁place	-1126
▁is	-1127
▁emb	-1128
▁form	-1129
oles	-1130
▁ont	-1131
▁bonne	-1132
yant	-1133
▁contr	-1134
▁trouver	-1135
?»	-1136
▁Pour	-1137
▁faisait	-1138
▁Ah	-1139
▁gu	-1140
angl	-1141
▁jou	-1142
▁six	-1143
arqu	-1144
▁bar	-1145
▁sil	-1146
ières	-1147
▁Cette	-1148
▁fac	-1149
ident	-1150
temps	-1151
▁aucun	-1152
ah	-1153
▁Vo	-1154
aille	-1155
▁celle	-1156
her	-1157
homme	-1158
▁amis	-1159
▁anim	-1160
▁commen	-1161
euse	-1162
irer	-1163
ieurs	-1164
▁raison	-1165
▁pauv	-1166
ige	-1167
▁dir	-1168
▁tard	-1169
épar	-1170
▁hum	-1171
▁laquelle	-1172
▁premier	-1173
oh	-1174
ton	-1175
▁ans	-1176
▁perm	-1177
▁mousquet	-1178
▁allait	-1179
▁Monsieur	-1180
dessus	-1181
erc	-1182
rés	-1183
▁semblait	-1184
▁lum	-1185
▁lorsque	-1186
ché	-1187
▁prit	-1188
itôt	-1189
▁Alors	-1190
▁milles	-1191
ention	-1192
iles	-1193
jout	-1194
▁ceux	-1195
▁mois	-1196
▁seule	-1197
hor	-1198
éan	-1199
▁Pl	-1200
▁soup	-1201
▁Alice	-1202
▁ami	-1203
▁presque	-1204
▁retourn	-1205
avoir	-1206
▁simp	-1207
▁souff	-1208
RE	-1209
aint	-1210
ville	-1211
▁tranqu	-1212
▁venait	-1213
▁présent	-1214
édéon	-1215
▁Cand	-1216
▁Gédéon	-1217
bres	-1218
▁arr	-1219
ances	-1220
▁trans	-1221
▁Mon	-1222
▁aut	-1223
aissait	-1224
cev	-1225
▁Tré	-1226
▁ram	-1227
▁ref	-1228
▁Quel	-1229
▁côte	-1230
▁Candide	-1231
ales	-1232
▁déb	-1233
▁with	-1234
iz	-1235
▁abs	-1236
▁fallait	-1237
imp	-1238
▁inf	-1239
erait	-1240
té	-1241
▁sera	-1242
ngl	-1243
▁off	-1244
▁inter	-1245
▁Ils	-1246
▁pouss	-1247
▁Bonacieux	-1248
▁ro	-1249
ateau	-1250
▁reste	-1251
▁pouvais	-1252
ive	-1253
équ	-1254
▁Oh	-1255
agne	-1256
▁bruit	-1257
ourd	-1258
▁fou	-1259
▁ins	-1260
▁sorte	-1261
ira	-1262
▁cependant	-1263
aurais	-1264
▁chaque	-1265
▁soi	-1266
▁sub	-1267
▁vue	-1268
▁prov	-1269
▁elles	-1270
▁dispos	-1271
ict	-1272
▁fig	-1273
▁Tout	-1274
alement	-1275
lic	-1276
▁ress	-1277
▁comb	-1278
▁profess	-1279
▁dom	-1280
▁we	-1281
▁moyen	-1282
▁passer	-1283
erm	-1284
çait	-1285
▁not	-1286
▁envir	-1287
usement	-1288
▁renc	-1289
▁aurait	-1290
oure	-1291
▁pays	-1292
pl	-1293
rès	-1294
▁Tréville	-1295
utes	-1296
▁gén	-1297
▁aller	-1298
▁cents	-1299
▁lettre	-1300
▁quelle	-1301
▁question	-1302
eut	-1303
sent	-1304
uire	-1305
▁diffic	-1306
▁reporter	-1307
▁sign	-1308
endait	-1309
tel	-1310
▁vois	-1311
▁frapp	-1312
▁navire	-1313
▁plusieurs	-1314
▁ple	-1315
▁resp	-1316
▁sommes	-1317
emble	-1318
nd	-1319
▁up	-1320
endit	-1321
▁repr	-1322
▁rapid	-1323
▁table	-1324
rim	-1325
▁fam	-1326
▁ég	-1327
aid	-1328
ela	-1329
raî	-1330
ument	-1331
▁gent	-1332
ible	-1333
▁suff	-1334
rible	-1335
▁croy	-1336
▁situ	-1337
▁ajout	-1338
▁Re	-1339
▁Gran	-1340
▁voyage	-1341
gh	-1342
ène	-1343
▁gros	-1344
ements	-1345
▁voilà	-1346
▁garçon	-1347
âte	-1348
face	-1349
▁him	-1350
▁Granite	-1351
▁continua	-1352
▁huit	-1353
▁besoin	-1354
▁esprit	-1355
▁lég	-1356
▁pol	-1357
▁chercher	-1358
érieur	-1359
▁Que	-1360
▁possible	-1361
yrt	-1362
erai	-1363
yrton	-1364
▁tourn	-1365
▁Pendant	-1366
vent	-1367
▁plais	-1368
▁has	-1369
▁mor	-1370
écess	-1371
▁mots	-1372
▁pauvre	-1373
▁corps	-1374
▁which	-1375
▁dispar	-1376
▁minutes	-1377
▁Ma	-1378
▁Ph	-1379
▁cab	-1380
ience	-1381
▁appar	-1382
▁Jane	-1383
emment	-1384
▁belle	-1385
▁nombre	-1386
aît	-1387
▁val	-1388
▁Quand	-1389
▁surface	-1390
▁lequel	-1391
▁X	-1392
onse	-1393
▁but	-1394
avant	-1395
ètres	-1396
▁Land	-1397
▁plut	-1398
▁professeur	-1399
▁Hol	-1400
▁nécess	-1401
▁fai	-1402
▁fat	-1403
House	-1404
ième	-1405
▁dess	-1406
▁k	-1407
▁Sa	-1408
▁ens	-1409
▁consid	-1410
endemain	-1411
▁Sir	-1412
èrement	-1413
ger	-1414
▁sole	-1415
esc	-1416
gent	-1417
▁sup	-1418
▁force	-1419
▁habit	-1420
▁savoir	-1421
,"	-1422
ohn	-1423
oyer	-1424
ienne	-1425
ileas	-1426
▁Phileas	-1427
▁froid	-1428
eaux	-1429
elton	-1430
▁gens	-1431
▁pourquoi	-1432
."	-1433
▁do	-1434
▁id	-1435
▁po	-1436
▁cheval	-1437
▁certain	-1438
rouv	-1439
▁soleil	-1440
▁lendemain	-1441
gré	-1442
bles	-1443
▁Felton	-1444
▁manière	-1445
uy	-1446
▁fen	-1447
raient	-1448
▁bât	-1449
▁Quant	-1450
»,	-1451
irc	-1452
orme	-1453
chant	-1454
▁vérit	-1455
less	-1456
▁div	-1457
▁sud	-1458
▁certaine	-1459
▁tranquille	-1460
ieuse	-1461
inter	-1462
▁impos	-1463
▁press	-1464
▁résol	-1465
▁lumière	-1466
âmes	-1467
▁compl	-1468
opp	-1469
ose	-1470
▁fa	-1471
▁pré	-1472
irait	-1473
▁parce	-1474
▁2	-1475
▁ann	-1476
▁eut	-1477
▁tromp	-1478
▁autour	-1479
oss	-1480
èle	-1481
▁circ	-1482
▁noir	-1483
omment	-1484
amp	-1485
▁ac	-1486
▁mit	-1487
▁prêt	-1488
entend	-1489
andonn	-1490
▁plutôt	-1491
enf	-1492
era	-1493
▁Ces	-1494
▁Dans	-1495
sitôt	-1496
▁mouv	-1497
▁viol	-1498
▁mettre	-1499
▁aussitôt	-1500
▁te	-1501
▁men	-1502
veill	-1503
abl	-1504
▁Fix	-1505
▁have	-1506
▁â	-1507
sions	-1508
▁rent	-1509
▁figure	-1510
▁parfait	-1511
mi	-1512
eût	-1513
▁reine	-1514
dire	-1515
▁livres	-1516
▁longtemps	-1517
ume	-1518
▁The	-1519
▁proc	-1520
▁voulez	-1521
II	-1522
_,	-1523
ime	-1524
▁sh	-1525
aute	-1526
▁souvent	-1527
Je	-1528
aff	-1529
▁puiss	-1530
▁Holmes	-1531
ellement	-1532
▁environ	-1533
IT	-1534
liqu	-1535
▁cur	-1536
▁madame	-1537
▁précip	-1538
▁ayant	-1539
▁ferm	-1540
▁murm	-1541
▁Après	-1542
▁manqu	-1543
▁end	-1544
▁inv	-1545
▁trait	-1546
▁rendre	-1547
........	-1548
▁venir	-1549
ités	-1550
▁conc	-1551
▁mauv	-1552
▁derrière	-1553
exp	-1554
rant	-1555
▁compte	-1556
oie	-1557
ras	-1558
ust	-1559
issant	-1560
▁va	-1561
▁Son	-1562
▁reç	-1563
onneur	-1564
▁droit	-1565
▁go	-1566
▁avons	-1567
▁rivage	-1568
gé	-1569
▁Ne	-1570
▁dur	-1571
▁gen	-1572
▁ciel	-1573
nous	-1574
▁Can	-1575
▁prév	-1576
vre	-1577
▁extr	-1578
▁donné	-1579
avaient	-1580
▁ri	-1581
▁ess	-1582
▁rég	-1583
▁étions	-1584
▁silence	-1585
di	-1586
aie	-1587
▁li	-1588
▁ext	-1589
▁pat	-1590
andis	-1591
îtres	-1592
ression	-1593
▁voulait	-1594
AP	-1595
hab	-1596
▁pen	-1597
▁nord	-1598
▁Saint	-1599
▁ton	-1600
▁paroles	-1601
ax	-1602
rons	-1603
▁bless	-1604
▁grands	-1605
▁CH	-1606
▁mou	-1607
▁rac	-1608
▁vas	-1609
▁arrêt	-1610
▁propos	-1611
▁second	-1612
▁Fr	-1613
▁afin	-1614
▁large	-1615
▁visage	-1616
▁nouvelle	-1617
qui	-1618
▁Votre	-1619
▁St	-1620
tout	-1621
▁face	-1622
▁pare	-1623
▁savez	-1624
▁disait	-1625
gu	-1626
anç	-1627
▁ve	-1628
▁gagn	-1629
▁commun	-1630
▁connaiss	-1631
ind	-1632
obs	-1633
ral	-1634
▁air	-1635
▁red	-1636
▁ajouta	-1637
ham	-1638
▁fré	-1639
▁sat	-1640
anche	-1641
▁prob	-1642
▁croire	-1643
▁dernier	-1644
▁dites	-1645
cur	-1646
▁Av	-1647
▁Là	-1648
▁fix	-1649
▁pén	-1650
▁sau	-1651
▁calme	-1652
▁enfant	-1653
▁bri	-1654
èvres	-1655
▁vint	-1656
▁occup	-1657
▁somme	-1658
▁op	-1659
pect	-1660
▁bal	-1661
▁cré	-1662
▁pus	-1663
cteur	-1664
▁atte	-1665
igneur	-1666
▁Comment	-1667
▁entendu	-1668
▁suivant	-1669
erne	-1670
▁sens	-1671
▁trou	-1672
▁trouvait	-1673
ta	-1674
erie	-1675
tait	-1676
inaire	-1677
▁Canad	-1678
▁faite	-1679
▁distance	-1680
ok	-1681
▁pâ	-1682
▁Mlle	-1683
▁bris	-1684
▁sept	-1685
amment	-1686
▁chass	-1687
amb	-1688
ray	-1689
▁ir	-1690
▁mari	-1691
ifique	-1692
▁chien	-1693
▁relev	-1694
▁Ayrton	-1695
▁maîtres	-1696
▁puisque	-1697
▁pourtant	-1698
erve	-1699
▁adm	-1700
▁CHAP	-1701
▁mour	-1702
▁brill	-1703
▁désir	-1704
▁demeur	-1705
obe	-1706
▁gal	-1707
▁sang	-1708
▁cinqu	-1709
▁crain	-1710
▁commenc	-1711
▁surtout	-1712
▁her	-1713
▁hor	-1714
▁march	-1715
▁impossible	-1716
ussi	-1717
▁pier	-1718
▁tent	-1719
▁hasard	-1720
▁entendre	-1721
▁répondis	-1722
▁terrible	-1723
oln	-1724
▁cre	-1725
▁flot	-1726
▁plac	-1727
incoln	-1728
▁sentiment	-1729
rée	-1730
▁chal	-1731
▁voit	-1732
▁passé	-1733
érieure	-1734
▁lorsqu	-1735
▁dernière	-1736
ges	-1737
lin	-1738
âce	-1739
▁appel	-1740
▁Canadien	-1741
▁considér	-1742
▁Y	-1743
▁fis	-1744
▁trem	-1745
cept	-1746
urer	-1747
▁out	-1748
▁sing	-1749
itions	-1750
sieurs	-1751
▁accomp	-1752
▁mètres	-1753
issement	-1754
uits	-1755
autres	-1756
ouverte	-1757
▁partic	-1758
▁convers	-1759
▁remarqu	-1760
off	-1761
hôte	-1762
▁Enfin	-1763
▁forêt	-1764
▁courant	-1765
▁laisser	-1766
ast	-1767
heur	-1768
oupe	-1769
uses	-1770
▁pap	-1771
arc	-1772
oud	-1773
elopp	-1774
▁ouvr	-1775
▁succ	-1776
eterre	-1777
▁garde	-1778
enaient	-1779
▁quitter	-1780
ru	-1781
ris	-1782
▁empl	-1783
▁père	-1784
né	-1785
uf	-1786
▁K	-1787
ves	-1788
ève	-1789
ITRE	-1790
▁partir	-1791
▁CHAPITRE	-1792
fr	-1793
▁Or	-1794
iner	-1795
▁fil	-1796
▁appr	-1797
▁fatig	-1798
▁parole	-1799
ngleterre	-1800
▁nu	-1801
inst	-1802
ueur	-1803
▁oui	-1804
▁sûr	-1805
entes	-1806
▁manger	-1807
▁affaire	-1808
céan	-1809
alier	-1810
▁Lond	-1811
▁chac	-1812
▁voud	-1813
▁décid	-1814
ry	-1815
anim	-1816
▁île	-1817
▁prin	-1818
▁plaisir	-1819
asion	-1820
▁veux	-1821
▁remont	-1822
▁retour	-1823
lem	-1824
▁In	-1825
▁lut	-1826
ilité	-1827
anchet	-1828
ivement	-1829
▁mod	-1830
▁quant	-1831
▁cherch	-1832
▁trouvé	-1833
▁étrange	-1834
env	-1835
jest	-1836
alité	-1837
▁poss	-1838
▁tenait	-1839
▁demeure	-1840
▁demandai	-1841
▁put	-1842
arriv	-1843
▁pois	-1844
▁coups	-1845
approch	-1846
▁Planchet	-1847
rap	-1848
▁arm	-1849
▁doi	-1850
▁ray	-1851
▁repos	-1852
▁autant	-1853
▁pourrait	-1854
red	-1855
son	-1856
iend	-1857
▁vais	-1858
▁Comme	-1859
▁franch	-1860
▁conversation	-1861
els	-1862
▁sait	-1863
▁absol	-1864
▁salle	-1865
▁pouvoir	-1866
ude	-1867
▁mê	-1868
▁eus	-1869
▁tenir	-1870
▁arbres	-1871
ète	-1872
ould	-1873
▁tir	-1874
▁parut	-1875
▁entière	-1876
▁z	-1877
ieus	-1878
oyez	-1879
▁cav	-1880
▁said	-1881
▁ville	-1882
istoire	-1883
▁trente	-1884
jets	-1885
ettes	-1886
▁Cela	-1887
▁génér	-1888
▁malheure	-1889
aign	-1890
▁pou	-1891
▁pensée	-1892
ak	-1893
lus	-1894
arer	-1895
ough	-1896
▁Sur	-1897
▁fav	-1898
aines	-1899
▁quart	-1900
▁command	-1901
▁journée	-1902
▁situation	-1903
az	-1904
eff	-1905
oux	-1906
uck	-1907
▁surpr	-1908
▁tandis	-1909
▁famille	-1910
▁pron	-1911
▁flots	-1912
été	-1913
▁ém	-1914
ager	-1915
▁Top	-1916
▁aim	-1917
▁sus	-1918
action	-1919
▁suite	-1920
▁gouver	-1921
▁trouva	-1922
arp	-1923
ôle	-1924
▁ju	-1925
land	-1926
▁rel	-1927
▁sem	-1928
outer	-1929
▁disc	-1930
▁mers	-1931
▁lèvres	-1932
▁perdre	-1933
▁Londres	-1934
▁pouvaient	-1935
ber	-1936
ctri	-1937
occup	-1938
▁hors	-1939
▁perdu	-1940
▁longue	-1941
▁suivre	-1942
▁présence	-1943
ute	-1944
▁piè	-1945
▁signe	-1946
▁(	-1947
ome	-1948
▁pir	-1949
▁satis	-1950
▁train	-1951
▁passage	-1952
▁particuli	-1953
lex	-1954
ites	-1955
▁pal	-1956
aperç	-1957
resse	-1958
roite	-1959
▁séri	-1960
▁upon	-1961
▁faites	-1962
▁fenêtre	-1963
▁cinquante	-1964
▁rê	-1965
oque	-1966
▁lib	-1967
▁caus	-1968
▁joie	-1969
▁venu	-1970
▁oubli	-1971
▁salon	-1972
▁corral	-1973
▁import	-1974
▁naturel	-1975
▁plateau	-1976
▁demander	-1977
Il	-1978
bes	-1979
igh	-1980
îmes	-1981
▁lat	-1982
▁occ	-1983
endue	-1984
quels	-1985
âteau	-1986
▁recomm	-1987
▁us	-1988
▁cru	-1989
▁réf	-1990
cevoir	-1991
▁passa	-1992
▁murmur	-1993
▁secret	-1994
▁simple	-1995
▁mousquetaires	-1996
vers	-1997
▁dest	-1998
▁pense	-1999
▁appart	-2000
▁départ	-2001
▁rencont	-2002
▁travail	-2003
▁dég	-2004
▁tri	-2005
▁déli	-2006
▁from	-2007
▁sac	-2008
▁grâce	-2009
▁racont	-2010
▁circons	-2011
▁Ar	-2012
ards	-2013
▁lac	-2014
iller	-2015
onnes	-2016
aissez	-2017
▁prépar	-2018
▁vivement	-2019
fléch	-2020
indre	-2021
ution	-2022
▁doul	-2023
▁touts	-2024
▁malgré	-2025
▁savais	-2026
▁bâtiment	-2027
uer	-2028
▁én	-2029
onge	-2030
▁mét	-2031
▁bour	-2032
▁parc	-2033
▁vert	-2034
▁rempl	-2035
▁domest	-2036
▁vaisse	-2037
▁contraire	-2038
▁rapidement	-2039
édi	-2040
esprit	-2041
▁Aussi	-2042
▁forme	-2043
▁vérité	-2044
▁grandes	-2045
▁mouvement	-2046
ule	-2047
insi	-2048
▁inut	-2049
▁litt	-2050
▁quar	-2051
▁cause	-2052
▁morce	-2053
▁arrivé	-2054
▁abandonn	-2055
idi	-2056
▁nour	-2057
▁marche	-2058
èce	-2059
abri	-2060
izon	-2061
érer	-2062
▁fol	-2063
jesté	-2064
▁angl	-2065
▁camp	-2066
▁parv	-2067
▁facile	-2068
can	-2069
oindre	-2070
▁façon	-2071
▁propre	-2072
▁transp	-2073
▁animaux	-2074
be	-2075
onné	-2076
▁Des	-2077
après	-2078
anches	-2079
▁fille	-2080
▁étant	-2081
▁savait	-2082
eusement	-2083
▁Lincoln	-2084
▁répondre	-2085
aller	-2086
ateur	-2087
ordre	-2088
▁pist	-2089
▁vieux	-2090
yp	-2091
cip	-2092
▁He	-2093
rier	-2094
ètre	-2095
ission	-2096
▁aperç	-2097
ilement	-2098
▁termin	-2099
▁voyant	-2100
issaient	-2101
▁circonst	-2102
Eh	-2103
▁dû	-2104
ener	-2105
▁Hen	-2106
▁duc	-2107
▁dès	-2108
oncer	-2109
ontre	-2110
argent	-2111
▁frère	-2112
▁regarda	-2113
mar	-2114
oqu	-2115
chev	-2116
▁myst	-2117
▁essay	-2118
▁meill	-2119
▁chacun	-2120
▁gardes	-2121
▁conséqu	-2122
▁messieurs	-2123
--«	-2124
ope	-2125
▁act	-2126
▁idée	-2127
▁quin	-2128
▁this	-2129
arrêta	-2130
ingham	-2131
istence	-2132
minence	-2133
tu	-2134
ath	-2135
cin	-2136
▁brû	-2137
▁mett	-2138
▁canot	-2139
▁hauteur	-2140
▁rapport	-2141
▁vitesse	-2142
uckingham	-2143
étr	-2144
▁gui	-2145
▁doit	-2146
▁réfléch	-2147
▁Buckingham	-2148
ends	-2149
sons	-2150
▁vap	-2151
▁grav	-2152
▁telle	-2153
▁voulu	-2154
oiselle	-2155
▁lieues	-2156
▁château	-2157
▁revenir	-2158
▁direction	-2159
fs	-2160
gt	-2161
ifs	-2162
▁»,	-2163
emple	-2164
▁Sans	-2165
▁cach	-2166
▁cord	-2167
▁déch	-2168
▁four	-2169
▁réponse	-2170
▁sourire	-2171
▁reconnaître	-2172
let	-2173
âch	-2174
onnu	-2175
▁vin	-2176
▁lang	-2177
▁front	-2178
▁jeunes	-2179
der	-2180
ian	-2181
espér	-2182
▁were	-2183
ailles	-2184
ouvrir	-2185
▁avais	-2186
▁indiqu	-2187
▁sortir	-2188
▁service	-2189
▁devaient	-2190
▁quarante	-2191
▁difficile	-2192
▁parfaitement	-2193
ouest	-2194
▁donna	-2195
▁juste	-2196
▁Winter	-2197
▁volont	-2198
▁demande	-2199
▁véritable	-2200
inte	-2201
▁cad	-2202
▁éclat	-2203
▁habitu	-2204
airement	-2205
▁prisonn	-2206
▁seconde	-2207
▁trouvai	-2208
▁précipit	-2209
la	-2210
▁lis	-2211
▁Paris	-2212
▁Toute	-2213
▁projet	-2214
▁content	-2215
▁Pourquoi	-2216
ote	-2217
oth	-2218
urs	-2219
▁Ad	-2220
▁Gr	-2221
▁dî	-2222
▁fe	-2223
▁batt	-2224
angers	-2225
▁there	-2226
▁voyag	-2227
oeu	-2228
agin	-2229
ança	-2230
▁tort	-2231
▁faisant	-2232
▁gentlem	-2233
des	-2234
Océan	-2235
▁peur	-2236
▁soin	-2237
▁inqui	-2238
▁sépar	-2239
▁voici	-2240
▁montre	-2241
▁semble	-2242
▁triste	-2243
▁endroit	-2244
one	-2245
asser	-2246
aurait	-2247
lectri	-2248
▁ouvert	-2249
▁rester	-2250
ides	-2251
ight	-2252
tion	-2253
▁bat	-2254
▁fum	-2255
▁âme	-2256
▁John	-2257
▁magn	-2258
▁donne	-2259
▁voyez	-2260
▁bateau	-2261
▁danger	-2262
idemment	-2263
▁Majesté	-2264
▁combien	-2265
îl	-2266
ler	-2267
uir	-2268
aufr	-2269
▁Est	-2270
curité	-2271
rouver	-2272
écriai	-2273
▁Ainsi	-2274
▁doigt	-2275
▁haute	-2276
▁avions	-2277
▁destin	-2278
▁éloign	-2279
▁compris	-2280
na	-2281
arm	-2282
Vous	-2283
aime	-2284
▁sin	-2285
▁thé	-2286
▁Hans	-2287
▁Lord	-2288
▁neuf	-2289
▁saut	-2290
▁déjeu	-2291
▁naufr	-2292
▁parti	-2293
▁pours	-2294
horizon	-2295
▁attend	-2296
▁suffis	-2297
intérieur	-2298
ia	-2299
▁by	-2300
▁Henry	-2301
▁plein	-2302
▁différ	-2303
▁Éminence	-2304
con	-2305
hui	-2306
ood	-2307
ates	-2308
▁eng	-2309
jourd	-2310
▁rouge	-2311
endredi	-2312
▁absolument	-2313
sp	-2314
ode	-2315
rir	-2316
enue	-2317
élev	-2318
▁ois	-2319
▁élev	-2320
échapp	-2321
▁colère	-2322
▁roches	-2323
▁souvenir	-2324
▁reconnaiss	-2325
▁rue	-2326
entre	-2327
▁cuis	-2328
▁trac	-2329
▁réserv	-2330
▁convict	-2331
▁mauvais	-2332
emoiselle	-2333
mos	-2334
éro	-2335
anit	-2336
▁jug	-2337
oitié	-2338
êcher	-2339
êtres	-2340
▁fourn	-2341
itation	-2342
▁constr	-2343
▁sombre	-2344
▁échapp	-2345
▁observer	-2346
Qu	-2347
_.	-2348
agé	-2349
fort	-2350
▁dame	-2351
▁leva	-2352
▁passe	-2353
▁commenç	-2354
▁descend	-2355
éb	-2356
ock	-2357
rie	-2358
oirs	-2359
embre	-2360
oureux	-2361
▁moitié	-2362
▁petits	-2363
▁provis	-2364
▁chevaux	-2365
ouill	-2366
phère	-2367
▁Lors	-2368
▁pain	-2369
▁pont	-2370
▁const	-2371
▁milli	-2372
▁conserv	-2373
▁extrême	-2374
▁comprendre	-2375
Et	-2376
lar	-2377
▁foi	-2378
▁gau	-2379
▁rév	-2380
illon	-2381
▁plui	-2382
▁them	-2383
▁sable	-2384
▁princip	-2385
▁singuli	-2386
▁vaisseau	-2387
▁rencontre	-2388
?"	-2389
hors	-2390
lant	-2391
▁esc	-2392
▁vig	-2393
oires	-2394
▁exam	-2395
▁épau	-2396
▁basse	-2397
▁lande	-2398
▁Quelques	-2399
▁ut	-2400
Mais	-2401
nent	-2402
reux	-2403
▁dépl	-2404
▁just	-2405
▁mons	-2406
▁demain	-2407
arcation	-2408
▁longues	-2409
▁voiture	-2410
▁instants	-2411
▁paraissait	-2412
,»	-2413
af	-2414
rod	-2415
rém	-2416
acle	-2417
assi	-2418
iver	-2419
çons	-2420
▁Mar	-2421
▁Mes	-2422
▁been	-2423
▁entra	-2424
ération	-2425
▁granit	-2426
Oui	-2427
own	-2428
ron	-2429
lles	-2430
▁pût	-2431
▁pâle	-2432
▁tuer	-2433
▁Voilà	-2434
▁chang	-2435
▁allons	-2436
▁pointe	-2437
▁quelqu	-2438
▁heureux	-2439
▁attention	-2440
ys	-2441
êch	-2442
▁Du	-2443
▁one	-2444
ipage	-2445
▁expl	-2446
▁état	-2447
▁ordre	-2448
▁arriva	-2449
▁entraî	-2450
▁rappel	-2451
▁portait	-2452
▁Char	-2453
▁chap	-2454
▁goût	-2455
ication	-2456
▁divers	-2457
▁couvert	-2458
▁fortune	-2459
▁poissons	-2460
▁regardait	-2461
nt	-2462
érêt	-2463
▁anc	-2464
▁mère	-2465
▁armes	-2466
▁animal	-2467
▁précis	-2468
▁repris	-2469
aintenant	-2470
▁Vendredi	-2471
▁maîtresse	-2472
▁regardant	-2473
▁certainement	-2474
ked	-2475
appr	-2476
onie	-2477
îlot	-2478
▁siè	-2479
avons	-2480
essie	-2481
▁Fran	-2482
▁dorm	-2483
▁forc	-2484
▁vête	-2485
ection	-2486
▁allez	-2487
▁répét	-2488
▁France	-2489
▁servir	-2490
▁ensuite	-2491
ub	-2492
ît	-2493
ifi	-2494
ades	-2495
ancs	-2496
romp	-2497
▁Qui	-2498
▁ris	-2499
▁vag	-2500
▁pard	-2501
▁terr	-2502
▁verre	-2503
▁dirige	-2504
▁éclair	-2505
▁regarder	-2506
▁vraiment	-2507
oyé	-2508
ache	-2509
▁tor	-2510
▁Peut	-2511
▁vite	-2512
▁cours	-2513
▁effort	-2514
▁travaill	-2515
aqu	-2516
ari	-2517
méri	-2518
riez	-2519
▁ore	-2520
asses	-2521
▁liqu	-2522
▁libre	-2523
▁trouve	-2524
entendis	-2525
▁murmura	-2526
▁position	-2527
ext	-2528
œur	-2529
lier	-2530
oeil	-2531
▁méd	-2532
▁rej	-2533
▁équ	-2534
▁gauche	-2535
▁quinze	-2536
▁recher	-2537
▁aujourd	-2538
▁retrouv	-2539
ll	-2540
où	-2541
▁sy	-2542
John	-2543
orté	-2544
uisit	-2545
▁Bien	-2546
▁Mart	-2547
▁douze	-2548
▁fusil	-2549
▁Bessie	-2550
▁celles	-2551
▁réflex	-2552
▁volcan	-2553
▁voyait	-2554
uc	-2555
reu	-2556
ème	-2557
âtre	-2558
▁Pas	-2559
▁Merc	-2560
▁soix	-2561
▁dîner	-2562
▁tirer	-2563
▁revint	-2564
aim	-2565
emm	-2566
▁ant	-2567
▁enne	-2568
▁jeta	-2569
▁susp	-2570
nement	-2571
▁remar	-2572
▁chasse	-2573
▁diable	-2574
▁excell	-2575
▁résult	-2576
▁sembla	-2577
▁déjeuner	-2578
▁ressembl	-2579
assé	-2580
accomp	-2581
▁fabri	-2582
▁parmi	-2583
▁bouche	-2584
▁femmes	-2585
▁tantôt	-2586
▁eussent	-2587
▁premiers	-2588
onseigneur	-2589
écl	-2590
ield	-2591
écut	-2592
ignor	-2593
▁ligne	-2594
▁misér	-2595
▁pénét	-2596
▁vaste	-2597
▁caract	-2598
▁droite	-2599
▁paraît	-2600
▁tomber	-2601
▁arriver	-2602
▁profondeur	-2603
.--	-2604
fax	-2605
roy	-2606
ainc	-2607
▁gro	-2608
▁bale	-2609
▁they	-2610
ouvrit	-2611
▁globe	-2612
▁oblig	-2613
▁laissa	-2614
▁cheveux	-2615
▁docteur	-2616
▁parcour	-2617
▁regards	-2618
▁restait	-2619
▁montagne	-2620
hum	-2621
mis	-2622
ted	-2623
▁Ses	-2624
▁Fair	-2625
▁Sauv	-2626
tellig	-2627
▁quitté	-2628
▁serais	-2629
▁Fairfax	-2630
▁rivière	-2631
▁voulais	-2632
▁évidemment	-2633
▁quelquefois	-2634
▁mademoiselle	-2635
ss	-2636
▁Th	-2637
cinq	-2638
ouff	-2639
rock	-2640
▁Cun	-2641
▁ait	-2642
▁dém	-2643
▁pan	-2644
ences	-2645
▁agré	-2646
▁douc	-2647
▁faim	-2648
▁somm	-2649
attend	-2650
▁Mercy	-2651
▁espér	-2652
▁songe	-2653
honneur	-2654
▁dehors	-2655
▁papier	-2656
▁satisf	-2657
▁veille	-2658
onnement	-2659
▁commença	-2660
▁soixante	-2661
▁surprise	-2662
▁gentleman	-2663
▁semblable	-2664
▁entièrement	-2665
uv	-2666
▁Où	-2667
ouda	-2668
▁are	-2669
▁jol	-2670
▁parlé	-2671
▁pouvez	-2672
▁disting	-2673
▁enfants	-2674
▁quoique	-2675
▁difficult	-2676
atri	-2677
▁rad	-2678
agnes	-2679
▁cris	-2680
▁diam	-2681
▁lune	-2682
▁sold	-2683
▁sout	-2684
espoir	-2685
idence	-2686
▁franç	-2687
dessous	-2688
▁firent	-2689
▁pierre	-2690
▁promen	-2691
▁suppos	-2692
▁trembl	-2693
▁bonheur	-2694
▁donnait	-2695
▁sentais	-2696
▁vieille	-2697
▁ensemble	-2698
lé	-2699
ann	-2700
▁18	-2701
auss	-2702
ogue	-2703
▁Pro	-2704
iteur	-2705
▁Mort	-2706
▁Rien	-2707
▁veut	-2708
aperçus	-2709
▁auquel	-2710
▁immédi	-2711
▁mourir	-2712
▁pourrais	-2713
tez	-2714
▁opp	-2715
liqua	-2716
▁dout	-2717
▁midi	-2718
nglais	-2719
▁achev	-2720
▁brave	-2721
▁court	-2722
▁merve	-2723
▁vient	-2724
▁inutile	-2725
▁connaître	-2726
▁mousquetaire	-2727
,—	-2728
etty	-2729
ûmes	-2730
▁Pac	-2731
▁dos	-2732
▁obt	-2733
appel	-2734
iance	-2735
étude	-2736
▁cess	-2737
riture	-2738
▁Aouda	-2739
▁admir	-2740
▁avent	-2741
▁forces	-2742
▁libert	-2743
▁regret	-2744
▁anglais	-2745
▁électri	-2746
▁muraille	-2747
▁ordinaire	-2748
▁connaissance	-2749
,--	-2750
oré	-2751
▁tém	-2752
▁rire	-2753
▁Cunég	-2754
▁dress	-2755
▁forte	-2756
▁maint	-2757
▁surpris	-2758
▁—	-2759
eté	-2760
▁dr	-2761
enne	-2762
iana	-2763
reté	-2764
amour	-2765
onner	-2766
▁Reed	-2767
▁prud	-2768
▁Ketty	-2769
▁charm	-2770
▁favor	-2771
▁grève	-2772
▁voile	-2773
atement	-2774
▁espèce	-2775
▁taille	-2776
ieusement	-2777
▁Cunégonde	-2778
▁An	-2779
▁bag	-2780
eusse	-2781
otion	-2782
▁Quoi	-2783
▁coqu	-2784
▁laissé	-2785
iquement	-2786
▁poursuiv	-2787
▁malheureux	-2788
atte	-2789
inex	-2790
field	-2791
ignes	-2792
▁Tous	-2793
▁cria	-2794
rémité	-2795
▁chair	-2796
▁digne	-2797
▁livre	-2798
▁conven	-2799
▁détail	-2800
▁rayons	-2801
▁sommeil	-2802
▁attendre	-2803
▁rapproch	-2804
▁montagnes	-2805
▁retrouver	-2806
ds	-2807
ask	-2808
isc	-2809
rop	-2810
imer	-2811
ives	-2812
umes	-2813
état	-2814
▁deg	-2815
▁rid	-2816
appar	-2817
▁entr	-2818
▁lent	-2819
▁poche	-2820
affaire	-2821
▁croyez	-2822
▁pleine	-2823
▁tempér	-2824
escalier	-2825
▁fussent	-2826
▁pensées	-2827
▁venaient	-2828
▁vêtements	-2829
▁disposition	-2830
▁tranquillement	-2831
gue	-2832
iné	-2833
lam	-2834
rid	-2835
uns	-2836
▁mu	-2837
user	-2838
▁Mrs	-2839
istes	-2840
éress	-2841
▁réun	-2842
▁pluie	-2843
▁porter	-2844
▁terres	-2845
▁Charles	-2846
▁chaleur	-2847
▁travaux	-2848
▁Monseigneur	-2849
▁hal	-2850
▁mus	-2851
▁mél	-2852
▁nul	-2853
▁Stap	-2854
▁plan	-2855
▁prét	-2856
▁some	-2857
ateurs	-2858
▁would	-2859
▁années	-2860
▁penser	-2861
▁liberté	-2862
▁respect	-2863
▁évident	-2864
obscurité	-2865
▁voudrais	-2866
Angleterre	-2867
▁nouvelles	-2868
▁troisième	-2869
iff	-2870
ost	-2871
vue	-2872
anou	-2873
▁dim	-2874
▁fur	-2875
▁pic	-2876
▁tap	-2877
▁Bask	-2878
▁Grim	-2879
▁faud	-2880
▁prix	-2881
▁rang	-2882
éloign	-2883
▁boute	-2884
▁masse	-2885
▁retir	-2886
▁récit	-2887
erville	-2888
▁degrés	-2889
▁voulut	-2890
▁arrière	-2891
▁parlait	-2892
▁secours	-2893
▁occasion	-2894
▁descendre	-2895
▁recommand	-2896
▁Baskerville	-2897
aï	-2898
flu	-2899
led	-2900
bout	-2901
erci	-2902
gram	-2903
ires	-2904
iser	-2905
▁Moi	-2906
▁pes	-2907
▁roc	-2908
▁rass	-2909
espère	-2910
▁faits	-2911
▁secou	-2912
▁gentil	-2913
▁sortit	-2914
avantage	-2915
▁Lorsque	-2916
▁It	-2917
▁lo	-2918
euses	-2919
▁ceci	-2920
ctions	-2921
▁immob	-2922
▁arrivée	-2923
▁morceau	-2924
▁passait	-2925
th	-2926
lait	-2927
▁Ind	-2928
▁fid	-2929
▁pit	-2930
atson	-2931
▁Vers	-2932
▁Adèle	-2933
▁amour	-2934
▁appro	-2935
▁vivre	-2936
▁Watson	-2937
▁attach	-2938
▁compos	-2939
▁effray	-2940
▁poudre	-2941
▁manquer	-2942
▁peuvent	-2943
▁Pacifique	-2944
▁compagnie	-2945
▁puissance	-2946
▁nécessaire	-2947
▁réd	-2948
▁who	-2949
▁doux	-2950
▁nage	-2951
▁reçu	-2952
▁about	-2953
▁sujet	-2954
▁craindre	-2955
▁lesquels	-2956
▁découvert	-2957
▁domestique	-2958
▁gentilhomme	-2959
ym	-2960
ices	-2961
pent	-2962
▁Cet	-2963
▁sel	-2964
Athos	-2965
reuse	-2966
▁Plus	-2967
▁harp	-2968
▁traî	-2969
ombres	-2970
▁fréqu	-2971
quelles	-2972
▁Martin	-2973
▁gagner	-2974
▁ordres	-2975
▁pensai	-2976
▁immense	-2977
▁intérêt	-2978
▁faisaient	-2979
▁commandant	-2980
Ah	-2981
eue	-2982
▁DE	-2983
agit	-2984
amar	-2985
▁ard	-2986
▁dér	-2987
▁pér	-2988
ancer	-2989
▁calc	-2990
▁flam	-2991
▁vict	-2992
illage	-2993
▁appare	-2994
▁larmes	-2995
▁permett	-2996
▁profonde	-2997
▁regardai	-2998
▁seraient	-2999
▁accompagn	-3000
cep	-3001
tte	-3002
way	-3003
onte	-3004
çant	-3005
▁tel	-3006
leton	-3007
ouvre	-3008
▁aura	-3009
▁fant	-3010
▁mach	-3011
▁prol	-3012
▁renf	-3013
inrent	-3014
▁chois	-3015
▁déliv	-3016
▁mante	-3017
▁écout	-3018
▁blessé	-3019
▁entend	-3020
▁rapide	-3021
▁convicts	-3022
▁probable	-3023
▁voyageurs	-3024
▁commençait	-3025
▁immédiatement	-3026
arn	-3027
ork	-3028
▁chant	-3029
▁journ	-3030
▁navig	-3031
▁relig	-3032
endroit	-3033
▁charge	-3034
▁époque	-3035
▁Grimaud	-3036
▁histoire	-3037
▁Toutefois	-3038
èg	-3039
oph	-3040
▁gé	-3041
auté	-3042
enus	-3043
▁gre	-3044
▁hés	-3045
ister	-3046
▁Deux	-3047
▁dois	-3048
▁font	-3049
atique	-3050
observ	-3051
ouvant	-3052
▁dents	-3053
▁douce	-3054
▁guide	-3055
▁morte	-3056
▁plant	-3057
mérique	-3058
▁désire	-3059
▁connais	-3060
▁courage	-3061
▁manquait	-3062
▁Stapleton	-3063
ouch	-3064
éanm	-3065
▁All	-3066
▁bons	-3067
▁inex	-3068
▁juge	-3069
illons	-3070
▁gliss	-3071
▁mange	-3072
▁suivi	-3073
▁déclar	-3074
▁entrer	-3075
▁imagin	-3076
▁puisqu	-3077
approcha	-3078
éanmoins	-3079
▁moindre	-3080
▁quantité	-3081
▁compagnon	-3082
ON	-3083
adm	-3084
eng	-3085
ern	-3086
ames	-3087
iant	-3088
usqu	-3089
éric	-3090
▁pur	-3091
▁alla	-3092
▁arra	-3093
▁rive	-3094
▁ferme	-3095
▁genre	-3096
▁spect	-3097
importe	-3098
▁double	-3099
▁énorme	-3100
eulement	-3101
▁laquais	-3102
▁heureuse	-3103
▁mauvaise	-3104
................	-3105
yre	-3106
...»	-3107
inct	-3108
ogne	-3109
reur	-3110
icier	-3111
▁stup	-3112
▁plong	-3113
▁devint	-3114
▁mesure	-3115
▁disparu	-3116
▁humaine	-3117
▁simplement	-3118
we	-3119
▁3	-3120
ric	-3121
uré	-3122
▁bo	-3123
▁os	-3124
▁ta	-3125
quis	-3126
rine	-3127
ules	-3128
ènes	-3129
▁cle	-3130
▁tué	-3131
▁fils	-3132
▁hôte	-3133
▁impr	-3134
▁grave	-3135
▁plate	-3136
iennent	-3137
inconnu	-3138
oration	-3139
ouvrait	-3140
▁craign	-3141
▁dessus	-3142
▁langue	-3143
▁représ	-3144
▁signal	-3145
▁oiseaux	-3146
▁conduire	-3147
▁français	-3148
▁facilement	-3149
Un	-3150
auc	-3151
old	-3152
▁LE	-3153
aide	-3154
form	-3155
ouer	-3156
▁nég	-3157
▁évé	-3158
ercev	-3159
hôtel	-3160
▁aigu	-3161
▁mang	-3162
▁obst	-3163
▁poit	-3164
▁sûre	-3165
▁couch	-3166
▁repas	-3167
▁resta	-3168
▁tomba	-3169
▁chance	-3170
▁petites	-3171
▁latitude	-3172
▁confiance	-3173
▁semblables	-3174
▁profondément	-3175
éh	-3176
ars	-3177
exc	-3178
riff	-3179
▁any	-3180
istre	-3181
▁roul	-3182
animal	-3183
▁direc	-3184
▁dirig	-3185
▁parle	-3186
▁pièce	-3187
▁soyez	-3188
▁guerre	-3189
agissait	-3190
▁curieux	-3191
▁pistoles	-3192
▁répliqua	-3193
▁Angleterre	-3194
▁conditions	-3195
elf	-3196
ize	-3197
▁XX	-3198
horn	-3199
rois	-3200
usse	-3201
▁hér	-3202
▁méc	-3203
▁mér	-3204
inion	-3205
▁coll	-3206
▁hard	-3207
▁roch	-3208
liquer	-3209
▁blanc	-3210
▁chaud	-3211
▁enlev	-3212
▁lueur	-3213
▁devoir	-3214
▁fallut	-3215
▁soulev	-3216
▁voyais	-3217
mosphère	-3218
paravant	-3219
▁précaut	-3220
▁violence	-3221
ué	-3222
ias	-3223
rif	-3224
rét	-3225
ses	-3226
empl	-3227
line	-3228
▁Jup	-3229
▁ang	-3230
▁art	-3231
allée	-3232
reuve	-3233
▁exac	-3234
▁fini	-3235
▁hand	-3236
▁onze	-3237
▁when	-3238
adress	-3239
▁debout	-3240
▁instru	-3241
▁traits	-3242
▁général	-3243
▁laissait	-3244
EN	-3245
ares	-3246
▁log	-3247
▁mol	-3248
ièvre	-3249
urope	-3250
vingt	-3251
zaine	-3252
▁Thorn	-3253
▁marée	-3254
istance	-3255
▁Depuis	-3256
▁auprès	-3257
▁faible	-3258
▁ferait	-3259
▁filles	-3260
▁monter	-3261
▁retard	-3262
▁sentis	-3263
▁couches	-3264
▁rapidité	-3265
▁interromp	-3266
▁retourner	-3267
wn	-3268
dev	-3269
ita	-3270
âme	-3271
ouis	-3272
▁far	-3273
▁how	-3274
▁ste	-3275
avent	-3276
illet	-3277
▁down	-3278
▁into	-3279
▁robe	-3280
issent	-3281
uction	-3282
▁charg	-3283
▁could	-3284
▁longs	-3285
▁serai	-3286
▁venez	-3287
▁écrit	-3288
fluence	-3289
▁radeau	-3290
▁sommet	-3291
▁contemp	-3292
▁réveill	-3293
▁développ	-3294
▁autrefois	-3295
▁premières	-3296
▁Thornfield	-3297
▁connaissait	-3298
bot	-3299
▁tw	-3300
olog	-3301
▁che	-3302
aison	-3303
ivers	-3304
▁Cert	-3305
▁over	-3306
▁Pangl	-3307
▁brick	-3308
▁glace	-3309
ensible	-3310
▁prison	-3311
▁puisse	-3312
▁retomb	-3313
▁silenc	-3314
▁compter	-3315
▁Pangloss	-3316
▁allaient	-3317
▁certains	-3318
▁poitrine	-3319
▁existence	-3320
▁également	-3321
▁circonstances	-3322
'_	-3323
00	-3324
ili	-3325
usé	-3326
▁kn	-3327
oici	-3328
épée	-3329
▁uns	-3330
omètre	-3331
▁baron	-3332
ètement	-3333
▁Chemin	-3334
▁course	-3335
▁disant	-3336
▁entour	-3337
▁genoux	-3338
▁couleur	-3339
▁croyais	-3340
▁tempête	-3341
▁préoccup	-3342
▁davantage	-3343
fe	-3344
ke	-3345
rup	-3346
▁Hél	-3347
▁nov	-3348
▁pot	-3349
agnol	-3350
ayant	-3351
esses	-3352
raite	-3353
▁aime	-3354
▁détr	-3355
▁nomm	-3356
▁priv	-3357
▁rare	-3358
allais	-3359
▁assis	-3360
▁matel	-3361
▁neige	-3362
▁combat	-3363
▁désert	-3364
histoire	-3365
▁coucher	-3366
▁procure	-3367
▁Mortimer	-3368
▁créature	-3369
▁reprendre	-3370
ek	-3371
▁fi	-3372
ront	-3373
îles	-3374
▁hur	-3375
▁jau	-3376
ermin	-3377
forme	-3378
▁coin	-3379
▁cœur	-3380
▁pure	-3381
▁demie	-3382
▁jeter	-3383
▁lever	-3384
▁poign	-3385
▁recul	-3386
▁soeur	-3387
▁Ingram	-3388
▁jusque	-3389
équipage	-3390
▁malheur	-3391
▁attendant	-3392
ng	-3393
acé	-3394
irai	-3395
oche	-3396
onça	-3397
unes	-3398
▁eur	-3399
▁obé	-3400
▁str	-3401
▁sév	-3402
▁baie	-3403
▁crat	-3404
▁prot	-3405
▁dange	-3406
▁dissi	-3407
▁foyer	-3408
▁centre	-3409
▁embarr	-3410
▁manoeu	-3411
▁nuages	-3412
▁posséd	-3413
▁précéd	-3414
▁vapeur	-3415
▁étrang	-3416
abandonn	-3417
▁conduis	-3418
▁pirogue	-3419
▁projets	-3420
▁fenêtres	-3421
▁intellig	-3422
▁Cheminées	-3423
▁caractère	-3424
▁probablement	-3425
ios	-3426
pit	-3427
exam	-3428
illé	-3429
ject	-3430
othè	-3431
raph	-3432
▁toi	-3433
enais	-3434
rance	-3435
▁avis	-3436
▁bond	-3437
▁jeté	-3438
▁will	-3439
▁épée	-3440
iennes	-3441
▁faute	-3442
▁noire	-3443
▁pensa	-3444
▁their	-3445
▁manteau	-3446
▁portion	-3447
▁rochers	-3448
▁entendit	-3449
▁pareille	-3450
▁sauvages	-3451
▁conséquent	-3452
▁supérieure	-3453
ua	-3454
III	-3455
▁No	-3456
ason	-3457
fore	-3458
hait	-3459
idée	-3460
▁pav	-3461
liers	-3462
▁ball	-3463
érence	-3464
▁abond	-3465
▁quitt	-3466
▁taill	-3467
▁venue	-3468
▁Grande	-3469
▁Quelle	-3470
▁police	-3471
▁visite	-3472
▁approch	-3473
▁atteint	-3474
▁prenait	-3475
▁auraient	-3476
▁laissant	-3477
▁complètement	-3478
Oh	-3479
gie	-3480
irm	-3481
cles	-3482
oncé	-3483
érid	-3484
▁nat	-3485
▁fraî	-3486
chesse	-3487
▁baiss	-3488
▁coute	-3489
▁impat	-3490
▁mêmes	-3491
▁prend	-3492
▁promp	-3493
instant	-3494
▁arrêté	-3495
▁attent	-3496
▁littor	-3497
▁poussa	-3498
▁regagn	-3499
▁navires	-3500
▁prenant	-3501
▁produit	-3502
▁épaules	-3503
ordinaire	-3504
▁agréable	-3505
▁derniers	-3506
▁longueur	-3507
▁toutefois	-3508
nés	-3509
dans	-3510
âche	-3511
▁ais	-3512
lande	-3513
▁spéc	-3514
éparer	-3515
▁chute	-3516
▁proch	-3517
▁subst	-3518
venture	-3519
▁troubl	-3520
▁cuisine	-3521
▁renvers	-3522
▁Maintenant	-3523
▁heureusement	-3524
▁Pr	-3525
atic	-3526
reau	-3527
êmes	-3528
▁mât	-3529
▁tôt	-3530
elier	-3531
neaux	-3532
ueill	-3533
▁tend	-3534
avenir	-3535
▁Bonad	-3536
▁Marie	-3537
▁consc	-3538
▁délic	-3539
▁fumée	-3540
▁guère	-3541
▁étonn	-3542
▁devais	-3543
▁retent	-3544
▁caverne	-3545
▁chapeau	-3546
▁marcher	-3547
▁pierres	-3548
▁souhait	-3549
▁terreur	-3550
▁détermin	-3551
▁lentement	-3552
▁Bonadventure	-3553
ède	-3554
▁Se	-3555
▁ot	-3556
aume	-3557
nait	-3558
▁lim	-3559
▁mép	-3560
▁tab	-3561
▁vég	-3562
itait	-3563
▁memb	-3564
▁mena	-3565
▁préf	-3566
▁romp	-3567
onnête	-3568
▁allum	-3569
▁ignor	-3570
▁calcul	-3571
▁manque	-3572
ainement	-3573
▁cratère	-3574
▁passion	-3575
▁littoral	-3576
▁reconnus	-3577
▁doucement	-3578
▁représent	-3579
▁expression	-3580
▁considérable	-3581
▁reconnaissance	-3582
xel	-3583
▁At	-3584
:--«	-3585
auff	-3586
lock	-3587
oint	-3588
▁bro	-3589
▁fan	-3590
▁pla	-3591
▁poi	-3592
uisse	-3593
étant	-3594
▁Eyre	-3595
▁Franc	-3596
▁champ	-3597
▁dépos	-3598
▁marqu	-3599
▁riche	-3600
▁selon	-3601
▁serez	-3602
▁objets	-3603
▁passag	-3604
▁sauver	-3605
ercevoir	-3606
▁crainte	-3607
▁exemple	-3608
▁Sauvages	-3609
▁retraite	-3610
▁découvrir	-3611
▁magnifique	-3612
▁nourriture	-3613
orc	-3614
neau	-3615
▁doc	-3616
▁niv	-3617
▁our	-3618
▁roy	-3619
onnax	-3620
outez	-3621
▁Barr	-3622
▁Très	-3623
▁bête	-3624
▁gris	-3625
▁lett	-3626
▁trah	-3627
ension	-3628
ulaire	-3629
▁brise	-3630
▁malad	-3631
▁mérid	-3632
▁oppos	-3633
▁outre	-3634
▁paque	-3635
▁phras	-3636
▁publi	-3637
landais	-3638
▁appris	-3639
▁chaise	-3640
▁suivit	-3641
▁éprouv	-3642
▁Anglais	-3643
▁Aronnax	-3644
▁sentait	-3645
▁immobile	-3646
▁recevoir	-3647
▁épouvant	-3648
▁continent	-3649
▁transport	-3650
▁auparavant	-3651
▁précisément	-3652
▁température	-3653
asc	-3654
▁Wh	-3655
ambo	-3656
anes	-3657
▁Mal	-3658
▁joy	-3659
ibles	-3660
ymore	-3661
▁îles	-3662
▁beaux	-3663
▁charb	-3664
▁queue	-3665
▁touch	-3666
▁venge	-3667
nements	-3668
ouchure	-3669
▁prodig	-3670
▁efforts	-3671
▁affaires	-3672
▁branches	-3673
▁remettre	-3674
▁Barrymore	-3675
▁semblaient	-3676
In	-3677
éf	-3678
ack	-3679
!...	-3680
êche	-3681
▁lun	-3682
lique	-3683
▁amen	-3684
▁appe	-3685
▁disp	-3686
▁more	-3687
▁soci	-3688
▁your	-3689
ieuses	-3690
▁coque	-3691
▁plain	-3692
▁subit	-3693
▁super	-3694
▁Allons	-3695
▁Milord	-3696
▁belles	-3697
▁décidé	-3698
▁formid	-3699
▁pensez	-3700
▁though	-3701
▁partout	-3702
▁semaine	-3703
At	-3704
ER	-3705
En	-3706
dit	-3707
▁sé	-3708
erte	-3709
énom	-3710
▁bre	-3711
▁gaz	-3712
▁gol	-3713
▁mun	-3714
alors	-3715
établ	-3716
▁lire	-3717
▁conse	-3718
▁trace	-3719
arrêter	-3720
▁chargé	-3721
▁devenu	-3722
▁jardin	-3723
▁referm	-3724
▁sûreté	-3725
Amérique	-3726
▁débarqu	-3727
▁reviend	-3728
▁science	-3729
aissaient	-3730
▁convainc	-3731
▁reconnut	-3732
▁résultat	-3733
▁directement	-3734
lo	-3735
org	-3736
oue	-3737
oué	-3738
acer	-3739
acés	-3740
agon	-3741
aves	-3742
▁Cac	-3743
▁déd	-3744
oubli	-3745
▁fera	-3746
▁péri	-3747
▁vaut	-3748
Ayrton	-3749
conque	-3750
ouvent	-3751
▁Frank	-3752
▁clair	-3753
▁corde	-3754
▁degré	-3755
▁domin	-3756
▁geste	-3757
▁manif	-3758
▁mouch	-3759
▁consol	-3760
▁courir	-3761
▁forêts	-3762
▁moyens	-3763
▁oublié	-3764
▁parlez	-3765
▁Cacambo	-3766
▁demandé	-3767
▁détails	-3768
▁propres	-3769
▁retirer	-3770
extrémité	-3771
▁chambres	-3772
▁incident	-3773
▁intéress	-3774
▁millions	-3775
▁nombreux	-3776
▁pression	-3777
▁retourna	-3778
▁questions	-3779
▁provisions	-3780
bé	-3781
Esp	-3782
Non	-3783
yez	-3784
éré	-3785
orge	-3786
self	-3787
allai	-3788
erons	-3789
urait	-3790
▁larg	-3791
▁mars	-3792
▁siff	-3793
▁tira	-3794
▁étud	-3795
istait	-3796
▁côtes	-3797
▁inexp	-3798
▁polit	-3799
▁poste	-3800
▁végét	-3801
▁froide	-3802
▁little	-3803
▁phénom	-3804
▁portée	-3805
▁serons	-3806
habitude	-3807
lication	-3808
▁ouverte	-3809
▁volonté	-3810
▁envelopp	-3811
▁condition	-3812
▁supporter	-3813
▁trouvaient	-3814
▁embarcation	-3815
▁communication	-3816
▁ç	-3817
amm	-3818
isé	-3819
ity	-3820
ative	-3821
oyons	-3822
rimer	-3823
rions	-3824
ançait	-3825
ession	-3826
▁Diana	-3827
▁Voici	-3828
▁arbre	-3829
▁jolie	-3830
▁massi	-3831
▁tress	-3832
▁viend	-3833
oureuse	-3834
▁points	-3835
▁soupir	-3836
entendre	-3837
▁blanche	-3838
▁formait	-3839
▁justice	-3840
▁campagne	-3841
▁merveill	-3842
▁désespoir	-3843
▁misérable	-3844
▁connaissez	-3845
cto	-3846
▁çà	-3847
huit	-3848
itée	-3849
lend	-3850
èche	-3851
▁dén	-3852
ormes	-3853
▁barb	-3854
▁choc	-3855
▁géné	-3856
▁pôle	-3857
▁canal	-3858
▁crime	-3859
▁envoy	-3860
▁golfe	-3861
▁lourd	-3862
blement	-3863
▁beauté	-3864
▁change	-3865
▁levant	-3866
▁lignes	-3867
▁niveau	-3868
▁pareil	-3869
▁parois	-3870
▁souper	-3871
empêcher	-3872
▁lettres	-3873
▁parties	-3874
▁pouvons	-3875
▁suppose	-3876
▁attendait	-3877
▁justement	-3878
▁découverte	-3879
▁sentiments	-3880
ulg	-3881
▁em	-3882
▁sm	-3883
aces	-3884
inet	-3885
neur	-3886
uait	-3887
▁tim	-3888
ardes	-3889
▁Rich	-3890
▁Sire	-3891
▁fuir	-3892
▁perc	-3893
▁time	-3894
▁what	-3895
atures	-3896
▁frais	-3897
▁établ	-3898
▁curios	-3899
▁défaut	-3900
▁malade	-3901
existence	-3902
▁chaloupe	-3903
▁horrible	-3904
▁traversée	-3905
▁circonstance	-3906
Ce	-3907
OU	-3908
enb	-3909
ish	-3910
▁eh	-3911
agés	-3912
expl	-3913
ores	-3914
utri	-3915
▁New	-3916
ettez	-3917
ifice	-3918
▁coff	-3919
▁hâte	-3920
▁prie	-3921
accord	-3922
hommes	-3923
▁Reine	-3924
▁lutte	-3925
▁noirs	-3926
▁other	-3927
▁plaît	-3928
▁troup	-3929
▁dessin	-3930
▁entier	-3931
▁rendez	-3932
▁saison	-3933
▁étroit	-3934
▁pensais	-3935
▁sauvage	-3936
▁terrain	-3937
▁élément	-3938
▁cheminée	-3939
▁surveill	-3940
▁naturelle	-3941
▁spectacle	-3942
▁conscience	-3943
▁électrique	-3944
gén	-3945
pir	-3946
ège	-3947
▁ey	-3948
assa	-3949
omie	-3950
onté	-3951
érup	-3952
▁Jam	-3953
▁Mad	-3954
▁oeu	-3955
▁pil	-3956
▁she	-3957
▁two	-3958
▁way	-3959
▁Sher	-3960
▁lanc	-3961
▁mine	-3962
▁very	-3963
cepter	-3964
ctobre	-3965
▁There	-3966
▁prouv	-3967
▁réuss	-3968
▁sangl	-3969
▁servi	-3970
▁étiez	-3971
▁argent	-3972
▁before	-3973
▁employ	-3974
▁garder	-3975
▁grotte	-3976
▁hautes	-3977
▁inconn	-3978
▁jambes	-3979
▁réguli	-3980
▁troupe	-3981
▁Bientôt	-3982
▁douleur	-3983
▁résolus	-3984
▁comptait	-3985
▁document	-3986
▁atteindre	-3987
▁passagers	-3988
ls	-3989
arg	-3990
oût	-3991
anté	-3992
euve	-3993
épau	-3994
▁ach	-3995
▁bib	-3996
▁gib	-3997
▁meu	-3998
▁mém	-3999
▁vif	-4000
appro	-4001
idité	-4002
▁embr	-4003
▁ever	-4004
▁rêve	-4005
▁soud	-4006
▁côtés	-4007
▁expos	-4008
▁extra	-4009
▁idées	-4010
▁médec	-4011
▁seuls	-4012
▁fleurs	-4013
▁répand	-4014
▁conclus	-4015
▁mariage	-4016
▁passant	-4017
▁reconnu	-4018
▁retenir	-4019
▁soldats	-4020
▁torrent	-4021
▁oreilles	-4022
▁commençai	-4023
▁prisonniers	-4024
AN	-4025
Le	-4026
abor	-4027
ueux	-4028
▁Lid	-4029
▁Low	-4030
▁bén	-4031
▁éte	-4032
cessi	-4033
inqui	-4034
▁Avec	-4035
▁clef	-4036
▁appuy	-4037
▁cadav	-4038
▁dévor	-4039
▁laves	-4040
▁plomb	-4041
ussitôt	-4042
▁portes	-4043
▁propri	-4044
▁traces	-4045
▁arrivés	-4046
▁entrepr	-4047
▁monstre	-4048
▁Sherlock	-4049
▁conduite	-4050
▁comprends	-4051
▁traverser	-4052
▁réellement	-4053
▁réflexions	-4054
pe	-4055
alt	-4056
occ	-4057
çai	-4058
aies	-4059
ared	-4060
atif	-4061
elui	-4062
▁Auc	-4063
▁ber	-4064
▁cat	-4065
▁cli	-4066
▁Axel	-4067
▁banc	-4068
▁band	-4069
▁bleu	-4070
▁crut	-4071
▁frég	-4072
▁know	-4073
▁merc	-4074
▁oeil	-4075
▁vive	-4076
avança	-4077
ensité	-4078
▁lames	-4079
▁refus	-4080
▁resté	-4081
accompl	-4082
enbrock	-4083
idement	-4084
▁accord	-4085
▁bonnes	-4086
▁doigts	-4087
▁permis	-4088
▁phrase	-4089
▁revoir	-4090
▁sentir	-4091
▁ennemis	-4092
▁mission	-4093
▁personn	-4094
▁rappelle	-4095
▁certaines	-4096
▁serviteur	-4097
▁Lidenbrock	-4098
▁difficulté	-4099
▁profondeurs	-4100
▁lu	-4101
▁ru	-4102
ater	-4103
èces	-4104
▁dut	-4105
▁gig	-4106
mêmes	-4107
▁cous	-4108
▁roug	-4109
▁vari	-4110
orable	-4111
rèrent	-4112
vement	-4113
▁Tabor	-4114
▁bibli	-4115
▁poids	-4116
▁épais	-4117
▁détach	-4118
▁pièces	-4119
▁comprit	-4120
▁meilleur	-4121
▁paquebot	-4122
▁cherchait	-4123
▁comprenez	-4124
▁légèrement	-4125
urn	-4126
quets	-4127
▁cerv	-4128
▁fier	-4129
▁ment	-4130
mement	-4131
ouille	-4132
▁Griff	-4133
▁aviez	-4134
▁camar	-4135
▁ferai	-4136
▁infin	-4137
▁prise	-4138
▁repar	-4139
▁améric	-4140
▁corrid	-4141
▁exécut	-4142
▁laisse	-4143
▁mienne	-4144
▁purent	-4145
▁should	-4146
▁cabinet	-4147
▁charbon	-4148
▁croyait	-4149
▁frapper	-4150
▁montrer	-4151
▁mystéri	-4152
▁plantes	-4153
▁repouss	-4154
▁vapeurs	-4155
issements	-4156
▁Aussitôt	-4157
▁comprend	-4158
▁désespér	-4159
embouchure	-4160
▁bouteille	-4161
▁promenade	-4162
▁tellement	-4163
▁vengeance	-4164
▁gouverneur	-4165
The	-4166
enn	-4167
rom	-4168
uff	-4169
vis	-4170
ûte	-4171
hing	-4172
▁Roi	-4173
▁jur	-4174
âtres	-4175
étend	-4176
▁Donc	-4177
▁assi	-4178
▁dure	-4179
▁soul	-4180
import	-4181
▁bêtes	-4182
▁cesse	-4183
▁dames	-4184
▁desse	-4185
▁léger	-4186
▁ramen	-4187
▁adress	-4188
▁cabine	-4189
▁couche	-4190
▁lumine	-4191
▁sortes	-4192
▁couteau	-4193
▁galerie	-4194
▁liquide	-4195
▁renferm	-4196
▁arrivait	-4197
▁décembre	-4198
▁morceaux	-4199
atmosphère	-4200
▁autrement	-4201
▁personnes	-4202
▁mouvements	-4203
▁commencement	-4204
▁véritablement	-4205
Mon	-4206
rib	-4207
ril	-4208
▁éb	-4209
ever	-4210
ouge	-4211
ural	-4212
▁mai	-4213
▁nez	-4214
▁rav	-4215
▁ros	-4216
▁tal	-4217
cepté	-4218
intes	-4219
onnet	-4220
écoul	-4221
▁fure	-4222
▁mout	-4223
▁phys	-4224
▁sinc	-4225
▁symp	-4226
▁Celui	-4227
▁Parce	-4228
▁chère	-4229
▁grain	-4230
▁pourv	-4231
▁salut	-4232
▁viens	-4233
▁apport	-4234
▁montra	-4235
▁ouvrit	-4236
▁rendit	-4237
▁vivant	-4238
▁faibles	-4239
▁frégate	-4240
▁visiter	-4241
▁tournant	-4242
hur	-4243
til	-4244
uez	-4245
ally	-4246
imes	-4247
tect	-4248
▁Gre	-4249
olont	-4250
ranch	-4251
▁came	-4252
▁lamp	-4253
illonn	-4254
ribles	-4255
épaule	-4256
▁Elles	-4257
▁année	-4258
▁extrê	-4259
▁pitié	-4260
▁rejet	-4261
▁revêt	-4262
▁valet	-4263
emaines	-4264
▁Jamais	-4265
▁Temple	-4266
▁ballon	-4267
▁champs	-4268
▁consul	-4269
▁dedans	-4270
▁emport	-4271
▁faveur	-4272
▁rocher	-4273
occasion	-4274
▁Quelque	-4275
▁besogne	-4276
▁honneur	-4277
▁membres	-4278
▁serpent	-4279
▁corridor	-4280
▁destinée	-4281
▁devenait	-4282
▁disparut	-4283
▁gigantes	-4284
▁pénétrer	-4285
▁semaines	-4286
▁dernières	-4287
embarcation	-4288
▁exactement	-4289
▁extrêmement	-4290
▁observation	-4291
usc	-4292
éte	-4293
▁16	-4294
▁hé	-4295
ific	-4296
race	-4297
roid	-4298
ueil	-4299
élég	-4300
▁Car	-4301
▁Fer	-4302
▁loc	-4303
▁mir	-4304
▁mén	-4305
enard	-4306
ifier	-4307
illée	-4308
rique	-4309
▁Mous	-4310
▁chef	-4311
▁chem	-4312
▁peau	-4313
▁verd	-4314
▁vont	-4315
bilité	-4316
eilles	-4317
inture	-4318
itaire	-4319
▁colon	-4320
▁devez	-4321
▁révél	-4322
▁scène	-4323
▁sourc	-4324
▁utile	-4325
vidence	-4326
▁fauteu	-4327
▁fidèle	-4328
▁légère	-4329
▁pistol	-4330
▁répéta	-4331
▁demeura	-4332
▁Mousquet	-4333
▁curiosité	-4334
▁nécessité	-4335
▁satisfait	-4336
Is	-4337
Est	-4338
ina	-4339
▁if	-4340
azin	-4341
estr	-4342
icul	-4343
illa	-4344
▁cét	-4345
▁gré	-4346
▁sul	-4347
▁thr	-4348
essay	-4349
▁base	-4350
▁come	-4351
▁cout	-4352
▁erre	-4353
arbres	-4354
▁remit	-4355
▁rendu	-4356
ifiques	-4357
oreille	-4358
▁assise	-4359
▁minute	-4360
▁partit	-4361
▁renouv	-4362
▁ruisse	-4363
▁située	-4364
▁conduit	-4365
▁courait	-4366
▁gouvern	-4367
▁lisière	-4368
▁physion	-4369
▁station	-4370
▁fauteuil	-4371
▁prévenir	-4372
▁bibliothè	-4373
▁subitement	-4374
▁domestiques	-4375
▁satisfaction	-4376
▁gê	-4377
Kong	-4378
irez	-4379
orer	-4380
çais	-4381
▁inn	-4382
▁mag	-4383
agine	-4384
outum	-4385
▁Hong	-4386
Europe	-4387
assent	-4388
inclin	-4389
onçait	-4390
ouvris	-4391
▁Bazin	-4392
▁Louis	-4393
▁Notre	-4394
▁assur	-4395
▁persu	-4396
▁redev	-4397
▁récol	-4398
▁étais	-4399
▁balles	-4400
▁couché	-4401
▁sacrif	-4402
▁seront	-4403
▁étonné	-4404
lantique	-4405
▁accompl	-4406
▁aperçut	-4407
▁devenir	-4408
▁excessi	-4409
▁inconnu	-4410
▁machine	-4411
▁opinion	-4412
▁pauvres	-4413
▁raisons	-4414
▁nouveaux	-4415
▁abandonné	-4416
▁réflexion	-4417
▁froidement	-4418
▁quelconque	-4419
▁nécessaires	-4420
aph	-4421
nel	-4422
oix	-4423
reb	-4424
ône	-4425
arre	-4426
isme	-4427
ular	-4428
▁bec	-4429
▁see	-4430
▁vêt	-4431
▁Ciel	-4432
▁hier	-4433
▁mâch	-4434
▁éner	-4435
élança	-4436
▁Mason	-4437
▁bonté	-4438
▁morts	-4439
▁santé	-4440
▁sinon	-4441
▁tonne	-4442
▁Lowood	-4443
▁faudra	-4444
▁incess	-4445
▁pourra	-4446
▁prenez	-4447
▁quitta	-4448
▁savant	-4449
attendre	-4450
▁quelles	-4451
▁blessure	-4452
▁Mousqueton	-4453
▁étonnement	-4454
▁transporter	-4455
▁bibliothèque	-4456
▁naturellement	-4457
inf	-4458
ned	-4459
éph	-4460
Nous	-4461
fter	-4462
jour	-4463
odes	-4464
sept	-4465
▁don	-4466
▁rob	-4467
angle	-4468
aurai	-4469
enses	-4470
hiver	-4471
ombay	-4472
treet	-4473
upart	-4474
écout	-4475
érité	-4476
▁Dreb	-4477
▁cerc	-4478
▁crus	-4479
▁garn	-4480
▁gout	-4481
▁lois	-4482
▁voie	-4483
▁Entre	-4484
▁asked	-4485
▁congé	-4486
▁folle	-4487
▁gagné	-4488
▁haine	-4489
▁pench	-4490
▁soins	-4491
▁tenez	-4492
▁épuis	-4493
ouement	-4494
▁Bombay	-4495
▁débarr	-4496
▁marins	-4497
▁mépris	-4498
▁nation	-4499
▁preuve	-4500
▁redout	-4501
▁remerc	-4502
▁songer	-4503
▁triomp	-4504
▁viande	-4505
▁Drebber	-4506
▁natural	-4507
▁parents	-4508
▁parfois	-4509
▁plupart	-4510
▁prolong	-4511
▁émotion	-4512
▁Franklin	-4513
▁diverses	-4514
▁franchir	-4515
▁instinct	-4516
▁mouchoir	-4517
▁novembre	-4518
▁portrait	-4519
▁remarqué	-4520
▁remonter	-4521
▁habitants	-4522
▁convenable	-4523
▁événements	-4524
▁imagination	-4525
▁sérieusement	-4526
IN	-4527
ama	-4528
bra	-4529
ght	-4530
iot	-4531
ple	-4532
uée	-4533
îte	-4534
▁As	-4535
adis	-4536
once	-4537
orce	-4538
ords	-4539
rist	-4540
rées	-4541
uste	-4542
▁Cal	-4543
▁Ici	-4544
▁adv	-4545
▁bel	-4546
▁biz	-4547
▁hyp	-4548
▁inj	-4549
▁nar	-4550
▁pun	-4551
acité	-4552
▁bais	-4553
▁brûl	-4554
▁look	-4555
▁then	-4556
autant	-4557
▁canon	-4558
▁expéd	-4559
▁juger	-4560
▁remis	-4561
arrière	-4562
issante	-4563
èvement	-4564
▁Louvre	-4565
▁envoyé	-4566
▁espoir	-4567
▁grosse	-4568
▁inclin	-4569
▁massif	-4570
▁sentit	-4571
▁suivis	-4572
▁tenant	-4573
Monsieur	-4574
▁apparut	-4575
▁dirigea	-4576
▁mémoire	-4577
▁sombres	-4578
▁trouble	-4579
attendais	-4580
▁seigneur	-4581
▁longitude	-4582
eureusement	-4583
▁impression	-4584
▁lesquelles	-4585
▁rencontrer	-4586
▁ressemblait	-4587
gr	-4588
ox	-4589
▁-	-4590
You	-4591
del	-4592
ial	-4593
mul	-4594
ysi	-4595
▁pa	-4596
agan	-4597
apon	-4598
ings	-4599
itre	-4600
ling	-4601
mine	-4602
resp	-4603
rets	-4604
ôtre	-4605
▁kil	-4606
wered	-4607
▁Avez	-4608
▁Nord	-4609
▁pêch	-4610
▁rude	-4611
▁than	-4612
endorm	-4613
entrée	-4614
▁Avant	-4615
▁boire	-4616
▁envie	-4617
▁friss	-4618
▁fuite	-4619
▁jouer	-4620
▁minér	-4621
▁pleur	-4622
▁soupç	-4623
agement	-4624
iterran	-4625
▁affect	-4626
▁aspect	-4627
▁condam	-4628
▁duquel	-4629
▁envers	-4630
▁former	-4631
▁mollus	-4632
▁obscur	-4633
▁outils	-4634
▁promis	-4635
▁rouges	-4636
▁soient	-4637
▁sortis	-4638
▁succès	-4639
▁tourna	-4640
érieures	-4641
▁colonie	-4642
▁honnête	-4643
▁interro	-4644
▁produis	-4645
▁raisonn	-4646
▁naufrage	-4647
▁précieux	-4648
▁supérieur	-4649
▁vigoureux	-4650
▁étrangers	-4651
▁Providence	-4652
AR	-4653
imm	-4654
rut	-4655
▁Ge	-4656
ands	-4657
iait	-4658
▁did	-4659
▁now	-4660
▁sir	-4661
assin	-4662
ausse	-4663
endus	-4664
geait	-4665
iable	-4666
onnez	-4667
▁York	-4668
▁eyes	-4669
▁feux	-4670
▁poul	-4671
▁refl	-4672
▁sulf	-4673
▁érup	-4674
▁armés	-4675
▁banqu	-4676
▁comte	-4677
▁sauvé	-4678
▁vague	-4679
lements	-4680
ortable	-4681
▁aperçu	-4682
▁courut	-4683
▁disais	-4684
▁plaine	-4685
▁valeur	-4686
▁vallée	-4687
▁voiles	-4688
▁échant	-4689
▁espèces	-4690
▁maisons	-4691
▁pensait	-4692
▁rendait	-4693
▁through	-4694
▁épaisse	-4695
▁auxquels	-4696
▁complète	-4697
▁matelots	-4698
▁tourment	-4699
gneusement	-4700
▁apprendre	-4701
▁descendit	-4702
▁fabriquer	-4703
▁prononcer	-4704
▁provision	-4705
!"	-4706
lu	-4707
agr	-4708
▁Ou	-4709
?...	-4710
Inde	-4711
ator	-4712
deux	-4713
ical	-4714
ript	-4715
▁Méd	-4716
▁You	-4717
▁aid	-4718
▁etc	-4719
▁fri	-4720
▁raf	-4721
aucun	-4722
usion	-4723
▁Coqu	-4724
▁murs	-4725
▁rich	-4726
▁soum	-4727
▁vide	-4728
braham	-4729
euille	-4730
quatre	-4731
▁abatt	-4732
▁honte	-4733
▁mécan	-4734
▁placé	-4735
▁rayon	-4736
▁battre	-4737
▁discut	-4738
▁débris	-4739
▁flamme	-4740
▁patron	-4741
▁respir	-4742
▁tendre	-4743
▁valait	-4744
▁baleine	-4745
▁changer	-4746
▁chasser	-4747
▁colline	-4748
▁faisais	-4749
▁fatigue	-4750
▁manoeuv	-4751
▁mettait	-4752
▁pirates	-4753
▁régions	-4754
▁répondu	-4755
▁réserve	-4756
▁société	-4757
▁answered	-4758
▁commencé	-4759
▁manifest	-4760
▁Coquenard	-4761
▁terrestre	-4762
▁formidable	-4763
▁résolution	-4764
▁construction	-4765
UE	-4766
sh	-4767
eed	-4768
inv	-4769
▁17	-4770
▁Tu	-4771
hous	-4772
èves	-4773
éter	-4774
▁emm	-4775
▁jal	-4776
▁jés	-4777
▁reb	-4778
aimer	-4779
sière	-4780
▁isol	-4781
▁lect	-4782
▁ling	-4783
▁peux	-4784
▁pous	-4785
▁ratt	-4786
▁room	-4787
▁well	-4788
entour	-4789
rument	-4790
▁Brock	-4791
▁again	-4792
▁avanc	-4793
▁flott	-4794
▁perte	-4795
▁quels	-4796
▁usage	-4797
▁achevé	-4798
▁advers	-4799
▁durant	-4800
▁frappé	-4801
▁gibier	-4802
▁passai	-4803
▁sourit	-4804
▁telles	-4805
▁Ferrier	-4806
▁capable	-4807
▁convenu	-4808
▁mystère	-4809
▁médecin	-4810
▁prirent	-4811
▁proport	-4812
▁rentrer	-4813
▁saurait	-4814
▁verrons	-4815
accompagn	-4816
▁aisément	-4817
▁appareil	-4818
▁religion	-4819
▁Seulement	-4820
▁communiqu	-4821
▁important	-4822
▁procureuse	-4823
▁présentait	-4824
▁attentivement	-4825
ank	-4826
cle	-4827
ese	-4828
hat	-4829
lui	-4830
▁15	-4831
▁Bl	-4832
alie	-4833
oubl	-4834
vier	-4835
èvre	-4836
▁jan	-4837
▁lab	-4838
▁ond	-4839
▁tén	-4840
igine	-4841
ignit	-4842
mment	-4843
oques	-4844
reaux	-4845
▁allé	-4846
▁gare	-4847
▁heur	-4848
▁jure	-4849
▁piqu	-4850
▁surn	-4851
▁tiré	-4852
avions	-4853
▁compt	-4854
▁doubl	-4855
▁levai	-4856
▁repro	-4857
▁tapis	-4858
entends	-4859
housias	-4860
▁eurent	-4861
▁fusils	-4862
▁larges	-4863
▁partis	-4864
▁plonge	-4865
▁rentra	-4866
▁repent	-4867
▁tenter	-4868
▁étendu	-4869
▁attendu	-4870
▁octobre	-4871
▁brillait	-4872
▁diamants	-4873
▁ministre	-4874
▁pavillon	-4875
▁continuer	-4876
▁passèrent	-4877
▁phénomène	-4878
▁substance	-4879
▁arrivèrent	-4880
▁précaution	-4881
▁instruments	-4882
LE	-4883
ott	-4884
▁Br	-4885
▁ev	-4886
▁Ét	-4887
apin	-4888
cité	-4889
onna	-4890
rice	-4891
▁aud	-4892
▁blé	-4893
▁day	-4894
▁gis	-4895
▁loi	-4896
▁met	-4897
▁pâl	-4898
▁âge	-4899
elhur	-4900
endez	-4901
▁Nouv	-4902
▁mess	-4903
▁requ	-4904
▁toit	-4905
assait	-4906
vingts	-4907
éprouv	-4908
▁dimin	-4909
▁empre	-4910
▁exact	-4911
▁puits	-4912
▁siège	-4913
▁tabac	-4914
▁trist	-4915
▁écras	-4916
▁élevé	-4917
Abraham	-4918
elhurst	-4919
estrade	-4920
▁Rivers	-4921
▁compar	-4922
▁douter	-4923
▁obligé	-4924
▁perdue	-4925
▁solide	-4926
▁brouill	-4927
▁partage	-4928
▁sérieux	-4929
▁témoign	-4930
▁ceinture	-4931
▁chasseur	-4932
▁manières	-4933
▁patience	-4934
▁pressent	-4935
▁intention	-4936
▁naufragés	-4937
▁réfléchir	-4938
▁souvenirs	-4939
▁physionomie	-4940
▁Brockelhurst	-4941
Que	-4942
ary	-4943
den	-4944
opé	-4945
▁Sc	-4946
agré	-4947
aret	-4948
avis	-4949
embr	-4950
▁rig	-4951
▁rêv	-4952
▁sci	-4953
▁tak	-4954
itant	-4955
ortue	-4956
▁boul	-4957
▁mien	-4958
▁perf	-4959
▁perp	-4960
▁prai	-4961
▁rage	-4962
aspect	-4963
imagin	-4964
▁foule	-4965
▁found	-4966
▁pensé	-4967
▁Wardes	-4968
▁fièvre	-4969
▁indiff	-4970
▁manoir	-4971
▁paliss	-4972
▁retira	-4973
▁source	-4974
▁trompe	-4975
▁vagues	-4976
▁venais	-4977
sibilité	-4978
▁chariot	-4979
▁complet	-4980
▁comprom	-4981
▁raconta	-4982
▁sachant	-4983
▁village	-4984
intention	-4985
▁Lestrade	-4986
▁anglaise	-4987
▁environs	-4988
▁faudrait	-4989
▁feuilles	-4990
▁produits	-4991
▁raconter	-4992
▁résister	-4993
▁échapper	-4994
▁dangereux	-4995
▁formaient	-4996
▁néanmoins	-4997
▁rejoindre	-4998
▁inquiétude	-4999
▁permission	-5000
▁particulier	-5001
▁promptement	-5002
It	-5003
Si	-5004
kn	-5005
▁4	-5006
gan	-5007
obt	-5008
oci	-5009
ouc	-5010
ries	-5011
▁hât	-5012
▁pai	-5013
Autri	-5014
ailli	-5015
enons	-5016
ivité	-5017
▁Chap	-5018
▁Pers	-5019
▁delà	-5020
▁foul	-5021
▁fâch	-5022
▁meur	-5023
▁quad	-5024
▁tonn	-5025
aimais	-5026
aisses	-5027
avance	-5028
▁Trois	-5029
▁abord	-5030
▁balle	-5031
▁connu	-5032
▁dirai	-5033
▁déton	-5034
▁lampe	-5035
▁noble	-5036
▁paroi	-5037
▁prêts	-5038
▁recev	-5039
▁tronc	-5040
▁viole	-5041
arrivée	-5042
atiques	-5043
échelle	-5044
▁Fausse	-5045
▁adroit	-5046
▁arrive	-5047
▁brusqu	-5048
▁donnai	-5049
▁déchir	-5050
▁fermée	-5051
▁frappa	-5052
▁interv	-5053
▁introd	-5054
▁occupé	-5055
▁revenu	-5056
▁soirée	-5057
▁étouff	-5058
▁cadavre	-5059
▁dessein	-5060
▁however	-5061
▁janvier	-5062
▁maladie	-5063
▁oublier	-5064
▁persuad	-5065
▁servait	-5066
▁victime	-5067
▁Nautilus	-5068
▁aventure	-5069
▁fréquent	-5070
▁marchait	-5071
▁promesse	-5072
▁ruisseau	-5073
▁étranger	-5074
Maintenant	-5075
▁Chapelier	-5076
▁excellent	-5077
▁influence	-5078
▁produisit	-5079
▁regardais	-5080
▁délivrance	-5081
▁recherches	-5082
▁véritables	-5083
▁malheureuse	-5084
▁Heureusement	-5085
▁observations	-5086
),	-5087
by	-5088
bas	-5089
eci	-5090
uge	-5091
▁ça	-5092
ning	-5093
ones	-5094
ross	-5095
▁Dev	-5096
▁dél	-5097
▁gri	-5098
▁own	-5099
▁tig	-5100
ancol	-5101
année	-5102
orité	-5103
èbres	-5104
▁Alle	-5105
▁capt	-5106
▁noms	-5107
▁phil	-5108
▁plat	-5109
▁surv	-5110
▁trés	-5111
écrire	-5112
▁boîte	-5113
▁creus	-5114
▁galop	-5115
▁objet	-5116
▁plans	-5117
▁toile	-5118
▁tâche	-5119
arriver	-5120
▁billet	-5121
▁cacher	-5122
▁capric	-5123
▁compan	-5124
▁enferm	-5125
▁manqué	-5126
▁perles	-5127
▁soeurs	-5128
▁suffit	-5129
▁vastes	-5130
Autriche	-5131
▁Francis	-5132
▁cerveau	-5133
▁consent	-5134
▁couvent	-5135
▁oreille	-5136
▁parages	-5137
▁portant	-5138
▁résolut	-5139
▁saurais	-5140
▁violent	-5141
iterranée	-5142
▁coupable	-5143
▁dissimul	-5144
▁montrant	-5145
▁puissant	-5146
▁trouvais	-5147
▁Néanmoins	-5148
▁contenait	-5149
▁créatures	-5150
▁murailles	-5151
▁importante	-5152
▁violemment	-5153
▁brusquement	-5154
▁Méditerranée	-5155
▁soigneusement	-5156
Cl	-5157
Vo	-5158
oï	-5159
▁6	-5160
▁7	-5161
hém	-5162
ink	-5163
ull	-5164
înt	-5165
▁ah	-5166
▁mi	-5167
essi	-5168
ombr	-5169
owed	-5170
rale	-5171
uiss	-5172
▁ali	-5173
▁mêl	-5174
▁ner	-5175
▁res	-5176
▁suc	-5177
▁éto	-5178
acher	-5179
appes	-5180
ascon	-5181
eries	-5182
lions	-5183
résil	-5184
ueuse	-5185
école	-5186
▁aveu	-5187
▁mise	-5188
▁tels	-5189
▁émer	-5190
appare	-5191
ograph	-5192
▁Arriv	-5193
▁avert	-5194
▁bords	-5195
▁ingén	-5196
▁joues	-5197
▁physi	-5198
▁porté	-5199
▁pêche	-5200
▁télég	-5201
▁éclai	-5202
abilité	-5203
pecteur	-5204
▁Brésil	-5205
▁accent	-5206
▁blanch	-5207
▁chauss	-5208
▁classe	-5209
▁entret	-5210
▁flancs	-5211
▁fureur	-5212
▁mirent	-5213
▁soldat	-5214
▁tranch	-5215
▁trompé	-5216
▁voisin	-5217
▁Griffon	-5218
▁colonel	-5219
▁dangers	-5220
▁diamant	-5221
▁excepté	-5222
▁himself	-5223
▁qualité	-5224
▁terminé	-5225
▁toucher	-5226
▁tromper	-5227
▁étendue	-5228
▁Rochelle	-5229
▁désirais	-5230
▁recueill	-5231
▁renouvel	-5232
▁équipage	-5233
Atlantique	-5234
▁tressaill	-5235
▁tristesse	-5236
▁retournant	-5237
▁volontiers	-5238
▁singulièrement	-5239
cs	-5240
yc	-5241
ful	-5242
▁od	-5243
abli	-5244
neff	-5245
rite	-5246
▁Sud	-5247
▁gai	-5248
▁saw	-5249
▁«--	-5250
anité	-5251
océan	-5252
éclat	-5253
▁ayez	-5254
▁back	-5255
▁bloc	-5256
▁coût	-5257
▁ense	-5258
▁frém	-5259
Tortue	-5260
entraî	-5261
ombien	-5262
ussent	-5263
▁Grant	-5264
▁absor	-5265
▁ombre	-5266
▁steam	-5267
▁épous	-5268
neffels	-5269
tective	-5270
élevait	-5271
érience	-5272
▁affirm	-5273
▁dormir	-5274
▁empris	-5275
▁ennemi	-5276
▁marché	-5277
▁poussé	-5278
▁souffr	-5279
▁ventre	-5280
raisembl	-5281
▁arrêter	-5282
▁confond	-5283
▁détroit	-5284
▁emporté	-5285
▁inquiet	-5286
▁journal	-5287
▁laissez	-5288
▁ressour	-5289
▁habitude	-5290
▁involont	-5291
▁mélancol	-5292
▁panneaux	-5293
▁produire	-5294
▁suivante	-5295
▁supposer	-5296
abandonner	-5297
expression	-5298
▁convaincu	-5299
▁demandait	-5300
▁entendait	-5301
▁rapporter	-5302
▁remarquer	-5303
▁terribles	-5304
oureusement	-5305
▁changement	-5306
▁misérables	-5307
aj	-5308
ep	-5309
obé	-5310
ool	-5311
van	-5312
égl	-5313
êle	-5314
▁XV	-5315
ated	-5316
ensé	-5317
gues	-5318
éder	-5319
▁amb	-5320
▁ast	-5321
▁civ	-5322
▁cél	-5323
atifs	-5324
avoue	-5325
entri	-5326
gment	-5327
marin	-5328
èches	-5329
▁aide	-5330
▁fray	-5331
▁last	-5332
▁mand	-5333
▁maud	-5334
▁mult	-5335
▁sonn	-5336
▁écri	-5337
idents	-5338
çaient	-5339
▁Roche	-5340
▁cried	-5341
▁fasse	-5342
▁jaune	-5343
▁nuage	-5344
▁plume	-5345
▁pusse	-5346
▁tiens	-5347
Harbert	-5348
Lincoln	-5349
orifice	-5350
royable	-5351
ulation	-5352
▁aimait	-5353
▁allong	-5354
▁appelé	-5355
▁causer	-5356
▁couper	-5357
▁harpon	-5358
▁humain	-5359
▁ouvrir	-5360
▁placer	-5361
▁résolu	-5362
▁éveill	-5363
▁absence	-5364
▁bizarre	-5365
▁déserte	-5366
▁enchant	-5367
▁murmure	-5368
▁ressent	-5369
atteindre	-5370
▁Sneffels	-5371
▁couleurs	-5372
▁présenta	-5373
▁revenait	-5374
▁souliers	-5375
▁souriant	-5376
▁inférieure	-5377
▁prisonnier	-5378
▁ordinairement	-5379
AS	-5380
gs	-5381
▁5	-5382
car	-5383
▁oh	-5384
ourg	-5385
érée	-5386
▁arb	-5387
▁fun	-5388
▁pét	-5389
▁véc	-5390
ajout	-5391
attes	-5392
gnait	-5393
▁Suez	-5394
▁aise	-5395
▁case	-5396
▁cend	-5397
▁drap	-5398
▁grim	-5399
▁must	-5400
▁paru	-5401
▁plaf	-5402
arquer	-5403
ifiait	-5404
illait	-5405
outerr	-5406
époque	-5407
évrier	-5408
▁Dites	-5409
▁after	-5410
▁caché	-5411
▁fleur	-5412
▁forcé	-5413
▁génie	-5414
▁prête	-5415
▁tombé	-5416
▁vainc	-5417
▁égard	-5418
apercev	-5419
oussole	-5420
▁Hélène	-5421
▁essaya	-5422
▁sauter	-5423
▁servit	-5424
▁sévère	-5425
▁tirant	-5426
▁vieill	-5427
iendrait	-5428
▁battait	-5429
▁couloir	-5430
▁coutume	-5431
▁détourn	-5432
▁jésuite	-5433
▁prononc	-5434
▁prudent	-5435
▁suivait	-5436
erveilles	-5437
▁Français	-5438
▁accident	-5439
▁empêcher	-5440
▁inexplic	-5441
▁prolonge	-5442
▁successi	-5443
▁fortement	-5444
▁précipita	-5445
▁recherche	-5446
▁distinguer	-5447
▁dévouement	-5448
▁mollusques	-5449
▁personnage	-5450
▁magnifiques	-5451
▁généralement	-5452
▁'	-5453
gle	-5454
hon	-5455
iés	-5456
roi	-5457
îme	-5458
▁LA	-5459
▁mo	-5460
.»--	-5461
acre	-5462
arty	-5463
delà	-5464
ises	-5465
éant	-5466
▁Dès	-5467
▁cul	-5468
▁eau	-5469
▁séd	-5470
▁tre	-5471
estes	-5472
irmer	-5473
irons	-5474
▁Crom	-5475
▁irré	-5476
▁juin	-5477
▁lait	-5478
▁sois	-5479
▁such	-5480
▁toil	-5481
alités	-5482
entret	-5483
ignore	-5484
iments	-5485
onnait	-5486
église	-5487
évanou	-5488
▁Hélas	-5489
▁Venez	-5490
▁défin	-5491
▁every	-5492
▁folie	-5493
▁loint	-5494
▁merci	-5495
▁these	-5496
▁têtes	-5497
▁Était	-5498
▁écoul	-5499
appelle	-5500
inaires	-5501
▁Toutes	-5502
▁Voyons	-5503
▁accept	-5504
▁examin	-5505
▁ferons	-5506
▁néglig	-5507
▁pleure	-5508
▁refuge	-5509
▁releva	-5510
▁rideau	-5511
▁vivres	-5512
angerson	-5513
▁appeler	-5514
▁conseil	-5515
▁ferrets	-5516
▁février	-5517
▁moyenne	-5518
▁ouvrage	-5519
▁parlant	-5520
▁sentier	-5521
▁soudain	-5522
▁souterr	-5523
▁sympath	-5524
▁vouloir	-5525
▁éloigné	-5526
▁employer	-5527
▁entraîné	-5528
▁parfaite	-5529
▁propriét	-5530
▁prudence	-5531
▁préparer	-5532
▁répétait	-5533
▁Rochefort	-5534
▁cheminées	-5535
▁craignais	-5536
▁favorable	-5537
▁meilleure	-5538
▁merveille	-5539
▁profondes	-5540
▁remarquai	-5541
▁rencontré	-5542
▁solitaire	-5543
▁bouteilles	-5544
▁harponneur	-5545
▁intérieure	-5546
▁laissaient	-5547
▁possession	-5548
▁pourraient	-5549
▁suffisamment	-5550
ks	-5551
hés	-5552
uel	-5553
ugu	-5554
agée	-5555
aigu	-5556
appe	-5557
avec	-5558
eedy	-5559
head	-5560
ophy	-5561
▁bet	-5562
▁irr	-5563
▁too	-5564
accro	-5565
allum	-5566
avanç	-5567
empar	-5568
▁!...	-5569
▁Ceci	-5570
▁arch	-5571
▁conç	-5572
▁door	-5573
▁faux	-5574
▁frot	-5575
▁made	-5576
▁obsc	-5577
▁renv	-5578
▁rues	-5579
▁sauf	-5580
▁secr	-5581
▁élég	-5582
ettait	-5583
iforme	-5584
oeuvre	-5585
▁Indes	-5586
▁Lapin	-5587
▁Rouge	-5588
▁amené	-5589
▁brisé	-5590
▁carte	-5591
▁fusse	-5592
▁métal	-5593
▁rense	-5594
▁saint	-5595
▁sauta	-5596
▁seuil	-5597
▁wagon	-5598
écution	-5599
▁courte	-5600
▁désign	-5601
▁habits	-5602
▁minuit	-5603
▁quoiqu	-5604
▁revins	-5605
▁réclam	-5606
▁sienne	-5607
▁épaule	-5608
▁éterne	-5609
▁connaît	-5610
▁fabriqu	-5611
▁franchi	-5612
▁regarde	-5613
▁risquer	-5614
▁souffle	-5615
▁tombait	-5616
▁tourner	-5617
▁Cromarty	-5618
▁Personne	-5619
▁accoutum	-5620
▁baronnet	-5621
▁continue	-5622
▁courants	-5623
▁grandeur	-5624
▁montrait	-5625
▁officier	-5626
▁paraître	-5627
▁promener	-5628
▁éléments	-5629
▁charmante	-5630
▁demeurait	-5631
▁prochaine	-5632
▁Stangerson	-5633
▁apercevoir	-5634
▁nombreuses	-5635
▁travailler	-5636
▁échantillons	-5637
▁extraordinaire	-5638
▁nécessairement	-5639
Une	-5640
rah	-5641
toi	-5642
▁20	-5643
▁er	-5644
ince	-5645
isse	-5646
onfl	-5647
otte	-5648
étud	-5649
▁aig	-5650
▁hun	-5651
▁rud	-5652
acles	-5653
aites	-5654
erson	-5655
ierre	-5656
mille	-5657
riers	-5658
uyant	-5659
▁agir	-5660
▁aimé	-5661
▁arme	-5662
▁loup	-5663
▁méch	-5664
▁nerv	-5665
▁pais	-5666
▁porc	-5667
▁rail	-5668
▁rôle	-5669
▁same	-5670
ursion	-5671
éclair	-5672
▁chagr	-5673
▁chiff	-5674
▁chrét	-5675
▁condu	-5676
▁creek	-5677
▁hache	-5678
▁monta	-5679
▁prote	-5680
▁réfug	-5681
▁seize	-5682
▁tombe	-5683
▁until	-5684
interro	-5685
onction	-5686
respond	-5687
▁Gascon	-5688
▁attaqu	-5689
▁changé	-5690
▁compli	-5691
▁endorm	-5692
▁fruits	-5693
▁groupe	-5694
▁hériss	-5695
▁jouiss	-5696
▁métier	-5697
▁oiseau	-5698
▁perdus	-5699
▁redesc	-5700
▁signif	-5701
auraient	-5702
aventure	-5703
officier	-5704
▁Combien	-5705
▁doivent	-5706
▁donnant	-5707
▁obtenir	-5708
▁promont	-5709
▁thought	-5710
ativement	-5711
attendait	-5712
▁arrivant	-5713
▁baleines	-5714
▁demeurer	-5715
▁pouvions	-5716
▁rarement	-5717
▁sensible	-5718
▁toilette	-5719
▁tonnerre	-5720
▁troupeau	-5721
inspecteur	-5722
▁aventures	-5723
▁excursion	-5724
▁puissante	-5725
▁transform	-5726
▁continuait	-5727
▁merveilles	-5728
▁navigation	-5729
▁permettait	-5730
▁proportion	-5731
▁réservoirs	-5732
▁appartenait	-5733
▁conséquence	-5734
▁précautions	-5735
agg	-5736
ded	-5737
ely	-5738
urg	-5739
▁Is	-5740
▁Ni	-5741
arde	-5742
okoh	-5743
écur	-5744
▁--,	-5745
▁enn	-5746
▁mut	-5747
▁squ	-5748
acide	-5749
ancre	-5750
elieu	-5751
glout	-5752
gueil	-5753
issue	-5754
ouris	-5755
urant	-5756
▁Leur	-5757
▁away	-5758
▁brig	-5759
▁chât	-5760
▁cône	-5761
▁fauv	-5762
▁fixé	-5763
▁much	-5764
▁méth	-5765
▁parf	-5766
▁remp	-5767
▁sure	-5768
▁thre	-5769
▁vain	-5770
frique	-5771
sibles	-5772
▁Yokoh	-5773
▁aurez	-5774
▁crier	-5775
▁ferez	-5776
▁formé	-5777
▁gorge	-5778
▁great	-5779
▁group	-5780
▁jetés	-5781
▁nerfs	-5782
▁payer	-5783
▁roche	-5784
▁salua	-5785
▁young	-5786
▁écriv	-5787
atrième	-5788
issaire	-5789
▁caisse	-5790
▁cartes	-5791
▁déchar	-5792
▁déroul	-5793
▁pressé	-5794
▁résign	-5795
▁splend	-5796
▁appelle	-5797
▁commune	-5798
▁devenue	-5799
▁habitée	-5800
▁passées	-5801
▁plafond	-5802
▁sortait	-5803
apprendre	-5804
influence	-5805
▁Yokohama	-5806
▁boussole	-5807
▁contenta	-5808
▁défendre	-5809
▁désirait	-5810
▁fatigues	-5811
▁souffrir	-5812
▁tenaient	-5813
▁traversa	-5814
▁admirable	-5815
▁chasseurs	-5816
▁opération	-5817
▁passaient	-5818
All	-5819
ase	-5820
ben	-5821
dou	-5822
ild	-5823
sif	-5824
tex	-5825
ués	-5826
éli	-5827
▁Ex	-5828
▁câ	-5829
▁pi	-5830
alis	-5831
ctor	-5832
drez	-5833
gson	-5834
âché	-5835
érir	-5836
érit	-5837
▁Far	-5838
▁Rob	-5839
▁cér	-5840
▁dau	-5841
▁lad	-5842
▁may	-5843
aigne	-5844
aquer	-5845
aving	-5846
effor	-5847
ommod	-5848
▁carn	-5849
▁chaî	-5850
▁féro	-5851
▁mass	-5852
▁post	-5853
onnant	-5854
▁Georg	-5855
▁bande	-5856
▁eûmes	-5857
▁fanal	-5858
▁finir	-5859
▁indig	-5860
▁joign	-5861
▁might	-5862
▁rares	-5863
▁reçut	-5864
▁sorti	-5865
▁théor	-5866
▁tient	-5867
▁vents	-5868
▁voûte	-5869
▁étinc	-5870
ception	-5871
érieurs	-5872
▁bourse	-5873
▁dirait	-5874
▁désapp	-5875
▁joyeux	-5876
▁lutter	-5877
▁parfum	-5878
▁philos	-5879
▁pilote	-5880
▁répète	-5881
▁réunis	-5882
▁saisit	-5883
▁voyons	-5884
envelopp	-5885
iblement	-5886
échapper	-5887
▁cendres	-5888
▁deviner	-5889
▁diriger	-5890
▁désirer	-5891
▁fraîche	-5892
▁grosses	-5893
▁largeur	-5894
▁matière	-5895
▁remerci	-5896
▁rivages	-5897
▁royaume	-5898
▁support	-5899
▁voudrez	-5900
entendais	-5901
seulement	-5902
▁Nouvelle	-5903
▁amoureux	-5904
▁blanches	-5905
▁brillant	-5906
▁lumineux	-5907
▁marchant	-5908
▁méridion	-5909
▁centaines	-5910
▁conduisit	-5911
▁portaient	-5912
▁revinrent	-5913
▁correspond	-5914
▁habitation	-5915
▁impatience	-5916
▁résistance	-5917
▁singulière	-5918
▁prisonnière	-5919
▁tranquilles	-5920
Ar	-5921
ES	-5922
IV	-5923
ty	-5924
yg	-5925
gea	-5926
ick	-5927
ife	-5928
jou	-5929
pes	-5930
six	-5931
▁"'	-5932
▁bi	-5933
▁iv	-5934
cour	-5935
ened	-5936
erme	-5937
eter	-5938
hier	-5939
ilis	-5940
loge	-5941
oiff	-5942
pool	-5943
sier	-5944
tern	-5945
▁Att	-5946
▁Dun	-5947
▁Esp	-5948
▁bor	-5949
▁cig	-5950
▁hôt	-5951
agent	-5952
illés	-5953
ision	-5954
knuss	-5955
onnée	-5956
▁Hope	-5957
▁XIII	-5958
▁brav	-5959
▁bure	-5960
▁goél	-5961
▁here	-5962
▁moul	-5963
▁pige	-5964
▁posa	-5965
▁sain	-5966
▁trib	-5967
Aramis	-5968
entrer	-5969
ifères	-5970
▁Aucun	-5971
▁Jusqu	-5972
▁accus	-5973
▁accès	-5974
▁austr	-5975
▁flanc	-5976
▁house	-5977
▁innoc	-5978
▁mener	-5979
▁parla	-5980
▁pourp	-5981
Comment	-5982
▁arrach	-5983
▁cocher	-5984
▁convul	-5985
▁crains	-5986
▁existe	-5987
▁herbes	-5988
▁passée	-5989
▁proche	-5990
▁élèves	-5991
▁établi	-5992
appareil	-5993
▁Saknuss	-5994
▁chacune	-5995
▁contrée	-5996
▁diables	-5997
▁définit	-5998
▁embarqu	-5999
▁fantais	-6000
▁pourrai	-6001
▁provoqu	-6002
▁ramener	-6003
▁rejoign	-6004
▁siècles	-6005
adressant	-6006
espérance	-6007
ouvraient	-6008
▁Duchesse	-6009
▁plaisant	-6010
▁renoncer	-6011
▁servante	-6012
▁éloignée	-6013
▁Georgiana	-6014
▁apparence	-6015
▁camarades	-6016
▁companion	-6017
▁obscurité	-6018
▁poussière	-6019
▁richesses	-6020
▁répondait	-6021
▁singulier	-6022
▁Certainement	-6023
Al	-6024
ik	-6025
yl	-6026
END	-6027
row	-6028
réd	-6029
▁Éc	-6030
acée	-6031
arra	-6032
aura	-6033
ombe	-6034
omot	-6035
rure	-6036
▁buv	-6037
▁enr	-6038
▁mob	-6039
▁pip	-6040
aider	-6041
assée	-6042
aviez	-6043
osion	-6044
oyant	-6045
épare	-6046
▁Tant	-6047
▁They	-6048
▁chat	-6049
▁foss	-6050
▁haie	-6051
▁lord	-6052
▁race	-6053
▁supr	-6054
emport	-6055
▁Liver	-6056
▁Porte	-6057
▁monté	-6058
▁pente	-6059
▁proie	-6060
▁revol	-6061
▁écart	-6062
Anglais	-6063
asseoir	-6064
ensions	-6065
entrion	-6066
horreur	-6067
▁Duncan	-6068
▁allant	-6069
▁charme	-6070
▁disput	-6071
▁dissip	-6072
▁fermer	-6073
▁habité	-6074
▁mérite	-6075
▁noires	-6076
▁protég	-6077
▁prétex	-6078
▁recouv	-6079
▁restée	-6080
▁région	-6081
aticable	-6082
▁Gregson	-6083
▁anciens	-6084
▁chèvres	-6085
▁espérer	-6086
▁lecture	-6087
▁parvint	-6088
▁savants	-6089
▁séparer	-6090
opération	-6091
▁accepter	-6092
▁matières	-6093
▁rappeler	-6094
▁viennent	-6095
▁violente	-6096
▁Liverpool	-6097
▁Plusieurs	-6098
▁Richelieu	-6099
▁conserver	-6100
▁demandais	-6101
▁permettre	-6102
▁présenter	-6103
▁suffisait	-6104
▁voulaient	-6105
▁événement	-6106
▁conduisait	-6107
▁contrefort	-6108
▁expédition	-6109
▁remarquable	-6110
▁septentrion	-6111
▁incessamment	-6112
▁particulière	-6113
asp	-6114
èse	-6115
▁Im	-6116
▁Ly	-6117
▁bu	-6118
▁hu	-6119
▁zo	-6120
▁».	-6121
.--«	-6122
midi	-6123
uyer	-6124
▁186	-6125
▁Cin	-6126
▁Luc	-6127
▁faç	-6128
▁gir	-6129
▁hon	-6130
▁mas	-6131
▁pag	-6132
▁vid	-6133
▁whe	-6134
ardon	-6135
assés	-6136
impat	-6137
issez	-6138
naire	-6139
raîch	-6140
▁brun	-6141
▁cuiv	-6142
▁joue	-6143
▁pari	-6144
▁rocs	-6145
▁épar	-6146
aginer	-6147
apperç	-6148
▁Voyez	-6149
▁ailes	-6150
▁atter	-6151
▁bague	-6152
▁fûmes	-6153
▁heart	-6154
▁nette	-6155
▁never	-6156
▁night	-6157
▁ondul	-6158
▁révol	-6159
▁équip	-6160
acement	-6161
eussent	-6162
isphère	-6163
omètres	-6164
établir	-6165
▁assure	-6166
▁aurons	-6167
▁bouill	-6168
▁canons	-6169
▁chauff	-6170
▁dévers	-6171
▁grains	-6172
▁humeur	-6173
▁jetant	-6174
▁marque	-6175
▁mousta	-6176
▁placée	-6177
▁prince	-6178
▁profit	-6179
▁saisir	-6180
▁touché	-6181
▁éteint	-6182
possible	-6183
▁apercev	-6184
▁chargés	-6185
▁devoirs	-6186
▁douceur	-6187
▁essayer	-6188
▁mercier	-6189
▁pension	-6190
▁pourrez	-6191
▁secrets	-6192
▁simples	-6193
▁échelle	-6194
▁écouter	-6195
expliquer	-6196
▁admettre	-6197
▁bourreau	-6198
▁cavalier	-6199
▁convient	-6200
▁demandez	-6201
▁mesurait	-6202
▁plaindre	-6203
▁secondes	-6204
▁solitude	-6205
▁appareils	-6206
▁désappoin	-6207
▁extrémité	-6208
▁Saknussemm	-6209
▁manquaient	-6210
▁Quelquefois	-6211
▁douloureuse	-6212
▁proposition	-6213
▁souffrances	-6214
▁gouvernement	-6215
IS	-6216
Ou	-6217
QUE	-6218
agu	-6219
itt	-6220
oon	-6221
raü	-6222
▁Gl	-6223
▁fé	-6224
▁ke	-6225
▁rè	-6226
Club	-6227
Pour	-6228
agut	-6229
angé	-6230
aude	-6231
erce	-6232
joux	-6233
otes	-6234
ound	-6235
▁Lui	-6236
▁mug	-6237
▁oss	-6238
▁pop	-6239
▁wal	-6240
▁ébl	-6241
arbre	-6242
erais	-6243
ermer	-6244
inces	-6245
oyait	-6246
usque	-6247
écart	-6248
▁Anne	-6249
▁Farr	-6250
▁Hall	-6251
▁armé	-6252
▁bruy	-6253
▁many	-6254
▁régl	-6255
ellent	-6256
enfant	-6257
espèce	-6258
itaine	-6259
raüben	-6260
érable	-6261
▁chand	-6262
▁coiff	-6263
▁colle	-6264
▁coupé	-6265
▁dépit	-6266
▁fonds	-6267
▁hôtes	-6268
▁invis	-6269
▁quere	-6270
▁shall	-6271
▁spéci	-6272
▁tourb	-6273
▁vitre	-6274
▁vôtre	-6275
adresse	-6276
quement	-6277
ription	-6278
uctions	-6279
▁amener	-6280
▁barque	-6281
▁blancs	-6282
▁caress	-6283
▁cercle	-6284
▁donnez	-6285
▁erreur	-6286
▁humide	-6287
▁imprud	-6288
▁pattes	-6289
▁pourvu	-6290
▁quitte	-6291
▁restai	-6292
▁riches	-6293
▁récomp	-6294
▁résist	-6295
▁secoua	-6296
▁stupéf	-6297
▁vitres	-6298
▁écrire	-6299
▁élevée	-6300
▁atteign	-6301
▁aurions	-6302
▁domaine	-6303
▁envoyer	-6304
▁esprits	-6305
▁poignée	-6306
▁pousser	-6307
▁protest	-6308
▁relever	-6309
▁voulant	-6310
▁énormes	-6311
inalement	-6312
▁Farragut	-6313
▁appeared	-6314
▁attendit	-6315
▁couverte	-6316
▁physique	-6317
▁poussait	-6318
▁regagner	-6319
▁terminée	-6320
▁expliquer	-6321
▁faiblesse	-6322
▁palissade	-6323
▁quatrième	-6324
▁soufflait	-6325
▁surnature	-6326
▁tentative	-6327
▁clairement	-6328
▁continents	-6329
▁excellente	-6330
▁importance	-6331
▁disparaître	-6332
▁promontoire	-6333
▁préparatifs	-6334
▁électriques	-6335
▁apparaissait	-6336
Ad	-6337
IL	-6338
aw	-6339
hy	-6340
za	-6341
Mes	-6342
dix	-6343
ium	-6344
lor	-6345
nez	-6346
ook	-6347
tem	-6348
urb	-6349
âle	-6350
ôme	-6351
œil	-6352
▁11	-6353
▁Ab	-6354
agea	-6355
aira	-6356
erse	-6357
itié	-6358
oise	-6359
outh	-6360
sive	-6361
teau	-6362
élas	-6363
▁---	-6364
▁Ess	-6365
▁old	-6366
▁tun	-6367
admir	-6368
ambre	-6369
ament	-6370
assit	-6371
assur	-6372
effet	-6373
ondes	-6374
▁cost	-6375
▁dent	-6376
▁diss	-6377
▁done	-6378
▁dura	-6379
▁rong	-6380
▁soie	-6381
▁tint	-6382
▁voil	-6383
ageait	-6384
appris	-6385
examin	-6386
iction	-6387
indiqu	-6388
▁Allez	-6389
▁Grace	-6390
▁avril	-6391
▁désol	-6392
▁fallu	-6393
▁famil	-6394
▁illus	-6395
▁irrés	-6396
▁mangé	-6397
▁nulle	-6398
▁tente	-6399
Espagne	-6400
llement	-6401
ouvrage	-6402
raiment	-6403
▁Certes	-6404
▁Reform	-6405
▁arrond	-6406
▁braves	-6407
▁briser	-6408
▁craint	-6409
▁cétacé	-6410
▁découp	-6411
▁facult	-6412
▁formes	-6413
▁infort	-6414
▁nouvel	-6415
▁ombres	-6416
▁repart	-6417
▁séjour	-6418
▁évanou	-6419
intellig	-6420
intéress	-6421
▁chances	-6422
▁charger	-6423
▁consult	-6424
▁dessous	-6425
▁disposé	-6426
▁flammes	-6427
▁observé	-6428
▁rapides	-6429
▁rideaux	-6430
▁vinrent	-6431
▁apporter	-6432
▁bataille	-6433
▁capitale	-6434
▁conseils	-6435
▁existait	-6436
▁naufragé	-6437
▁obstacle	-6438
▁occident	-6439
▁procurer	-6440
▁rafraîch	-6441
▁respirer	-6442
▁tonneaux	-6443
▁voyageur	-6444
▁commencer	-6445
▁espérance	-6446
▁recouvert	-6447
▁renseigne	-6448
▁comprenait	-6449
▁plantation	-6450
▁difficultés	-6451
▁gigantesque	-6452
▁regardèrent	-6453
DI	-6454
ld	-6455
Bon	-6456
abs	-6457
cot	-6458
ove	-6459
rum	-6460
▁Me	-6461
inée	-6462
nées	-6463
omet	-6464
uine	-6465
▁Jac	-6466
▁Nos	-6467
▁XXX	-6468
▁asc	-6469
▁fuy	-6470
▁kne	-6471
▁rom	-6472
▁règ	-6473
Voilà	-6474
bonne	-6475
ontin	-6476
oulez	-6477
uites	-6478
▁Jeff	-6479
▁Laqu	-6480
▁Mong	-6481
▁foll	-6482
▁mind	-6483
▁paix	-6484
▁prat	-6485
▁salu	-6486
▁syst	-6487
▁tire	-6488
▁work	-6489
ormais	-6490
ousses	-6491
ration	-6492
▁Gates	-6493
▁Japon	-6494
▁Merci	-6495
▁chron	-6496
▁démon	-6497
▁empar	-6498
▁grond	-6499
▁intri	-6500
▁logis	-6501
▁pendu	-6502
▁porta	-6503
▁riant	-6504
▁teint	-6505
Islande	-6506
aperçut	-6507
▁Quatre	-6508
▁Street	-6509
▁accabl	-6510
▁accour	-6511
▁entrée	-6512
▁leçons	-6513
▁monstr	-6514
▁offrir	-6515
▁orient	-6516
▁plumes	-6517
▁prière	-6518
▁risque	-6519
▁signes	-6520
▁sortie	-6521
▁venant	-6522
▁épargn	-6523
appelait	-6524
arrêtait	-6525
humanité	-6526
étendait	-6527
▁adresse	-6528
▁apporté	-6529
▁costume	-6530
▁crimine	-6531
▁entrait	-6532
▁forment	-6533
▁furieux	-6534
▁montait	-6535
▁obscure	-6536
▁poisson	-6537
▁préparé	-6538
▁pussent	-6539
▁réalité	-6540
▁récolte	-6541
attention	-6542
housiasme	-6543
▁contenir	-6544
▁fatiguée	-6545
▁milliers	-6546
▁monstres	-6547
▁méridien	-6548
▁pourriez	-6549
▁traversé	-6550
▁ténèbres	-6551
▁Gateshead	-6552
▁Jefferson	-6553
▁affection	-6554
▁couraient	-6555
▁impatient	-6556
▁largement	-6557
▁nageoires	-6558
▁remplacer	-6559
▁tranquill	-6560
appartement	-6561
▁brouillard	-6562
▁différence	-6563
▁embarrassé	-6564
▁silencieux	-6565
▁connaissais	-6566
▁exploration	-6567
oya	-6568
ury	-6569
▁21	-6570
▁Po	-6571
▁bâ	-6572
elez	-6573
obst	-6574
oind	-6575
olia	-6576
ulte	-6577
▁His	-6578
▁fau	-6579
▁gém	-6580
▁rug	-6581
abatt	-6582
acées	-6583
ageux	-6584
ained	-6585
astre	-6586
berge	-6587
habit	-6588
▁?...	-6589
▁Chac	-6590
▁Chev	-6591
▁aboi	-6592
▁calm	-6593
▁drag	-6594
▁grac	-6595
▁lame	-6596
▁mend	-6597
▁pomp	-6598
▁prog	-6599
▁quai	-6600
▁rose	-6601
▁seem	-6602
▁sien	-6603
▁sœur	-6604
▁tenu	-6605
▁égal	-6606
▁îlot	-6607
atorze	-6608
cation	-6609
enance	-6610
inière	-6611
▁caval	-6612
▁choix	-6613
▁entré	-6614
▁fermé	-6615
▁halte	-6616
▁hauss	-6617
▁offic	-6618
▁pieux	-6619
▁risqu	-6620
▁série	-6621
▁êtres	-6622
Afrique	-6623
opinion	-6624
▁Tandis	-6625
▁boulev	-6626
▁bourge	-6627
▁commis	-6628
▁consac	-6629
▁cuivre	-6630
▁entrev	-6631
▁europé	-6632
▁marbre	-6633
▁masses	-6634
▁parall	-6635
▁pentes	-6636
▁placés	-6637
▁rempli	-6638
▁siècle	-6639
▁verrez	-6640
▁virent	-6641
▁bagages	-6642
▁bastion	-6643
▁glisser	-6644
▁rappela	-6645
▁reposer	-6646
▁répéter	-6647
▁taillis	-6648
▁étroite	-6649
ueusement	-6650
▁Mongolia	-6651
▁Seigneur	-6652
▁accompli	-6653
▁commence	-6654
▁escalier	-6655
▁quartier	-6656
▁services	-6657
▁sinistre	-6658
▁souffert	-6659
▁trouvant	-6660
▁éclairée	-6661
▁convenait	-6662
▁donnaient	-6663
▁nullement	-6664
▁ouverture	-6665
▁pistolets	-6666
▁vaisseaux	-6667
▁vingtaine	-6668
▁adversaire	-6669
▁conclusion	-6670
▁considérer	-6671
▁solidement	-6672
▁trouvèrent	-6673
▁commissaire	-6674
▁explication	-6675
▁interrompit	-6676
▁reconnaissant	-6677
xi	-6678
cut	-6679
eul	-6680
isp	-6681
orn	-6682
oun	-6683
▁Am	-6684
ched	-6685
eron	-6686
iron	-6687
ison	-6688
omes	-6689
èbre	-6690
èles	-6691
èner	-6692
▁Col	-6693
▁Lis	-6694
▁Mau	-6695
▁San	-6696
▁dra	-6697
▁ral	-6698
▁ras	-6699
Ouest	-6700
acier	-6701
ather	-6702
ether	-6703
froid	-6704
izont	-6705
mosph	-6706
oigne	-6707
oresc	-6708
ourde	-6709
trois	-6710
urned	-6711
usage	-6712
▁Anna	-6713
▁Comp	-6714
▁acqu	-6715
▁boré	-6716
▁carg	-6717
▁cuir	-6718
▁cult	-6719
▁fine	-6720
▁head	-6721
▁lave	-6722
▁only	-6723
▁sage	-6724
▁sein	-6725
appart	-6726
entrai	-6727
espace	-6728
ilence	-6729
écorce	-6730
éraire	-6731
▁agent	-6732
▁concl	-6733
▁cérém	-6734
▁envah	-6735
▁exerc	-6736
▁gonfl	-6737
▁mince	-6738
▁périr	-6739
▁ruine	-6740
▁touff	-6741
▁venus	-6742
arrivai	-6743
arrêtai	-6744
assible	-6745
entions	-6746
entrepr	-6747
envoyer	-6748
imètres	-6749
▁Europe	-6750
▁action	-6751
▁aurais	-6752
▁invent	-6753
▁savons	-6754
▁seriez	-6755
▁succéd	-6756
▁taches	-6757
▁tombée	-6758
▁voleur	-6759
▁voulus	-6760
▁zoophy	-6761
éloigner	-6762
▁branche	-6763
▁consomm	-6764
▁employé	-6765
▁fournir	-6766
▁install	-6767
▁juillet	-6768
▁lunette	-6769
▁matinée	-6770
▁moutons	-6771
▁pratiqu	-6772
▁prévenu	-6773
▁pénible	-6774
▁redress	-6775
▁regardé	-6776
▁suprême	-6777
▁échange	-6778
▁ailleurs	-6779
▁banquise	-6780
▁coquille	-6781
▁douzaine	-6782
▁flottait	-6783
▁générale	-6784
▁planches	-6785
▁pourrons	-6786
▁prétexte	-6787
▁pêcheurs	-6788
▁retrouvé	-6789
▁combattre	-6790
▁manoeuvre	-6791
▁pareilles	-6792
▁retournai	-6793
▁abandonnée	-6794
▁construire	-6795
▁conviction	-6796
▁entreprise	-6797
▁suffisante	-6798
▁regardaient	-6799
▁tremblement	-6800
▁dispositions	-6801
▁régulièrement	-6802
▁vigoureusement	-6803
Au	-6804
fé	-6805
RES	-6806
abe	-6807
lés	-6808
man	-6809
oke	-6810
onf	-6811
oor	-6812
rob	-6813
rot	-6814
uos	-6815
▁13	-6816
▁mû	-6817
Cela	-6818
arch	-6819
arts	-6820
extr	-6821
ipel	-6822
ompr	-6823
ypte	-6824
èdes	-6825
ètes	-6826
▁Bri	-6827
▁vus	-6828
▁ému	-6829
.....	-6830
ENDRE	-6831
andes	-6832
attre	-6833
estig	-6834
icule	-6835
liver	-6836
objet	-6837
onnai	-6838
ophie	-6839
ousse	-6840
rosse	-6841
thing	-6842
édioc	-6843
épuis	-6844
érost	-6845
▁Loir	-6846
▁That	-6847
▁When	-6848
▁airs	-6849
▁date	-6850
▁escl	-6851
▁exig	-6852
▁fell	-6853
▁life	-6854
▁like	-6855
▁name	-6856
▁pars	-6857
▁poil	-6858
▁ster	-6859
▁tôle	-6860
▁vécu	-6861
agnols	-6862
issais	-6863
ologie	-6864
éphant	-6865
▁Grâce	-6866
▁Parmi	-6867
▁aimer	-6868
▁attir	-6869
▁berge	-6870
▁cessé	-6871
▁exist	-6872
▁fâché	-6873
▁organ	-6874
▁prier	-6875
▁prévu	-6876
▁saill	-6877
▁situé	-6878
▁titre	-6879
itution	-6880
électri	-6881
▁Faites	-6882
▁Lorsqu	-6883
▁Prenez	-6884
▁apprit	-6885
▁auriez	-6886
▁baiser	-6887
▁confus	-6888
▁crique	-6889
▁devons	-6890
▁droits	-6891
▁détest	-6892
▁effect	-6893
▁enough	-6894
▁espace	-6895
▁explor	-6896
▁graves	-6897
▁marais	-6898
▁morale	-6899
▁multip	-6900
▁object	-6901
▁patrie	-6902
▁pesant	-6903
▁remuer	-6904
▁rendis	-6905
▁singes	-6906
▁soumis	-6907
▁tortue	-6908
▁vertic	-6909
étranger	-6910
▁aimable	-6911
▁augment	-6912
▁cabaret	-6913
▁causait	-6914
▁désagré	-6915
▁langage	-6916
▁limites	-6917
▁moments	-6918
▁papiers	-6919
▁phoques	-6920
▁possède	-6921
▁prières	-6922
▁remonta	-6923
▁remords	-6924
▁énergie	-6925
approchai	-6926
approcher	-6927
inctement	-6928
ouverture	-6929
▁communic	-6930
▁contempl	-6931
▁contente	-6932
▁demeurai	-6933
▁discours	-6934
▁mâchoire	-6935
▁resplend	-6936
▁soupçons	-6937
▁Chevreuse	-6938
▁approcher	-6939
▁boulevers	-6940
▁cargaison	-6941
▁cherchant	-6942
▁composait	-6943
▁continuai	-6944
▁désormais	-6945
▁gentlemen	-6946
▁munitions	-6947
▁possédait	-6948
▁précipité	-6949
▁remontait	-6950
▁vieillard	-6951
▁vraisembl	-6952
électricité	-6953
▁poursuivre	-6954
▁souffrance	-6955
▁merveilleux	-6956
▁naturaliste	-6957
▁respiration	-6958
▁silencieuse	-6959
▁inexplicable	-6960
▁propriétaire	-6961
).	-6962
.)	-6963
.,	-6964
An	-6965
NE	-6966
hé	-6967
abb	-6968
ash	-6969
bon	-6970
but	-6971
opt	-6972
upp	-6973
▁10	-6974
Elle	-6975
West	-6976
acul	-6977
aste	-6978
erst	-6979
ivid	-6980
liza	-6981
ness	-6982
port	-6983
écid	-6984
▁--«	-6985
▁Aux	-6986
▁Cap	-6987
▁Peu	-6988
▁dar	-6989
▁dor	-6990
▁lou	-6991
▁naï	-6992
▁ten	-6993
Union	-6994
assis	-6995
cutta	-6996
geant	-6997
ièmes	-6998
onnés	-6999
orage	-7000
ormer	-7001
ottes	-7002
pital	-7003
ramme	-7004
river	-7005
wards	-7006
érait	-7007
▁amie	-7008
▁buis	-7009
▁chim	-7010
▁fest	-7011
▁hist	-7012
▁rept	-7013
▁répu	-7014
▁souc	-7015
▁test	-7016
▁trad	-7017
arnais	-7018
assées	-7019
aucune	-7020
devant	-7021
marine	-7022
onçant	-7023
éveill	-7024
▁House	-7025
▁aiguë	-7026
▁barbe	-7027
▁barre	-7028
▁crist	-7029
▁drôle	-7030
▁estim	-7031
▁farou	-7032
▁ferma	-7033
▁filet	-7034
▁fixés	-7035
▁jadis	-7036
▁jetai	-7037
▁nommé	-7038
▁reçus	-7039
▁sonna	-7040
▁think	-7041
▁whole	-7042
ENDREDI	-7043
aisseur	-7044
astique	-7045
oiseaux	-7046
origine	-7047
ularité	-7048
▁Souris	-7049
▁appuyé	-7050
▁brûler	-7051
▁certes	-7052
▁crimes	-7053
▁démont	-7054
▁désirs	-7055
▁empêch	-7056
▁exacte	-7057
▁médioc	-7058
▁palais	-7059
▁pardon	-7060
▁public	-7061
▁retiré	-7062
▁scient	-7063
▁tendit	-7064
▁veines	-7065
▁éviter	-7066
avançait	-7067
espérais	-7068
ichambre	-7069
▁Sauvage	-7070
▁affreux	-7071
▁besoins	-7072
▁chagrin	-7073
▁cherché	-7074
▁combust	-7075
▁déclara	-7076
▁entouré	-7077
▁laissai	-7078
▁morning	-7079
▁nothing	-7080
▁observa	-7081
▁préserv	-7082
▁sortant	-7083
▁système	-7084
▁verdure	-7085
▁échappé	-7086
▁étincel	-7087
▁Calcutta	-7088
▁VENDREDI	-7089
▁appelait	-7090
▁arracher	-7091
▁détruire	-7092
▁flottant	-7093
▁goélette	-7094
▁inconnue	-7095
▁naturels	-7096
▁parurent	-7097
▁pratique	-7098
▁qualités	-7099
▁regardez	-7100
▁remarque	-7101
▁remercie	-7102
▁soutenir	-7103
importance	-7104
ranchement	-7105
▁habitudes	-7106
▁invisible	-7107
▁librement	-7108
▁meilleurs	-7109
▁politique	-7110
▁recommenc	-7111
▁rencontra	-7112
▁tombèrent	-7113
observation	-7114
▁auxquelles	-7115
▁kilomètres	-7116
▁maîtresses	-7117
▁mystérieux	-7118
▁précipiter	-7119
▁franchement	-7120
▁fréquemment	-7121
▁méridionale	-7122
▁instructions	-7123
▁intelligence	-7124
▁paraissaient	-7125
▁successivement	-7126
▁désappointement	-7127
UR	-7128
ft	-7129
▁8	-7130
leg	-7131
ory	-7132
▁We	-7133
enar	-7134
igin	-7135
isco	-7136
mons	-7137
mont	-7138
neuf	-7139
omin	-7140
ople	-7141
uart	-7142
écis	-7143
▁Ber	-7144
▁Nul	-7145
▁ill	-7146
▁nac	-7147
▁nid	-7148
▁ouv	-7149
▁pel	-7150
arres	-7151
enser	-7152
glise	-7153
hosph	-7154
oudre	-7155
uffis	-7156
▁Morm	-7157
▁actu	-7158
▁frag	-7159
▁good	-7160
▁hiss	-7161
▁inqu	-7162
▁levé	-7163
▁mart	-7164
▁nett	-7165
▁once	-7166
▁rade	-7167
▁spir	-7168
▁unes	-7169
Allons	-7170
▁Ayant	-7171
▁biens	-7172
▁bâton	-7173
▁finit	-7174
▁griff	-7175
▁hôtel	-7176
▁incap	-7177
▁laine	-7178
▁notes	-7179
▁océan	-7180
▁posit	-7181
▁ripos	-7182
▁tiers	-7183
appeler	-7184
enouill	-7185
horloge	-7186
ouragan	-7187
ouvante	-7188
ruction	-7189
érostat	-7190
étrange	-7191
▁Glenar	-7192
▁Stuart	-7193
▁ancien	-7194
▁appréh	-7195
▁avouer	-7196
▁brumes	-7197
▁catast	-7198
▁connue	-7199
▁donnée	-7200
▁douces	-7201
▁effets	-7202
▁enfonc	-7203
▁exprim	-7204
▁fleuve	-7205
▁fortes	-7206
▁francs	-7207
▁frères	-7208
▁gestes	-7209
▁goutte	-7210
▁incomp	-7211
▁jalous	-7212
▁lueurs	-7213
▁presqu	-7214
▁reprod	-7215
▁témoin	-7216
▁valets	-7217
▁échoué	-7218
emporter	-7219
enceinte	-7220
▁Silence	-7221
▁arrêtés	-7222
▁atmosph	-7223
▁chanter	-7224
▁devrait	-7225
▁effrayé	-7226
▁englout	-7227
▁entrant	-7228
▁gentils	-7229
▁importe	-7230
▁locomot	-7231
▁mention	-7232
▁moisson	-7233
▁poussée	-7234
▁pouvant	-7235
▁période	-7236
▁quadrup	-7237
▁referma	-7238
▁respons	-7239
▁revient	-7240
▁régnait	-7241
▁secrète	-7242
▁écoutez	-7243
▁étoiles	-7244
▁Vraiment	-7245
▁collines	-7246
▁compagne	-7247
▁conservé	-7248
▁horizont	-7249
▁sterling	-7250
▁sûrement	-7251
▁Messieurs	-7252
▁chevalier	-7253
▁déversoir	-7254
▁maintenir	-7255
▁mousquets	-7256
▁rappelait	-7257
▁zoophytes	-7258
exploration	-7259
▁atmosphère	-7260
▁appartenant	-7261
▁inutilement	-7262
▁prodigieuse	-7263
▁commencèrent	-7264
▁renseignements	-7265
._	-7266
Am	-7267
He	-7268
Ma	-7269
hu	-7270
000	-7271
gée	-7272
wal	-7273
ypt	-7274
éra	-7275
éth	-7276
▁30	-7277
Jane	-7278
agir	-7279
alys	-7280
ered	-7281
eule	-7282
vres	-7283
ways	-7284
érif	-7285
évit	-7286
▁hel	-7287
▁num	-7288
▁use	-7289
adier	-7290
andon	-7291
atter	-7292
ennes	-7293
flamm	-7294
ghter	-7295
oises	-7296
other	-7297
ussac	-7298
▁Cinq	-7299
▁Rang	-7300
▁acte	-7301
▁asse	-7302
▁cath	-7303
▁cave	-7304
▁cime	-7305
▁clim	-7306
▁cray	-7307
▁décl	-7308
▁even	-7309
▁find	-7310
▁forç	-7311
▁frac	-7312
▁harm	-7313
▁insi	-7314
▁mamm	-7315
▁mord	-7316
▁muet	-7317
▁payé	-7318
▁pipe	-7319
▁soif	-7320
▁vins	-7321
enille	-7322
▁angle	-7323
▁brume	-7324
▁canne	-7325
▁cessa	-7326
▁chanc	-7327
▁câble	-7328
▁distr	-7329
▁gardé	-7330
▁hands	-7331
▁héros	-7332
▁irrit	-7333
▁issue	-7334
▁lancé	-7335
▁latin	-7336
▁loups	-7337
▁obéir	-7338
▁poser	-7339
▁priai	-7340
▁ranim	-7341
▁roues	-7342
▁round	-7343
▁sages	-7344
▁therm	-7345
▁verra	-7346
▁vraie	-7347
▁éblou	-7348
animaux	-7349
anément	-7350
astille	-7351
emparer	-7352
eraient	-7353
intérêt	-7354
▁Maître	-7355
▁assass	-7356
▁coffre	-7357
▁cordes	-7358
▁dégoût	-7359
▁enlevé	-7360
▁ferais	-7361
▁fraîch	-7362
▁glissa	-7363
▁levait	-7364
▁menace	-7365
▁paquet	-7366
▁permit	-7367
▁phosph	-7368
▁pluies	-7369
▁termes	-7370
▁tombai	-7371
accepter	-7372
▁Rangoon	-7373
▁arraché	-7374
▁attaché	-7375
▁confier	-7376
▁désirez	-7377
▁horreur	-7378
▁marches	-7379
▁meubles	-7380
▁nourrir	-7381
▁obligée	-7382
▁ouverts	-7383
▁pleurer	-7384
▁refroid	-7385
▁sources	-7386
▁traiter	-7387
▁tristes	-7388
▁visible	-7389
▁voisine	-7390
▁étonnée	-7391
▁barrière	-7392
▁daughter	-7393
▁dominait	-7394
▁désordre	-7395
▁détresse	-7396
▁endroits	-7397
▁fonction	-7398
▁frappant	-7399
▁irrésist	-7400
▁journaux	-7401
▁parvenir	-7402
▁penchant	-7403
▁prochain	-7404
▁profiter	-7405
▁rappelez	-7406
▁recommen	-7407
▁revenant	-7408
▁revolver	-7409
▁écoutait	-7410
▁étranges	-7411
arrêtèrent	-7412
▁Glenarvan	-7413
▁bâtiments	-7414
▁descendis	-7415
▁découvris	-7416
▁fantaisie	-7417
▁indiquait	-7418
▁nettement	-7419
▁principes	-7420
▁restaient	-7421
▁suivirent	-7422
▁accompagné	-7423
▁descendant	-7424
▁douloureux	-7425
▁gouvernail	-7426
▁renfermait	-7427
▁tremblante	-7428
▁uniquement	-7429
▁différentes	-7430
▁convenablement	-7431
La	-7432
OI	-7433
gez	-7434
gre	-7435
hed	-7436
iée	-7437
los	-7438
rat	-7439
ten	-7440
▁az	-7441
...,	-7442
alog	-7443
anth	-7444
cote	-7445
enri	-7446
gong	-7447
mond	-7448
onds	-7449
oris	-7450
prun	-7451
ptem	-7452
sion	-7453
ustr	-7454
▁Bob	-7455
▁Sam	-7456
▁Ven	-7457
▁cra	-7458
▁pât	-7459
▁rub	-7460
abîme	-7461
aimez	-7462
enlev	-7463
icien	-7464
méric	-7465
ortez	-7466
outes	-7467
ueils	-7468
uteur	-7469
âcher	-7470
▁Mill	-7471
▁Xury	-7472
▁bouc	-7473
▁cage	-7474
▁chir	-7475
▁crép	-7476
▁fact	-7477
▁joli	-7478
▁mets	-7479
▁prim	-7480
▁quot	-7481
▁stat	-7482
▁tord	-7483
enfuir	-7484
ennemi	-7485
ispens	-7486
itudes	-7487
naient	-7488
onnier	-7489
▁Tenez	-7490
▁accro	-7491
▁blood	-7492
▁divis	-7493
▁gouff	-7494
▁indép	-7495
▁nuits	-7496
▁obéit	-7497
▁règne	-7498
▁rêver	-7499
▁rêves	-7500
▁sucre	-7501
▁tours	-7502
▁where	-7503
▁while	-7504
▁érupt	-7505
avancer	-7506
ptembre	-7507
uraient	-7508
▁Aucune	-7509
▁Chaque	-7510
▁appréc	-7511
▁bandes	-7512
▁cachée	-7513
▁deviné	-7514
▁donnés	-7515
▁dugong	-7516
▁forcée	-7517
▁galant	-7518
▁inspir	-7519
▁lancer	-7520
▁matéri	-7521
▁obtenu	-7522
▁poches	-7523
▁remous	-7524
▁treize	-7525
▁venger	-7526
▁vivait	-7527
▁voudra	-7528
▁écrite	-7529
exprimer	-7530
▁against	-7531
▁austral	-7532
▁creuser	-7533
▁décrire	-7534
▁hésiter	-7535
▁occupée	-7536
▁panneau	-7537
▁prouver	-7538
▁réponds	-7539
▁superbe	-7540
▁trouvez	-7541
ification	-7542
écidément	-7543
▁Bastille	-7544
▁Millcote	-7545
▁commerce	-7546
▁craintes	-7547
▁descente	-7548
▁espérant	-7549
▁jeunesse	-7550
▁lunettes	-7551
▁médiocre	-7552
▁parcouru	-7553
▁produite	-7554
▁quatorze	-7555
▁redouter	-7556
▁remarked	-7557
▁sourcils	-7558
▁tournait	-7559
▁voudrait	-7560
impatience	-7561
▁Francisco	-7562
▁bourgeois	-7563
▁disposées	-7564
▁détective	-7565
▁poursuite	-7566
▁prenaient	-7567
▁vainement	-7568
▁abandonner	-7569
▁aucunement	-7570
▁conducteur	-7571
▁empreintes	-7572
▁expérience	-7573
▁recommandé	-7574
▁occidentale	-7575
▁raisonnable	-7576
▁distinctement	-7577
▁gentilshommes	-7578
.'	-7579
AT	-7580
As	-7581
Av	-7582
œu	-7583
And	-7584
Par	-7585
apt	-7586
onv	-7587
ref	-7588
xim	-7589
▁cu	-7590
berg	-7591
ceau	-7592
ried	-7593
usez	-7594
étit	-7595
étés	-7596
▁Esh	-7597
▁ban	-7598
▁céd	-7599
▁dam	-7600
▁pin	-7601
▁riz	-7602
▁rôt	-7603
▁say	-7604
▁tot	-7605
▁vel	-7606
armée	-7607
heurs	-7608
ibule	-7609
ilote	-7610
quête	-7611
raper	-7612
tesse	-7613
ébran	-7614
épous	-7615
érine	-7616
▁Carn	-7617
▁Croy	-7618
▁Lucy	-7619
▁Mont	-7620
▁anxi	-7621
▁août	-7622
▁clai	-7623
▁girl	-7624
▁glor	-7625
▁grat	-7626
▁guet	-7627
▁guid	-7628
▁knew	-7629
▁left	-7630
▁most	-7631
▁pire	-7632
▁posé	-7633
▁ring	-7634
▁tell	-7635
▁vulg	-7636
atrice	-7637
embarr	-7638
ettant	-7639
introd	-7640
liquai	-7641
▁Poole	-7642
▁clart	-7643
▁coude	-7644
▁couru	-7645
▁death	-7646
▁fixer	-7647
▁gross	-7648
▁jouir	-7649
▁linge	-7650
▁perro	-7651
▁probl	-7652
▁raill	-7653
▁right	-7654
▁small	-7655
▁suffi	-7656
▁tante	-7657
▁tenté	-7658
▁those	-7659
▁tremp	-7660
▁trous	-7661
▁visit	-7662
▁vives	-7663
▁voler	-7664
▁vérif	-7665
▁élève	-7666
▁énerg	-7667
ensiles	-7668
inclina	-7669
marines	-7670
ucation	-7671
émotion	-7672
▁Demain	-7673
▁Eshton	-7674
▁Jussac	-7675
▁Lièvre	-7676
▁Madame	-7677
▁Oliver	-7678
▁Venise	-7679
▁brisée	-7680
▁bureau	-7681
▁chèvre	-7682
▁claire	-7683
▁corail	-7684
▁criant	-7685
▁essayé	-7686
▁exclam	-7687
▁glaces	-7688
▁hélice	-7689
▁jouait	-7690
▁matter	-7691
▁moulin	-7692
▁mécont	-7693
▁notice	-7694
▁plaira	-7695
▁relevé	-7696
▁speedy	-7697
▁tapiss	-7698
▁tunnel	-7699
▁villes	-7700
apperçus	-7701
illaient	-7702
ièrement	-7703
ressions	-7704
▁Essarts	-7705
▁Jacques	-7706
▁boucles	-7707
▁chercha	-7708
▁croyant	-7709
▁dizaine	-7710
▁fatigué	-7711
▁favoris	-7712
▁individ	-7713
▁offrait	-7714
▁prétend	-7715
▁redoubl	-7716
▁sentine	-7717
▁serions	-7718
▁serrant	-7719
▁solides	-7720
▁sourcil	-7721
▁suspect	-7722
onnements	-7723
videmment	-7724
élevaient	-7725
▁Carnatic	-7726
▁Lisbonne	-7727
▁centaine	-7728
▁contrées	-7729
▁distingu	-7730
▁douleurs	-7731
▁malheurs	-7732
▁marchand	-7733
▁pardonne	-7734
▁passions	-7735
▁portière	-7736
▁quittant	-7737
▁secouant	-7738
▁séparait	-7739
▁transpar	-7740
▁vieilles	-7741
▁éruption	-7742
apercevais	-7743
impression	-7744
▁accomplir	-7745
▁américain	-7746
▁chandelle	-7747
▁excessive	-7748
▁feuillage	-7749
▁incidents	-7750
▁obstacles	-7751
▁officiers	-7752
▁principal	-7753
antichambre	-7754
▁aboiements	-7755
▁commençais	-7756
▁effroyable	-7757
▁entrailles	-7758
▁instrument	-7759
▁surprendre	-7760
▁attendaient	-7761
.............	-7762
▁commençaient	-7763
▁gigantesques	-7764
▁tranquillité	-7765
▁définitivement	-7766
▁recommandation	-7767
,_	-7768
SE	-7769
Ét	-7770
▁Ç	-7771
ami	-7772
iai	-7773
▁14	-7774
▁23	-7775
▁Dé	-7776
▁ha	-7777
▁hy	-7778
▁né	-7779
acte	-7780
drew	-7781
icle	-7782
irst	-7783
itoy	-7784
king	-7785
osse	-7786
âter	-7787
éles	-7788
▁alt	-7789
▁aqu	-7790
▁dro	-7791
▁gel	-7792
▁its	-7793
▁lam	-7794
▁véh	-7795
anges	-7796
expos	-7797
ither	-7798
oquer	-7799
pents	-7800
rines	-7801
seaux	-7802
éfait	-7803
ôtres	-7804
œuvre	-7805
▁Dent	-7806
▁abri	-7807
▁bisc	-7808
▁cell	-7809
▁coch	-7810
▁douz	-7811
▁semé	-7812
▁suit	-7813
▁wind	-7814
abaiss	-7815
aimait	-7816
empêch	-7817
exécut	-7818
hélice	-7819
iation	-7820
lemand	-7821
rières	-7822
élever	-7823
étique	-7824
▁adieu	-7825
▁baign	-7826
▁bourb	-7827
▁caill	-7828
▁croit	-7829
▁gazon	-7830
▁hauts	-7831
▁jetée	-7832
▁lieux	-7833
▁mètre	-7834
▁oeufs	-7835
▁paire	-7836
▁roses	-7837
▁saisi	-7838
▁scrup	-7839
▁songé	-7840
▁spoke	-7841
▁sèche	-7842
▁veuve	-7843
▁États	-7844
aisante	-7845
illages	-7846
imagine	-7847
liquait	-7848
▁Arrivé	-7849
▁Chacun	-7850
▁allumé	-7851
▁bassin	-7852
▁cadeau	-7853
▁disent	-7854
▁durent	-7855
▁débord	-7856
▁father	-7857
▁lourde	-7858
▁marier	-7859
▁montai	-7860
▁narwal	-7861
▁partez	-7862
▁plaire	-7863
▁quotid	-7864
▁rappro	-7865
▁réduit	-7866
▁souris	-7867
▁tenais	-7868
ancèrent	-7869
examiner	-7870
observer	-7871
▁appelée	-7872
▁assurer	-7873
▁cherche	-7874
▁colonne	-7875
▁contenu	-7876
▁devions	-7877
▁feuille	-7878
▁frappée	-7879
▁liqueur	-7880
▁méthode	-7881
▁progrès	-7882
▁ressort	-7883
▁trompée	-7884
▁troublé	-7885
▁trouvée	-7886
▁éprouvé	-7887
honorable	-7888
▁Chenille	-7889
▁affirmer	-7890
▁camarade	-7891
▁centrale	-7892
▁charmant	-7893
▁compatri	-7894
▁enchanté	-7895
▁interval	-7896
▁pistolet	-7897
▁prairies	-7898
▁quittait	-7899
▁relevant	-7900
▁réfléchi	-7901
▁résoudre	-7902
▁sanglots	-7903
▁épaisses	-7904
apercevoir	-7905
instrument	-7906
▁constater	-7907
▁entrèrent	-7908
▁incapable	-7909
▁indigènes	-7910
▁manomètre	-7911
▁septembre	-7912
▁sympathie	-7913
▁voisinage	-7914
▁apparition	-7915
▁détonation	-7916
▁naturelles	-7917
▁produisait	-7918
▁appartement	-7919
▁constamment	-7920
▁contreforts	-7921
▁mystérieuse	-7922
▁considérables	-7923
▁principalement	-7924
,'	-7925
Ne	-7926
Où	-7927
xt	-7928
▁9	-7929
loc	-7930
ney	-7931
oro	-7932
rou	-7933
ste	-7934
▁25	-7935
▁Gu	-7936
▁aj	-7937
▁sl	-7938
abbé	-7939
aris	-7940
asin	-7941
etta	-7942
ider	-7943
irme	-7944
oing	-7945
quin	-7946
▁Hum	-7947
▁arg	-7948
▁bus	-7949
▁enl	-7950
▁fes	-7951
▁lav	-7952
▁lay	-7953
▁loy	-7954
▁new	-7955
▁sab	-7956
▁wom	-7957
Alice	-7958
airer	-7959
aises	-7960
arque	-7961
elois	-7962
enfer	-7963
ernes	-7964
rophe	-7965
tores	-7966
▁Sous	-7967
▁ange	-7968
▁café	-7969
▁clos	-7970
▁joué	-7971
▁lady	-7972
▁lant	-7973
▁pend	-7974
▁pria	-7975
▁seen	-7976
▁sond	-7977
▁vest	-7978
aisant	-7979
ancien	-7980
arrive	-7981
atives	-7982
ouette	-7983
reinte	-7984
rétion	-7985
▁Quels	-7986
▁Soyez	-7987
▁aider	-7988
▁corne	-7989
▁courb	-7990
▁cramp	-7991
▁crête	-7992
▁exige	-7993
▁heard	-7994
▁hiver	-7995
▁insol	-7996
▁leçon	-7997
▁naiss	-7998
▁révér	-7999
▁somet	-8000
▁still	-8001
▁vertu	-8002
▁volat	-8003
▁Éliza	-8004
▁ébran	-8005
abbesse	-8006
assurer	-8007
immense	-8008
issable	-8009
olement	-8010
éloigna	-8011
▁Andrew	-8012
▁Croyez	-8013
▁acquis	-8014
▁angois	-8015
▁choisi	-8016
▁cigare	-8017
▁cloche	-8018
▁criait	-8019
▁dépour	-8020
▁dévoré	-8021
▁froids	-8022
▁géolog	-8023
▁indust	-8024
▁inform	-8025
▁légend	-8026
▁mandat	-8027
▁offrit	-8028
▁opposé	-8029
▁percer	-8030
▁pouces	-8031
▁quarts	-8032
▁rougit	-8033
▁sonner	-8034
▁suppli	-8035
▁trésor	-8036
▁vision	-8037
▁volume	-8038
▁études	-8039
▁Graüben	-8040
▁Quoique	-8041
▁aveugle	-8042
▁central	-8043
▁chemins	-8044
▁cétacés	-8045
▁devenus	-8046
▁devient	-8047
▁décider	-8048
▁enlevée	-8049
▁faisons	-8050
▁fantôme	-8051
▁flèches	-8052
▁groupes	-8053
▁intense	-8054
▁mesures	-8055
▁mettant	-8056
▁pareils	-8057
▁reculer	-8058
▁retomba	-8059
▁réparer	-8060
▁solenne	-8061
▁steamer	-8062
▁théâtre	-8063
▁veuille	-8064
aventurer	-8065
échappait	-8066
▁bourbier	-8067
▁carrosse	-8068
▁complice	-8069
▁dépouill	-8070
▁examiner	-8071
▁followed	-8072
▁hauteurs	-8073
▁insuffis	-8074
▁journées	-8075
▁jugement	-8076
▁ouvrages	-8077
▁pittores	-8078
▁signifie	-8079
▁victoire	-8080
▁éprouver	-8081
ifications	-8082
▁Rochelois	-8083
▁agitation	-8084
▁brigadier	-8085
▁entendant	-8086
▁gravement	-8087
▁indispens	-8088
▁précieuse	-8089
▁sacrifice	-8090
▁sensation	-8091
▁stupéfait	-8092
▁étrangère	-8093
▁admiration	-8094
▁américaine	-8095
▁appartient	-8096
▁caractères	-8097
▁commission	-8098
▁demanderai	-8099
▁différente	-8100
▁espérances	-8101
▁extérieure	-8102
▁habituelle	-8103
▁jouissance	-8104
▁principale	-8105
▁quittèrent	-8106
▁transporté	-8107
▁combustible	-8108
▁confortable	-8109
▁indiquaient	-8110
▁conséquences	-8111
▁stupéfaction	-8112
IX	-8113
OR	-8114
Éc	-8115
ION	-8116
ado	-8117
aha	-8118
dro	-8119
ery	-8120
ilé	-8121
ype	-8122
âge	-8123
âne	-8124
▁Co	-8125
▁rô	-8126
▁éd	-8127
acht	-8128
aibl	-8129
arie	-8130
arly	-8131
chaî	-8132
nant	-8133
omac	-8134
reek	-8135
Êtes	-8136
éroï	-8137
▁Bah	-8138
▁cim	-8139
▁dol	-8140
▁dus	-8141
▁enj	-8142
▁few	-8143
▁fît	-8144
▁hol	-8145
▁hou	-8146
▁nèg	-8147
▁pis	-8148
▁pup	-8149
▁tas	-8150
▁tes	-8151
▁tue	-8152
▁ust	-8153
▁vil	-8154
Alors	-8155
appuy	-8156
armes	-8157
fract	-8158
iales	-8159
impos	-8160
éleva	-8161
▁Ceux	-8162
▁Même	-8163
▁dira	-8164
▁fert	-8165
▁gave	-8166
▁insc	-8167
▁juré	-8168
▁limp	-8169
▁oubl	-8170
▁palm	-8171
▁sert	-8172
▁tart	-8173
▁tins	-8174
▁torp	-8175
▁trag	-8176
ageant	-8177
aignez	-8178
atoire	-8179
endrez	-8180
excell	-8181
olique	-8182
otique	-8183
reuves	-8184
ussion	-8185
érance	-8186
▁Blanc	-8187
▁Leurs	-8188
▁agité	-8189
▁aient	-8190
▁being	-8191
▁carré	-8192
▁dériv	-8193
▁flamb	-8194
▁forts	-8195
▁félic	-8196
▁irrég	-8197
▁jette	-8198
▁longe	-8199
▁nourr	-8200
▁plaça	-8201
▁poing	-8202
▁prime	-8203
▁pâles	-8204
▁rompu	-8205
▁réput	-8206
▁sache	-8207
▁selle	-8208
▁singe	-8209
▁sécur	-8210
▁tracé	-8211
▁zones	-8212
antaine	-8213
honnête	-8214
inément	-8215
orgueil	-8216
▁Voulez	-8217
▁ardent	-8218
▁arrang	-8219
▁assuré	-8220
▁basses	-8221
▁chaude	-8222
▁comest	-8223
▁couler	-8224
▁fellow	-8225
▁feriez	-8226
▁fracas	-8227
▁habile	-8228
▁insupp	-8229
▁libres	-8230
▁loisir	-8231
▁maudit	-8232
▁mobile	-8233
▁novice	-8234
▁origin	-8235
▁permet	-8236
▁plante	-8237
▁plongé	-8238
▁récifs	-8239
▁territ	-8240
▁vienne	-8241
▁éclats	-8242
Espagnol	-8243
Pourquoi	-8244
aimerais	-8245
ignorais	-8246
onnaient	-8247
érations	-8248
▁Compagn	-8249
▁articul	-8250
▁avirons	-8251
▁chirurg	-8252
▁contact	-8253
▁décidée	-8254
▁déclaré	-8255
▁nacelle	-8256
▁paradis	-8257
▁partons	-8258
▁raconté	-8259
▁saurons	-8260
▁sillonn	-8261
▁tremble	-8262
▁viendra	-8263
▁vivante	-8264
▁établir	-8265
▁Amérique	-8266
▁Richmond	-8267
▁activité	-8268
▁cherchai	-8269
▁colonnes	-8270
▁contient	-8271
▁couvrait	-8272
▁disposer	-8273
▁duchesse	-8274
▁extraord	-8275
▁fixement	-8276
▁généreux	-8277
▁indiffér	-8278
▁jalousie	-8279
▁menaçait	-8280
▁messager	-8281
▁persécut	-8282
▁présente	-8283
▁querelle	-8284
▁repentir	-8285
▁semblant	-8286
▁serpents	-8287
▁sécurité	-8288
▁traverse	-8289
▁triomphe	-8290
▁voyaient	-8291
approchait	-8292
hémisphère	-8293
▁blessures	-8294
▁campement	-8295
▁châtiment	-8296
▁extérieur	-8297
▁intérieur	-8298
▁reconnais	-8299
▁remercier	-8300
▁suivaient	-8301
▁suspendue	-8302
▁trouverez	-8303
▁Impossible	-8304
▁impassible	-8305
▁marchaient	-8306
▁mécanicien	-8307
▁mélancolie	-8308
▁occupation	-8309
▁perfection	-8310
▁profession	-8311
▁protection	-8312
▁ressources	-8313
▁trouverait	-8314
▁abondamment	-8315
▁adroitement	-8316
▁étrangement	-8317
▁descendirent	-8318
▁entreprendre	-8319
▁développement	-8320
▁précipitèrent	-8321
US	-8322
ENT	-8323
Mad	-8324
Qui	-8325
aça	-8326
ear	-8327
idé	-8328
kar	-8329
omn	-8330
und	-8331
vet	-8332
▁12	-8333
▁If	-8334
▁MM	-8335
▁el	-8336
▁ho	-8337
amis	-8338
arve	-8339
cade	-8340
ecte	-8341
iais	-8342
orde	-8343
ouas	-8344
ples	-8345
État	-8346
▁Dak	-8347
▁Dix	-8348
▁Déj	-8349
▁For	-8350
▁Gri	-8351
▁Nor	-8352
▁Tor	-8353
▁Tur	-8354
▁add	-8355
▁dil	-8356
▁get	-8357
▁ira	-8358
▁mam	-8359
▁net	-8360
▁pau	-8361
▁vén	-8362
Adèle	-8363
champ	-8364
eline	-8365
expéd	-8366
ifiée	-8367
ished	-8368
osais	-8369
tream	-8370
ygène	-8371
▁Leah	-8372
▁This	-8373
▁Trém	-8374
▁best	-8375
▁cann	-8376
▁caps	-8377
▁fête	-8378
▁lass	-8379
▁lugu	-8380
▁mode	-8381
▁mépr	-8382
▁sons	-8383
▁subs	-8384
▁took	-8385
ctrice	-8386
douard	-8387
effroi	-8388
iendra	-8389
ilibre	-8390
iliser	-8391
ntains	-8392
ommage	-8393
ompréh	-8394
othèse	-8395
rammes	-8396
vision	-8397
▁Adieu	-8398
▁Chine	-8399
▁accos	-8400
▁actes	-8401
▁basal	-8402
▁brûlé	-8403
▁charp	-8404
▁chats	-8405
▁clerc	-8406
▁cuire	-8407
▁first	-8408
▁grimp	-8409
▁lieue	-8410
▁maréc	-8411
▁ouest	-8412
▁rever	-8413
▁rives	-8414
▁réjou	-8415
▁sueur	-8416
▁three	-8417
▁under	-8418
▁union	-8419
▁vides	-8420
▁égale	-8421
embarqu	-8422
espérer	-8423
matique	-8424
obtenir	-8425
rémités	-8426
ycérine	-8427
▁Parlez	-8428
▁Pilote	-8429
▁Sophie	-8430
▁absorb	-8431
▁appela	-8432
▁apperç	-8433
▁cabane	-8434
▁chaîne	-8435
▁clarté	-8436
▁déguis	-8437
▁encour	-8438
▁fameux	-8439
▁famili	-8440
▁filets	-8441
▁gloire	-8442
▁lisait	-8443
▁marine	-8444
▁menton	-8445
▁muette	-8446
▁pendre	-8447
▁pesait	-8448
▁privil	-8449
▁profil	-8450
▁prouve	-8451
▁prêtre	-8452
▁restés	-8453
▁sauvés	-8454
▁traité	-8455
▁transm	-8456
▁troncs	-8457
▁vendre	-8458
assaient	-8459
aérostat	-8460
enfoncer	-8461
▁Laissez	-8462
▁Proctor	-8463
▁Souvent	-8464
▁annonça	-8465
▁choisir	-8466
▁destiné	-8467
▁donnent	-8468
▁défendu	-8469
▁défense	-8470
▁gouffre	-8471
▁mourant	-8472
▁mélange	-8473
▁pensant	-8474
▁proposa	-8475
▁prêtres	-8476
▁remplir	-8477
▁reparut	-8478
▁riposta	-8479
▁réussir	-8480
▁trompez	-8481
▁voyages	-8482
▁without	-8483
entendait	-8484
faitement	-8485
interromp	-8486
écisément	-8487
épaisseur	-8488
▁Laquelle	-8489
▁adresser	-8490
▁attendez	-8491
▁charpent	-8492
▁constitu	-8493
▁couverts	-8494
▁dimanche	-8495
▁dirigeai	-8496
▁discuter	-8497
▁disposée	-8498
▁dressait	-8499
▁frappait	-8500
▁inconnus	-8501
▁infortun	-8502
▁portions	-8503
▁prononça	-8504
▁rassembl	-8505
▁reposait	-8506
▁retentit	-8507
▁révérend	-8508
▁tempêtes	-8509
▁vivacité	-8510
▁éloignés	-8511
▁Compagnie	-8512
▁Espagnols	-8513
▁parallèle	-8514
▁parcourir	-8515
▁politesse	-8516
▁procureur	-8517
▁prolonger	-8518
▁promenait	-8519
▁propriété	-8520
▁restèrent	-8521
accompagner	-8522
▁Trémouille	-8523
▁brillaient	-8524
▁extrémités	-8525
▁locomotive	-8526
▁meilleures	-8527
▁réputation	-8528
▁tendrement	-8529
heureusement	-8530
▁catastrophe	-8531
▁centimètres	-8532
▁destruction	-8533
▁débarrasser	-8534
▁phosphoresc	-8535
▁possibilité	-8536
▁thermomètre	-8537
▁indifférence	-8538
▁relativement	-8539
▁appartenaient	-8540
▁disparaissait	-8541
▁machinalement	-8542
▁malheureusement	-8543
GE	-8544
No	-8545
TE	-8546
fa	-8547
kj	-8548
Zél	-8549
alé	-8550
ily	-8551
its	-8552
phy	-8553
rol	-8554
ulf	-8555
vel	-8556
yle	-8557
▁Cl	-8558
What	-8559
core	-8560
gles	-8561
ious	-8562
ized	-8563
iète	-8564
lige	-8565
mpen	-8566
ower	-8567
sher	-8568
umul	-8569
urne	-8570
urée	-8571
éché	-8572
▁000	-8573
▁Sel	-8574
▁hos	-8575
▁lap	-8576
▁nor	-8577
▁noy	-8578
▁pre	-8579
▁pul	-8580
▁rum	-8581
▁tog	-8582
▁wat	-8583
Austr	-8584
There	-8585
ached	-8586
appui	-8587
ardez	-8588
arvey	-8589
cepte	-8590
iante	-8591
ignon	-8592
ogues	-8593
onçai	-8594
oppos	-8595
ugais	-8596
égard	-8597
énétr	-8598
▁Soud	-8599
▁curé	-8600
▁dégr	-8601
▁fiév	-8602
▁jagu	-8603
▁noeu	-8604
▁paup	-8605
▁pren	-8606
▁préd	-8607
▁ramp	-8608
▁reli	-8609
▁soon	-8610
▁spec	-8611
▁tiss	-8612
▁vaud	-8613
▁vînt	-8614
▁wall	-8615
▁zèle	-8616
▁écus	-8617
▁égar	-8618
aillit	-8619
aphand	-8620
arrond	-8621
iences	-8622
âteaux	-8623
énorme	-8624
étonne	-8625
▁Abbot	-8626
▁aimez	-8627
▁child	-8628
▁enter	-8629
▁hélas	-8630
▁instr	-8631
▁kilog	-8632
▁libér	-8633
▁meurt	-8634
▁offre	-8635
▁onagg	-8636
▁perle	-8637
▁polyp	-8638
▁ronde	-8639
▁senti	-8640
▁siens	-8641
▁sieur	-8642
▁soupe	-8643
▁taire	-8644
▁timon	-8645
▁yacht	-8646
▁évent	-8647
étendre	-8648
▁Dakkar	-8649
▁Marthe	-8650
▁Miller	-8651
▁abaiss	-8652
▁absolu	-8653
▁allure	-8654
▁arrête	-8655
▁bougie	-8656
▁bruits	-8657
▁cachal	-8658
▁chevel	-8659
▁combin	-8660
▁connus	-8661
▁creusé	-8662
▁délire	-8663
▁engagé	-8664
▁forçat	-8665
▁grille	-8666
▁hypoth	-8667
▁limite	-8668
▁livrer	-8669
▁majest	-8670
▁massac	-8671
▁misère	-8672
▁myself	-8673
▁offert	-8674
▁pagode	-8675
▁prises	-8676
▁procès	-8677
▁ramena	-8678
▁refusa	-8679
▁rendue	-8680
▁requin	-8681
▁routes	-8682
▁ruines	-8683
▁window	-8684
▁épuisé	-8685
approche	-8686
ustement	-8687
▁Grimpen	-8688
▁annoncé	-8689
▁chargée	-8690
▁confess	-8691
▁célèbre	-8692
▁dépassé	-8693
▁enfermé	-8694
▁examiné	-8695
▁gagnait	-8696
▁graisse	-8697
▁houille	-8698
▁matelot	-8699
▁pigeons	-8700
▁plonger	-8701
▁prairie	-8702
▁résolue	-8703
▁squales	-8704
▁triomph	-8705
▁trésors	-8706
▁vivants	-8707
▁voisins	-8708
▁Écoutez	-8709
▁étudier	-8710
explosion	-8711
extérieur	-8712
inquiéter	-8713
éprouvais	-8714
▁ancienne	-8715
▁criminel	-8716
▁descendu	-8717
▁emporter	-8718
▁glissait	-8719
▁gracieux	-8720
▁immenses	-8721
▁indiquer	-8722
▁inutiles	-8723
▁irréguli	-8724
▁marquait	-8725
▁occupait	-8726
▁paisible	-8727
▁parcours	-8728
▁rapporté	-8729
▁scaphand	-8730
▁songeait	-8731
▁sérieuse	-8732
▁together	-8733
habitation	-8734
inquiétude	-8735
▁battement	-8736
▁brillants	-8737
▁cherchais	-8738
▁directeur	-8739
▁entraîner	-8740
▁française	-8741
▁islandais	-8742
▁observait	-8743
▁passeport	-8744
▁possibles	-8745
▁printemps	-8746
▁provoquer	-8747
▁préoccupé	-8748
▁reprenait	-8749
▁ressemble	-8750
▁ressource	-8751
▁seigneurs	-8752
▁sortirent	-8753
▁dirigèrent	-8754
▁décidément	-8755
▁hésitation	-8756
▁laissèrent	-8757
▁lieutenant	-8758
▁sévèrement	-8759
▁territoire	-8760
▁volcanique	-8761
▁Évidemment	-8762
▁détonations	-8763
▁intelligent	-8764
▁intéressant	-8765
▁volcaniques	-8766
▁débarquement	-8767
▁irrésistible	-8768
▁raisonnement	-8769
▁sensiblement	-8770
▁épouvantable	-8771
▁excessivement	-8772
▁silencieusement	-8773
3,	-8774
Ch	-8775
bt	-8776
ART	-8777
Les	-8778
erd	-8779
erg	-8780
▁Ré	-8781
▁Sh	-8782
▁wr	-8783
arme	-8784
aube	-8785
aval	-8786
bord	-8787
iche	-8788
igue	-8789
ride	-8790
rimé	-8791
urns	-8792
veil	-8793
▁Cor	-8794
▁Meu	-8795
▁Reg	-8796
▁Roy	-8797
▁bab	-8798
▁cau	-8799
▁clo	-8800
▁dût	-8801
▁got	-8802
▁imb	-8803
▁raj	-8804
▁sch	-8805
▁tét	-8806
▁vom	-8807
▁yet	-8808
Henri	-8809
assez	-8810
eurre	-8811
mergé	-8812
mouth	-8813
orado	-8814
ourdi	-8815
▁Chat	-8816
▁Déjà	-8817
▁Rest	-8818
▁aust	-8819
▁bron	-8820
▁brut	-8821
▁cité	-8822
▁cong	-8823
▁feet	-8824
▁mâts	-8825
▁neig	-8826
▁pant	-8827
▁pluv	-8828
▁rois	-8829
▁vase	-8830
▁vêtu	-8831
▁went	-8832
▁écar	-8833
▁épis	-8834
aleine	-8835
ançant	-8836
etière	-8837
iaient	-8838
illant	-8839
illées	-8840
office	-8841
rosité	-8842
▁Bible	-8843
▁Juste	-8844
▁Océan	-8845
▁Vingt	-8846
▁absur	-8847
▁allée	-8848
▁armée	-8849
▁coupe	-8850
▁encad	-8851
▁escal	-8852
▁fauve	-8853
▁inhab	-8854
▁inond	-8855
▁jurés	-8856
▁light	-8857
▁odeur	-8858
▁prosp	-8859
▁raies	-8860
▁stood	-8861
▁subli	-8862
▁suppl	-8863
▁voice	-8864
▁volet	-8865
▁étoff	-8866
appelai	-8867
auberge	-8868
avançai	-8869
environ	-8870
ongeait	-8871
onnêtes	-8872
oxygène	-8873
uosités	-8874
écouter	-8875
▁Diable	-8876
▁Harvey	-8877
▁Morton	-8878
▁abattu	-8879
▁amitié	-8880
▁avance	-8881
▁balein	-8882
▁barils	-8883
▁beurre	-8884
▁branch	-8885
▁coeurs	-8886
▁comble	-8887
▁courus	-8888
▁cousin	-8889
▁crayon	-8890
▁dignes	-8891
▁dollar	-8892
▁décida	-8893
▁décriv	-8894
▁envoya	-8895
▁façade	-8896
▁flèche	-8897
▁fourni	-8898
▁goûter	-8899
▁humble	-8900
▁hurrah	-8901
▁impéri	-8902
▁indisc	-8903
▁invari	-8904
▁inévit	-8905
▁lourds	-8906
▁mangea	-8907
▁mettez	-8908
▁naître	-8909
▁négoci	-8910
▁pensif	-8911
▁plaign	-8912
▁pleins	-8913
▁refusé	-8914
▁rompre	-8915
▁réussi	-8916
▁secour	-8917
▁sollic	-8918
▁sourde	-8919
▁teinte	-8920
▁tourné	-8921
▁unique	-8922
▁utiles	-8923
▁within	-8924
▁écoute	-8925
aiguille	-8926
arrêtant	-8927
entendit	-8928
observai	-8929
▁Soudain	-8930
▁aliment	-8931
▁allions	-8932
▁another	-8933
▁arrêtée	-8934
▁briques	-8935
▁enseign	-8936
▁gouttes	-8937
▁habitué	-8938
▁harnais	-8939
▁horizon	-8940
▁insensé	-8941
▁joyeuse	-8942
▁message	-8943
▁miracul	-8944
▁obligés	-8945
▁onaggas	-8946
▁parlons	-8947
▁perpend	-8948
▁reprend	-8949
▁revenus	-8950
▁sincère	-8951
▁souleva	-8952
▁sulfate	-8953
▁surpren	-8954
▁théorie	-8955
▁veiller	-8956
▁éclairé	-8957
Australie	-8958
Henrietta	-8959
accomplir	-8960
affection	-8961
exécution	-8962
écrièrent	-8963
▁annoncer	-8964
▁attaquer	-8965
▁bienfait	-8966
▁disposés	-8967
▁entendez	-8968
▁entendue	-8969
▁espagnol	-8970
▁eussions	-8971
▁facultés	-8972
▁poliment	-8973
▁poussant	-8974
▁prononcé	-8975
▁remarqua	-8976
▁renversé	-8977
▁reprises	-8978
▁retrouve	-8979
▁semblent	-8980
▁suspendu	-8981
▁terrains	-8982
▁touchait	-8983
▁audacieux	-8984
▁clairière	-8985
▁craignait	-8986
▁craignant	-8987
▁cérémonie	-8988
▁différent	-8989
▁douzaines	-8990
▁dépassait	-8991
▁gratitude	-8992
▁incompréh	-8993
▁intensité	-8994
▁montèrent	-8995
▁parlaient	-8996
▁pourpoint	-8997
▁recouvrer	-8998
▁reviendra	-8999
▁résultats	-9000
▁éclairait	-9001
explication	-9002
▁Décidément	-9003
▁apercevait	-9004
▁chirurgien	-9005
▁contempler	-9006
▁intentions	-9007
▁interrompu	-9008
▁mammifères	-9009
▁proprement	-9010
▁renouveler	-9011
▁saisissant	-9012
▁sensations	-9013
▁description	-9014
▁disparition	-9015
▁inférieures	-9016
▁signalement	-9017
▁travaillait	-9018
▁enthousiasme	-9019
▁pressentiments	-9020
▁Malheureusement	-9021
**	-9022
AL	-9023
ME	-9024
Or	-9025
RO	-9026
Th	-9027
Ur	-9028
We	-9029
ey	-9030
xc	-9031
zz	-9032
°3	-9033
ël	-9034
ANS	-9035
ata	-9036
ged	-9037
igr	-9038
ogn	-9039
rav	-9040
sse	-9041
tés	-9042
uif	-9043
ura	-9044
évé	-9045
▁My	-9046
▁bé	-9047
▁sk	-9048
Bien	-9049
Sans	-9050
acqu	-9051
aker	-9052
arct	-9053
avou	-9054
iale	-9055
leur	-9056
ligh	-9057
maha	-9058
oeur	-9059
rich	-9060
ture	-9061
ween	-9062
yons	-9063
âces	-9064
èses	-9065
ômes	-9066
▁Cré	-9067
▁Dum	-9068
▁Pap	-9069
▁Rey	-9070
▁agi	-9071
▁chê	-9072
▁féc	-9073
▁haï	-9074
▁hom	-9075
▁lus	-9076
▁mac	-9077
▁nev	-9078
▁nus	-9079
▁rét	-9080
▁spr	-9081
▁tra	-9082
▁vac	-9083
!...»	-9084
agons	-9085
avert	-9086
ceaux	-9087
flons	-9088
hérit	-9089
liger	-9090
utile	-9091
ègues	-9092
élève	-9093
épave	-9094
▁Bulg	-9095
▁Gasc	-9096
▁Hamb	-9097
▁Pard	-9098
▁Pres	-9099
▁Suiv	-9100
▁With	-9101
▁conj	-9102
▁crev	-9103
▁days	-9104
▁desp	-9105
▁dors	-9106
▁indé	-9107
▁jaun	-9108
▁kang	-9109
▁laug	-9110
▁lâch	-9111
▁pans	-9112
▁pics	-9113
▁rech	-9114
▁réch	-9115
▁sach	-9116
▁trot	-9117
allées	-9118
apport	-9119
asions	-9120
enseur	-9121
entrev	-9122
ermain	-9123
offrit	-9124
ontest	-9125
rayant	-9126
uement	-9127
ueuses	-9128
études	-9129
▁Savez	-9130
▁Tours	-9131
▁along	-9132
▁attel	-9133
▁bouch	-9134
▁clois	-9135
▁creux	-9136
▁direz	-9137
▁dunes	-9138
▁gants	-9139
▁géant	-9140
▁halet	-9141
▁hardi	-9142
▁hérit	-9143
▁inatt	-9144
▁irait	-9145
▁laide	-9146
▁levée	-9147
▁lâche	-9148
▁miens	-9149
▁moind	-9150
▁niais	-9151
▁pause	-9152
▁rangs	-9153
▁reçue	-9154
▁robes	-9155
▁serré	-9156
▁thing	-9157
▁thèse	-9158
▁tirai	-9159
▁vîmes	-9160
essayai	-9161
ination	-9162
jection	-9163
urément	-9164
▁Améric	-9165
▁Contin	-9166
▁Robert	-9167
▁better	-9168
▁carrés	-9169
▁crypte	-9170
▁dirent	-9171
▁dépend	-9172
▁détour	-9173
▁encabl	-9174
▁explic	-9175
▁farine	-9176
▁fautes	-9177
▁fermés	-9178
▁fiacre	-9179
▁forcés	-9180
▁garant	-9181
▁gueule	-9182
▁hardly	-9183
▁jetait	-9184
▁mortel	-9185
▁parent	-9186
▁passés	-9187
▁peines	-9188
▁prends	-9189
▁pénétr	-9190
▁reason	-9191
▁remise	-9192
▁rendra	-9193
▁rentre	-9194
▁retint	-9195
▁transf	-9196
attendis	-9197
estation	-9198
imaginer	-9199
instinct	-9200
istement	-9201
éléphant	-9202
▁Blanche	-9203
▁Indiens	-9204
▁Papouas	-9205
▁absolue	-9206
▁accroch	-9207
▁antarct	-9208
▁briller	-9209
▁brûlait	-9210
▁coffres	-9211
▁demeuré	-9212
▁doutais	-9213
▁déteste	-9214
▁enlever	-9215
▁gravité	-9216
▁indique	-9217
▁infinie	-9218
▁looking	-9219
▁marteau	-9220
▁mesurer	-9221
▁minerai	-9222
▁misères	-9223
▁montrai	-9224
▁musique	-9225
▁perdait	-9226
▁raisins	-9227
▁rattach	-9228
▁refuser	-9229
▁remplie	-9230
▁réservé	-9231
▁serment	-9232
▁soulier	-9233
▁succomb	-9234
▁tortues	-9235
▁troupes	-9236
agenouill	-9237
ouvrirent	-9238
quisiteur	-9239
▁affreuse	-9240
▁anything	-9241
▁avantage	-9242
▁cailloux	-9243
▁convenir	-9244
▁convives	-9245
▁curieuse	-9246
▁dessiner	-9247
▁exécuter	-9248
▁habitant	-9249
▁ignorait	-9250
▁moindres	-9251
▁mouflons	-9252
▁multipli	-9253
▁poignard	-9254
▁province	-9255
▁regrette	-9256
▁richesse	-9257
▁savaient	-9258
▁trouvent	-9259
▁vêtement	-9260
▁étonnant	-9261
▁étroites	-9262
approchant	-9263
écoulèrent	-9264
▁ascension	-9265
▁brillante	-9266
▁cimetière	-9267
▁coquilles	-9268
▁donnèrent	-9269
▁découvrit	-9270
▁désespéré	-9271
▁enveloppe	-9272
▁inférieur	-9273
▁moustache	-9274
▁pourrions	-9275
▁précision	-9276
▁quinzaine	-9277
▁relations	-9278
▁suffisant	-9279
▁tourmente	-9280
▁tremblant	-9281
▁télégraph	-9282
imagination	-9283
▁apparaître	-9284
▁collection	-9285
▁discussion	-9286
▁dissimuler	-9287
▁générosité	-9288
▁maintenait	-9289
▁ordinaires	-9290
▁providence	-9291
▁récompense	-9292
▁signifiait	-9293
▁télégramme	-9294
▁ustensiles	-9295
▁végétation	-9296
intelligence	-9297
▁Précisément	-9298
▁cruellement	-9299
▁désagréable	-9300
▁développait	-9301
▁exclamation	-9302
▁gouvernante	-9303
▁probabilité	-9304
▁sincèrement	-9305
▁commandement	-9306
▁horriblement	-9307
▁impraticable	-9308
▁premièrement	-9309
▁connaissances	-9310
▁insupportable	-9311
HE	-9312
gg	-9313
of	-9314
▁[	-9315
ape	-9316
ara	-9317
bat	-9318
cal	-9319
cir	-9320
enh	-9321
euv	-9322
fic	-9323
mon	-9324
nai	-9325
ugo	-9326
▁19	-9327
▁ET	-9328
▁II	-9329
▁IV	-9330
▁VI	-9331
▁cy	-9332
▁ge	-9333
▁ov	-9334
▁ôt	-9335
Quel	-9336
ably	-9337
alph	-9338
amer	-9339
ancé	-9340
atig	-9341
cans	-9342
guer	-9343
hind	-9344
ican	-9345
inci	-9346
inqu	-9347
uise	-9348
êché	-9349
ûtes	-9350
▁...	-9351
▁Ban	-9352
▁Her	-9353
▁III	-9354
▁Mer	-9355
▁Pol	-9356
▁cis	-9357
▁cop	-9358
▁cot	-9359
▁fal	-9360
▁fel	-9361
▁mic	-9362
▁pyr	-9363
▁wor	-9364
Rouge	-9365
aisez	-9366
auvre	-9367
casse	-9368
ecter	-9369
ensée	-9370
ently	-9371
enues	-9372
▁DANS	-9373
▁Hugo	-9374
▁Pouv	-9375
▁agit	-9376
▁avou	-9377
▁bagu	-9378
▁bref	-9379
▁dort	-9380
▁happ	-9381
▁inac	-9382
▁iron	-9383
▁ivre	-9384
▁mare	-9385
▁mêlé	-9386
▁ours	-9387
▁page	-9388
▁road	-9389
▁stud	-9390
▁take	-9391
▁turn	-9392
▁vifs	-9393
▁égoï	-9394
▁énig	-9395
ageuse	-9396
aillir	-9397
aisait	-9398
amener	-9399
apprit	-9400
appréc	-9401
assant	-9402
attach	-9403
empara	-9404
employ	-9405
enfuit	-9406
erturb	-9407
estime	-9408
oiseau	-9409
orient	-9410
rlande	-9411
ueilli	-9412
uscule	-9413
▁Parsi	-9414
▁Reykj	-9415
▁beaut	-9416
▁bleus	-9417
▁blocs	-9418
▁châle	-9419
▁citer	-9420
▁coins	-9421
▁color	-9422
▁eusse	-9423
▁gaill	-9424
▁goûts	-9425
▁lança	-9426
▁minut	-9427
▁modif	-9428
▁monot	-9429
▁motif	-9430
▁nappe	-9431
▁neveu	-9432
▁nomme	-9433
▁piège	-9434
▁pleuv	-9435
▁privé	-9436
▁purit	-9437
▁péril	-9438
▁signé	-9439
▁soign	-9440
▁souci	-9441
▁sourd	-9442
▁sympt	-9443
▁verts	-9444
▁vieil	-9445
▁white	-9446
Urville	-9447
iendrez	-9448
oujours	-9449
échappa	-9450
▁across	-9451
▁angles	-9452
▁bonnet	-9453
▁brouss	-9454
▁causes	-9455
▁chiens	-9456
▁compté	-9457
▁coquin	-9458
▁coucha	-9459
▁couple	-9460
▁discip	-9461
▁dureté	-9462
▁décour	-9463
▁enclos	-9464
▁enflam	-9465
▁exposé	-9466
▁fauves	-9467
▁forcer	-9468
▁grogne	-9469
▁intact	-9470
▁marcha	-9471
▁montré	-9472
▁murder	-9473
▁nobles	-9474
▁oeuvre	-9475
▁primit	-9476
▁pénins	-9477
▁pêcher	-9478
▁ranger	-9479
▁restes	-9480
▁subite	-9481
▁sépare	-9482
▁tarder	-9483
▁tentac	-9484
▁trains	-9485
▁walked	-9486
apporter	-9487
ographie	-9488
éteignit	-9489
▁actions	-9490
▁ajoutai	-9491
▁appétit	-9492
▁attaque	-9493
▁between	-9494
▁caprice	-9495
▁charité	-9496
▁chaudes	-9497
▁coffret	-9498
▁concert	-9499
▁couchée	-9500
▁distrib	-9501
▁doutait	-9502
▁détours	-9503
▁détruit	-9504
▁endormi	-9505
▁flotter	-9506
▁formant	-9507
▁frisson	-9508
▁funeste	-9509
▁féroces	-9510
▁garçons	-9511
▁impuiss	-9512
▁indiqué	-9513
▁majesté	-9514
▁marines	-9515
▁miséric	-9516
▁moderne	-9517
▁mouillé	-9518
▁nations	-9519
▁occuper	-9520
▁oubliez	-9521
▁ouvrant	-9522
▁parvenu	-9523
▁parvins	-9524
▁paysage	-9525
▁plaines	-9526
▁racines	-9527
▁relevai	-9528
▁restera	-9529
▁sagesse	-9530
▁sanglot	-9531
▁suspend	-9532
▁tableau	-9533
▁tendait	-9534
▁vaincre	-9535
▁volcans	-9536
▁voyager	-9537
▁éclairs	-9538
▁étendit	-9539
▁étendus	-9540
ajouterai	-9541
ressement	-9542
▁Créateur	-9543
▁Hambourg	-9544
▁Pourtant	-9545
▁aliments	-9546
▁approché	-9547
▁contourn	-9548
▁contract	-9549
▁embarras	-9550
▁entourée	-9551
▁glissant	-9552
▁individu	-9553
▁intérêts	-9554
▁lanterne	-9555
▁liquides	-9556
▁lumières	-9557
▁persuadé	-9558
▁pirogues	-9559
▁plaisait	-9560
▁plaisirs	-9561
▁problème	-9562
▁procéder	-9563
▁prouvait	-9564
▁préviens	-9565
▁reproche	-9566
▁timonier	-9567
▁trahison	-9568
▁annonçait	-9569
▁baromètre	-9570
▁cavaliers	-9571
▁chevelure	-9572
▁collègues	-9573
▁devinrent	-9574
▁empreinte	-9575
▁entretien	-9576
▁immobiles	-9577
▁marchands	-9578
▁mauvaises	-9579
▁mâchoires	-9580
▁occasions	-9581
▁orientale	-9582
▁quartiers	-9583
▁reconnaît	-9584
▁religieux	-9585
▁remontant	-9586
▁rendirent	-9587
▁réfléchis	-9588
▁réveiller	-9589
▁something	-9590
▁volatiles	-9591
▁approchait	-9592
▁circulaire	-9593
▁compliment	-9594
▁contenance	-9595
▁cuisinière	-9596
▁dangereuse	-9597
▁descendait	-9598
▁difficiles	-9599
▁déterminer	-9600
▁hypothèses	-9601
▁manoeuvrer	-9602
▁puissantes	-9603
▁satisfaire	-9604
▁satisfaite	-9605
▁sentinelle	-9606
▁traversait	-9607
▁vigoureuse	-9608
▁découvertes	-9609
▁formidables	-9610
▁kilogrammes	-9611
▁ondulations	-9612
▁supérieures	-9613
▁tressaillit	-9614
▁surveillance	-9615
▁admirablement	-9616
1]	-9617
7,	-9618
io	-9619
nn	-9620
Ind	-9621
OUR	-9622
OUT	-9623
aum	-9624
avy	-9625
euf	-9626
str	-9627
uct	-9628
▁22	-9629
▁DU	-9630
▁Do	-9631
▁FO	-9632
▁Ça	-9633
QUEL	-9634
Quoi	-9635
That	-9636
abad	-9637
abes	-9638
ador	-9639
aged	-9640
ails	-9641
arpe	-9642
awik	-9643
bien	-9644
ista	-9645
laud	-9646
oies	-9647
ophe	-9648
rité	-9649
road	-9650
uant	-9651
ugit	-9652
uler	-9653
verb	-9654
èmes	-9655
édie	-9656
érés	-9657
▁App	-9658
▁XXV	-9659
▁asp	-9660
▁blâ	-9661
▁due	-9662
▁fuc	-9663
▁giv	-9664
▁ide	-9665
▁led	-9666
▁rôd	-9667
▁sag	-9668
▁sen	-9669
▁âgé	-9670
Venez	-9671
adère	-9672
allez	-9673
aring	-9674
aurez	-9675
cherd	-9676
eller	-9677
ennui	-9678
errer	-9679
frère	-9680
ibres	-9681
idées	-9682
liqué	-9683
onstr	-9684
oseph	-9685
ridri	-9686
rures	-9687
suite	-9688
verse	-9689
▁Bref	-9690
▁Cour	-9691
▁Gulf	-9692
▁Lynn	-9693
▁Scat	-9694
▁Tank	-9695
▁aisé	-9696
▁amus	-9697
▁bann	-9698
▁bate	-9699
▁both	-9700
▁boug	-9701
▁care	-9702
▁corb	-9703
▁cors	-9704
▁dark	-9705
▁fard	-9706
▁fixa	-9707
▁fixe	-9708
▁gone	-9709
▁help	-9710
▁inop	-9711
▁insp	-9712
▁lion	-9713
▁make	-9714
▁mens	-9715
▁monn	-9716
▁nier	-9717
▁read	-9718
▁sofa	-9719
▁tach	-9720
▁tués	-9721
▁word	-9722
▁zone	-9723
▁zéro	-9724
accrut	-9725
apprêt	-9726
aurons	-9727
emblez	-9728
endons	-9729
ercice	-9730
ettent	-9731
herbes	-9732
ignité	-9733
istres	-9734
liquez	-9735
reuses	-9736
smouth	-9737
urante	-9738
uscrit	-9739
utrice	-9740
▁Autre	-9741
▁Avait	-9742
▁Burns	-9743
▁James	-9744
▁carab	-9745
▁carap	-9746
▁causé	-9747
▁chefs	-9748
▁croix	-9749
▁devin	-9750
▁doubt	-9751
▁démar	-9752
▁facil	-9753
▁fines	-9754
▁fugit	-9755
▁grise	-9756
▁illum	-9757
▁intim	-9758
▁malle	-9759
▁monte	-9760
▁murde	-9761
▁nègre	-9762
▁parts	-9763
▁peint	-9764
▁prost	-9765
▁rajah	-9766
▁range	-9767
▁rival	-9768
▁scand	-9769
▁scrut	-9770
▁tasse	-9771
▁tiges	-9772
▁whist	-9773
Zélande	-9774
aquette	-9775
atteign	-9776
attente	-9777
engagea	-9778
lexible	-9779
offrait	-9780
oublier	-9781
ulaires	-9782
uration	-9783
écriait	-9784
étendue	-9785
▁Fridri	-9786
▁LEQUEL	-9787
▁agitée	-9788
▁atterr	-9789
▁baissa	-9790
▁balbut	-9791
▁brough	-9792
▁canots	-9793
▁confié	-9794
▁coupée	-9795
▁doutes	-9796
▁déchaî	-9797
▁dédain	-9798
▁désiré	-9799
▁dévast	-9800
▁empois	-9801
▁emprun	-9802
▁examen	-9803
▁feutre	-9804
▁flotte	-9805
▁grossi	-9806
▁incert	-9807
▁infâme	-9808
▁irrité	-9809
▁mathém	-9810
▁nappes	-9811
▁passed	-9812
▁peuple	-9813
▁places	-9814
▁procéd	-9815
▁prompt	-9816
▁ramené	-9817
▁rather	-9818
▁rentré	-9819
▁revers	-9820
▁répugn	-9821
▁samedi	-9822
▁sauvée	-9823
▁serrer	-9824
▁songez	-9825
▁statue	-9826
▁tables	-9827
▁toises	-9828
▁verger	-9829
▁verres	-9830
▁vertes	-9831
▁wagons	-9832
▁éclata	-9833
▁écueil	-9834
▁église	-9835
▁élevés	-9836
▁éperon	-9837
ageaient	-9838
aperçois	-9839
arracher	-9840
endormis	-9841
existait	-9842
édiction	-9843
épouvant	-9844
▁anxiété	-9845
▁approuv	-9846
▁baisser	-9847
▁brusque	-9848
▁compart	-9849
▁confirm	-9850
▁confort	-9851
▁croisés	-9852
▁deviend	-9853
▁devriez	-9854
▁dollars	-9855
▁donnera	-9856
▁dormait	-9857
▁dédaign	-9858
▁délivré	-9859
▁dépense	-9860
▁enfance	-9861
▁enflamm	-9862
▁fidèles	-9863
▁laissée	-9864
▁oeuvres	-9865
▁pardieu	-9866
▁procédé	-9867
▁rejoint	-9868
▁reprise	-9869
▁requins	-9870
▁suffire	-9871
▁superst	-9872
▁talents	-9873
▁termina	-9874
▁tombant	-9875
▁velours	-9876
▁voleurs	-9877
▁vouliez	-9878
▁épouser	-9879
▁Attendez	-9880
▁Bulgares	-9881
▁allèrent	-9882
▁assassin	-9883
▁attachés	-9884
▁buissons	-9885
▁chrétien	-9886
▁comprise	-9887
▁conclure	-9888
▁couronne	-9889
▁craignez	-9890
▁destinés	-9891
▁diamètre	-9892
▁débarqué	-9893
▁décharge	-9894
▁dépasser	-9895
▁entrevue	-9896
▁fouiller	-9897
▁fourreau	-9898
▁habillée	-9899
▁impénétr	-9900
▁interloc	-9901
▁interrog	-9902
▁menaçant	-9903
▁oubliant	-9904
▁réveilla	-9905
▁songeant	-9906
▁touchant	-9907
▁trembler	-9908
▁uniforme	-9909
▁violents	-9910
▁vivaient	-9911
▁Reykjawik	-9912
▁Scatcherd	-9913
▁Tankadère	-9914
▁arrivâmes	-9915
▁causaient	-9916
▁certitude	-9917
▁charpente	-9918
▁continued	-9919
▁demandant	-9920
▁detective	-9921
▁entrepris	-9922
▁enveloppé	-9923
▁incontest	-9924
▁manuscrit	-9925
▁naissance	-9926
▁paupières	-9927
▁regretter	-9928
▁rendaient	-9929
▁réfléchit	-9930
▁splendide	-9931
▁Portsmouth	-9932
▁assurément	-9933
▁chancelier	-9934
▁confection	-9935
▁crépuscule	-9936
▁dimensions	-9937
▁insensible	-9938
▁phénomènes	-9939
▁rechercher	-9940
▁rentrèrent	-9941
▁sifflement	-9942
▁traversant	-9943
▁tristement	-9944
▁adversaires	-9945
▁atmosphères	-9946
▁communiquer	-9947
▁couvertures	-9948
▁fabrication	-9949
▁fantastique	-9950
▁recommencer	-9951
▁merveilleuse	-9952
▁permettaient	-9953
▁indispensable	-9954
AU	-9955
Re	-9956
TRE	-9957
Yes	-9958
lan	-9959
lat	-9960
ody	-9961
qué	-9962
uce	-9963
Asie	-9964
arié	-9965
enti	-9966
gner	-9967
phes	-9968
tell	-9969
ting	-9970
ying	-9971
èver	-9972
éner	-9973
érie	-9974
▁Ass	-9975
▁Rev	-9976
▁UNE	-9977
▁Van	-9978
▁adh	-9979
▁dan	-9980
▁exh	-9981
▁fre	-9982
▁har	-9983
▁hau	-9984
▁lip	-9985
▁mul	-9986
▁ran	-9987
▁tum	-9988
Ainsi	-9989
Cette	-9990
achev	-9991
ancée	-9992
arier	-9993
assai	-9994
ected	-9995
encre	-9996
endie	-9997
ertin	-9998
estim	-9999
itime	-10000
ksson	-10001
osait	-10002
ègres	-10003
▁Béth	-10004
▁amén	-10005
▁bank	-10006
▁brod	-10007
▁dépe	-10008
▁gall	-10009
▁half	-10010
▁hame	-10011
▁hont	-10012
▁next	-10013
▁opin	-10014
▁ponc	-10015
▁repl	-10016
▁rock	-10017
▁sabl	-10018
▁show	-10019
▁stre	-10020
▁sugg	-10021
▁tâch	-10022
Quelle	-10023
ancher	-10024
avouer	-10025
ington	-10026
interv	-10027
minist	-10028
otions	-10029
uisant	-10030
écoula	-10031
épanou	-10032
étouff	-10033
▁Baker	-10034
▁Henri	-10035
▁Meung	-10036
▁Mille	-10037
▁adouc	-10038
▁amant	-10039
▁among	-10040
▁antip	-10041
▁autor	-10042
▁began	-10043
▁break	-10044
▁chaux	-10045
▁corre	-10046
▁crâne	-10047
▁excur	-10048
▁flatt	-10049
▁genou	-10050
▁gêner	-10051
▁horse	-10052
▁ident	-10053
▁liens	-10054
▁munis	-10055
▁plats	-10056
▁sabre	-10057
▁serra	-10058
▁sight	-10059
▁stand	-10060
▁tache	-10061
approuv	-10062
enfonça	-10063
idently	-10064
iemment	-10065
rimable	-10066
énormes	-10067
épreuve	-10068
▁Banque	-10069
▁Griffe	-10070
▁anéant	-10071
▁appear	-10072
▁ardeur	-10073
▁assoup	-10074
▁bijoux	-10075
▁calmar	-10076
▁casser	-10077
▁cesser	-10078
▁divine	-10079
▁dépens	-10080
▁emploi	-10081
▁enchaî	-10082
▁excité	-10083
▁façons	-10084
▁formée	-10085
▁friend	-10086
▁gaieté	-10087
▁glance	-10088
▁glissé	-10089
▁grâces	-10090
▁haches	-10091
▁having	-10092
▁hésité	-10093
▁indign	-10094
▁infern	-10095
▁looked	-10096
▁mousse	-10097
▁paille	-10098
▁palpit	-10099
▁poison	-10100
▁pressa	-10101
▁quille	-10102
▁remett	-10103
▁report	-10104
▁result	-10105
▁retenu	-10106
▁souver	-10107
▁suivie	-10108
▁supplé	-10109
encontre	-10110
endormir	-10111
humidité	-10112
occupait	-10113
oureuses	-10114
▁abandon	-10115
▁absorbé	-10116
▁ajouter	-10117
▁asseoir	-10118
▁attaqué	-10119
▁avancer	-10120
▁avancée	-10121
▁brought	-10122
▁caisses	-10123
▁casaque	-10124
▁combatt	-10125
▁concent	-10126
▁coulait	-10127
▁densité	-10128
▁directe	-10129
▁défauts	-10130
▁dépourv	-10131
▁fermait	-10132
▁fournit	-10133
▁indéfin	-10134
▁laissés	-10135
▁lugubre	-10136
▁magasin	-10137
▁mangeai	-10138
▁modeste	-10139
▁nommait	-10140
▁opposée	-10141
▁partait	-10142
▁peindre	-10143
▁pendait	-10144
▁plaques	-10145
▁poumons	-10146
▁prépare	-10147
▁quittai	-10148
▁remonte	-10149
▁réussit	-10150
▁révolte	-10151
▁saillie	-10152
▁scrupul	-10153
▁sentant	-10154
▁servent	-10155
▁sulfure	-10156
▁teintes	-10157
▁tendant	-10158
▁versant	-10159
▁visites	-10160
▁volumes	-10161
▁Édouard	-10162
▁écueils	-10163
Messieurs	-10164
embarquer	-10165
enveloppe	-10166
onférence	-10167
reusement	-10168
événement	-10169
▁Toujours	-10170
▁carcasse	-10171
▁consider	-10172
▁consoler	-10173
▁défiance	-10174
▁espérait	-10175
▁familles	-10176
▁grosseur	-10177
▁installé	-10178
▁jetèrent	-10179
▁levèrent	-10180
▁ouvertes	-10181
▁présents	-10182
▁relevait	-10183
▁renferme	-10184
▁retourne	-10185
▁retrouva	-10186
▁réclamer	-10187
▁solaires	-10188
▁souhaite	-10189
▁souriait	-10190
▁théories	-10191
▁tranchée	-10192
▁traîneau	-10193
expédition	-10194
interroger	-10195
étendaient	-10196
▁anglaises	-10197
▁avantages	-10198
▁bouillonn	-10199
▁consulter	-10200
▁contenter	-10201
▁dessinait	-10202
▁dirigeait	-10203
▁donnerait	-10204
▁gracieuse	-10205
▁introduit	-10206
▁mountains	-10207
▁mécontent	-10208
▁permettez	-10209
▁puissants	-10210
▁rapproché	-10211
▁reproches	-10212
▁viendrait	-10213
▁apparurent	-10214
▁brillantes	-10215
▁différents	-10216
▁discrétion	-10217
▁effrayante	-10218
▁encablures	-10219
▁excursions	-10220
▁hurlements	-10221
▁infiniment	-10222
▁invitation	-10223
▁philosophe	-10224
▁population	-10225
▁praticable	-10226
▁séparation	-10227
▁Fridriksson	-10228
▁comestibles	-10229
▁connaissons	-10230
▁coquillages	-10231
▁poursuivait	-10232
▁redoutables	-10233
▁soulagement	-10234
▁Parfaitement	-10235
▁broussailles	-10236
▁compromettre	-10237
▁naturalistes	-10238
▁plaisanterie	-10239
▁appartiennent	-10240
▁capricieusement	-10241
0'	-10242
2,	-10243
CE	-10244
IE	-10245
OM	-10246
Tu	-10247
Ils	-10248
adé	-10249
aug	-10250
aul	-10251
cie	-10252
dle	-10253
ena	-10254
hyp	-10255
ipp	-10256
oad	-10257
ouï	-10258
▁28	-10259
▁So	-10260
▁ur	-10261
Tout	-10262
Unis	-10263
alle	-10264
amie	-10265
ayer	-10266
bleu	-10267
chet	-10268
dium	-10269
ellé	-10270
empt	-10271
glom	-10272
here	-10273
omne	-10274
oqué	-10275
ouci	-10276
oués	-10277
room	-10278
urez	-10279
yres	-10280
écar	-10281
▁And	-10282
▁Hay	-10283
▁LES	-10284
▁PAS	-10285
▁Vir	-10286
▁XIV	-10287
▁det	-10288
▁dog	-10289
▁dre	-10290
▁gât	-10291
▁nit	-10292
▁tut	-10293
▁tât	-10294
▁vor	-10295
?»--«	-10296
Tenez	-10297
accès	-10298
alesc	-10299
allon	-10300
ereur	-10301
icile	-10302
ilier	-10303
inois	-10304
isses	-10305
journ	-10306
ledge	-10307
obéis	-10308
ompos	-10309
onses	-10310
ories	-10311
plein	-10312
ready	-10313
rouss	-10314
uaire	-10315
uguen	-10316
union	-10317
çante	-10318
échés	-10319
écriv	-10320
élité	-10321
étiez	-10322
îlots	-10323
▁Beau	-10324
▁Bisc	-10325
▁Bord	-10326
▁Cent	-10327
▁Nort	-10328
▁Part	-10329
▁Sing	-10330
▁What	-10331
▁able	-10332
▁ache	-10333
▁cand	-10334
▁corn	-10335
▁dieu	-10336
▁ferv	-10337
▁fiss	-10338
▁flac	-10339
▁fous	-10340
▁give	-10341
▁idea	-10342
▁loge	-10343
▁ombr	-10344
▁pill	-10345
▁poli	-10346
▁rect	-10347
▁roue	-10348
▁side	-10349
▁sott	-10350
▁writ	-10351
▁écum	-10352
▁éval	-10353
accent	-10354
ahabad	-10355
andesc	-10356
atrick	-10357
chauss	-10358
chemin	-10359
encour	-10360
estres	-10361
fortun	-10362
gueill	-10363
najoux	-10364
occupa	-10365
rivois	-10366
veille	-10367
écurie	-10368
▁Celle	-10369
▁Creek	-10370
▁Usher	-10371
▁abrit	-10372
▁affam	-10373
▁bienv	-10374
▁bourg	-10375
▁brand	-10376
▁chêne	-10377
▁comté	-10378
▁coûté	-10379
▁cruel	-10380
▁crust	-10381
▁danse	-10382
▁durer	-10383
▁engag	-10384
▁fruit	-10385
▁fucus	-10386
▁furie	-10387
▁going	-10388
▁gueux	-10389
▁guise	-10390
▁impro	-10391
▁larme	-10392
▁lente	-10393
▁mîmes	-10394
▁plage	-10395
▁rosée	-10396
▁roule	-10397
▁satin	-10398
▁water	-10399
acheter	-10400
apparut	-10401
endance	-10402
essayer	-10403
exemple	-10404
feuille	-10405
issions	-10406
itèrent	-10407
octobre	-10408
ouiller	-10409
énergie	-10410
▁Devant	-10411
▁Dumont	-10412
▁Encore	-10413
▁Indien	-10414
▁Joseph	-10415
▁London	-10416
▁absent	-10417
▁abîmes	-10418
▁attest	-10419
▁battit	-10420
▁bondit	-10421
▁bâtons	-10422
▁cachet	-10423
▁carbon	-10424
▁direct	-10425
▁disons	-10426
▁disque	-10427
▁défend	-10428
▁déposé	-10429
▁effroi	-10430
▁failli	-10431
▁fatale	-10432
▁fausse	-10433
▁garnie	-10434
▁harmon	-10435
▁indice	-10436
▁interm	-10437
▁lianes	-10438
▁maigre	-10439
▁mariée	-10440
▁marqué	-10441
▁membre	-10442
▁museau	-10443
▁neiges	-10444
▁obliqu	-10445
▁palier	-10446
▁perdis	-10447
▁perdit	-10448
▁portai	-10449
▁pâleur	-10450
▁pétrif	-10451
▁recula	-10452
▁remède	-10453
▁revêtu	-10454
▁sodium	-10455
▁songea	-10456
▁sonore	-10457
▁soyons	-10458
▁street	-10459
▁surviv	-10460
▁temple	-10461
▁trahir	-10462
▁tétras	-10463
▁verges	-10464
▁vôtres	-10465
accommod	-10466
archipel	-10467
assement	-10468
inéraire	-10469
ompierre	-10470
pitalité	-10471
uniforme	-10472
▁Béthune	-10473
▁Ensuite	-10474
▁Parfois	-10475
▁Presque	-10476
▁achever	-10477
▁already	-10478
▁aperçus	-10479
▁armoire	-10480
▁bateaux	-10481
▁brisées	-10482
▁calculs	-10483
▁cellule	-10484
▁chaînes	-10485
▁compose	-10486
▁coquins	-10487
▁dignité	-10488
▁dommage	-10489
▁doubler	-10490
▁dresser	-10491
▁délicat	-10492
▁esclave	-10493
▁examina	-10494
▁exploit	-10495
▁exposée	-10496
▁express	-10497
▁figurer	-10498
▁figures	-10499
▁grimace	-10500
▁kangour	-10501
▁lecteur	-10502
▁malades	-10503
▁marques	-10504
▁miracle	-10505
▁monnaie	-10506
▁orgueil	-10507
▁ouragan	-10508
▁parlais	-10509
▁passent	-10510
▁porteur	-10511
▁poussai	-10512
▁proposé	-10513
▁pêcheur	-10514
▁rangées	-10515
▁rentrai	-10516
▁revenez	-10517
▁roulait	-10518
▁sublime	-10519
▁surmont	-10520
▁verrait	-10521
▁vigueur	-10522
▁échouer	-10523
▁écrivit	-10524
▁égoïste	-10525
autrefois	-10526
▁Bordeaux	-10527
▁accommod	-10528
▁avançait	-10529
▁cadavres	-10530
▁carapace	-10531
▁chiffres	-10532
▁desquels	-10533
▁donnerai	-10534
▁déranger	-10535
▁enfermée	-10536
▁familiar	-10537
▁farouche	-10538
▁gaillard	-10539
▁humaines	-10540
▁imaginer	-10541
▁incompar	-10542
▁laissons	-10543
▁murmurer	-10544
▁noirâtre	-10545
▁partager	-10546
▁purement	-10547
▁rappelai	-10548
▁reconnue	-10549
▁réponses	-10550
▁secousse	-10551
▁soulever	-10552
▁souviens	-10553
▁visiteur	-10554
▁éclatant	-10555
expérience	-10556
▁Bernajoux	-10557
▁Frankland	-10558
▁compléter	-10559
▁concevoir	-10560
▁contraste	-10561
▁convalesc	-10562
▁déterminé	-10563
▁finissait	-10564
▁murmurait	-10565
▁mécanique	-10566
▁privilège	-10567
▁prolongea	-10568
▁promenant	-10569
▁rapprocha	-10570
▁reprirent	-10571
▁soumettre	-10572
▁travaillé	-10573
▁épouvanté	-10574
arrestation	-10575
échappaient	-10576
▁catholique	-10577
▁débarrassé	-10578
▁désespérée	-10579
▁granitique	-10580
▁moustaches	-10581
▁prudemment	-10582
▁rapprocher	-10583
▁recueillir	-10584
▁régularité	-10585
▁surnaturel	-10586
▁séparaient	-10587
▁tentacules	-10588
▁trouverons	-10589
▁consolation	-10590
▁indifférent	-10591
▁intervalles	-10592
▁obliquement	-10593
▁reviendrons	-10594
▁répondirent	-10595
▁surprenante	-10596
▁missionnaire	-10597
▁retrouverons	-10598
▁appréhensions	-10599
▁difficilement	-10600
▁rencontrèrent	-10601
▁précipitamment	-10602
▁septentrionale	-10603
▁extraordinaires	-10604
OC	-10605
VE	-10606
hm	-10607
ör	-10608
Hél	-10609
TER	-10610
las	-10611
lim	-10612
mie	-10613
ren	-10614
rus	-10615
umé	-10616
ung	-10617
unk	-10618
ved	-10619
wer	-10620
écr	-10621
▁24	-10622
▁26	-10623
▁aw	-10624
▁bû	-10625
▁fo	-10626
!»--	-10627
ague	-10628
chés	-10629
elet	-10630
fond	-10631
haut	-10632
hose	-10633
illi	-10634
impr	-10635
issi	-10636
itez	-10637
mais	-10638
ohém	-10639
onom	-10640
orff	-10641
phib	-10642
rand	-10643
rime	-10644
rous	-10645
éris	-10646
▁182	-10647
▁Bun	-10648
▁Din	-10649
▁Exc	-10650
▁Pér	-10651
▁boy	-10652
▁châ	-10653
▁jac	-10654
▁maj	-10655
▁sut	-10656
▁tar	-10657
▁vic	-10658
▁zéb	-10659
Voici	-10660
achar	-10661
aussi	-10662
chose	-10663
elons	-10664
envah	-10665
ikoro	-10666
instr	-10667
intri	-10668
obéir	-10669
offre	-10670
onvén	-10671
oured	-10672
oyais	-10673
sives	-10674
tance	-10675
teaux	-10676
tered	-10677
urais	-10678
ustes	-10679
ximum	-10680
élarg	-10681
▁Buns	-10682
▁Près	-10683
▁Road	-10684
▁Seul	-10685
▁Then	-10686
▁adop	-10687
▁aval	-10688
▁barr	-10689
▁baud	-10690
▁bill	-10691
▁duel	-10692
▁exag	-10693
▁flui	-10694
▁foud	-10695
▁intr	-10696
▁keep	-10697
▁lits	-10698
▁meet	-10699
▁muni	-10700
▁nids	-10701
▁note	-10702
▁path	-10703
▁pavé	-10704
▁purs	-10705
▁pâte	-10706
▁raid	-10707
▁remb	-10708
▁silh	-10709
▁stew	-10710
▁stri	-10711
▁told	-10712
▁type	-10713
▁whom	-10714
▁wild	-10715
▁Êtes	-10716
▁élan	-10717
Hélène	-10718
angile	-10719
années	-10720
ardeur	-10721
emploi	-10722
gramme	-10723
iquité	-10724
licité	-10725
llerie	-10726
onnées	-10727
ressed	-10728
unique	-10729
érique	-10730
éteign	-10731
▁Lyons	-10732
▁Ralph	-10733
▁Telle	-10734
▁Terre	-10735
▁Tiens	-10736
▁abîme	-10737
▁accou	-10738
▁aigus	-10739
▁aimée	-10740
▁apais	-10741
▁bride	-10742
▁broad	-10743
▁bâtie	-10744
▁charn	-10745
▁durée	-10746
▁début	-10747
▁décor	-10748
▁défie	-10749
▁délib	-10750
▁effar	-10751
▁enfou	-10752
▁ennuy	-10753
▁flore	-10754
▁héroï	-10755
▁impét	-10756
▁joies	-10757
▁maman	-10758
▁percé	-10759
▁ponce	-10760
▁pouls	-10761
▁power	-10762
▁princ	-10763
▁préal	-10764
▁rampe	-10765
▁revue	-10766
▁saign	-10767
▁saura	-10768
▁taken	-10769
▁trent	-10770
▁vêtus	-10771
▁woman	-10772
▁épave	-10773
Germain	-10774
achever	-10775
emporta	-10776
endante	-10777
ernelle	-10778
itaires	-10779
ivresse	-10780
liction	-10781
occuper	-10782
ruption	-10783
éloigne	-10784
épouser	-10785
▁Colomb	-10786
▁Lequel	-10787
▁Mormon	-10788
▁Nègres	-10789
▁Pardon	-10790
▁Speedy	-10791
▁Suisse	-10792
▁accusé	-10793
▁acheté	-10794
▁alliez	-10795
▁always	-10796
▁avancé	-10797
▁bottes	-10798
▁brisés	-10799
▁bâbord	-10800
▁cannib	-10801
▁congén	-10802
▁danois	-10803
▁déshab	-10804
▁effroy	-10805
▁estime	-10806
▁fibres	-10807
▁formés	-10808
▁huguen	-10809
▁incréd	-10810
▁jusant	-10811
▁manqua	-10812
▁mouton	-10813
▁passes	-10814
▁people	-10815
▁persév	-10816
▁plains	-10817
▁promit	-10818
▁pureté	-10819
▁resser	-10820
▁rompit	-10821
▁réelle	-10822
▁réprim	-10823
▁saisis	-10824
▁scènes	-10825
▁soubre	-10826
▁spécim	-10827
▁sèches	-10828
▁séparé	-10829
▁tentée	-10830
▁toucha	-10831
▁verdoy	-10832
▁écoulé	-10833
▁écouta	-10834
▁écouté	-10835
accoutum	-10836
ançaient	-10837
appuyant	-10838
examinai	-10839
exécuter	-10840
landaise	-10841
ormément	-10842
ulations	-10843
ériorité	-10844
éteindre	-10845
▁anfract	-10846
▁ardente	-10847
▁article	-10848
▁basalte	-10849
▁battant	-10850
▁blessés	-10851
▁boucher	-10852
▁boulets	-10853
▁brasses	-10854
▁cachait	-10855
▁canards	-10856
▁cessait	-10857
▁ciseaux	-10858
▁civilis	-10859
▁collier	-10860
▁conject	-10861
▁connues	-10862
▁contrib	-10863
▁courtis	-10864
▁cruelle	-10865
▁douteux	-10866
▁evening	-10867
▁excitée	-10868
▁fardeau	-10869
▁frappés	-10870
▁graines	-10871
▁hurrahs	-10872
▁innombr	-10873
▁invités	-10874
▁joindre	-10875
▁maximum	-10876
▁miennes	-10877
▁modérée	-10878
▁nerveux	-10879
▁nuances	-10880
▁ordonna	-10881
▁origine	-10882
▁paralys	-10883
▁patient	-10884
▁pelouse	-10885
▁pendule	-10886
▁peuples	-10887
▁pleines	-10888
▁plongea	-10889
▁pointes	-10890
▁profita	-10891
▁prépara	-10892
▁refaire	-10893
▁relevés	-10894
▁retirée	-10895
▁résulta	-10896
▁sauveur	-10897
▁serrure	-10898
▁soulevé	-10899
▁soupira	-10900
▁soupçon	-10901
▁séparés	-10902
▁torches	-10903
▁traîner	-10904
▁traître	-10905
▁tribord	-10906
▁univers	-10907
▁visages	-10908
▁végétal	-10909
▁éclater	-10910
▁épreuve	-10911
Cependant	-10912
onvénient	-10913
quisition	-10914
épouvante	-10915
▁Paquette	-10916
▁Vanikoro	-10917
▁attraper	-10918
▁baissant	-10919
▁barreaux	-10920
▁baudrier	-10921
▁bouquets	-10922
▁cherchez	-10923
▁comptais	-10924
▁concerne	-10925
▁conduits	-10926
▁englouti	-10927
▁entendus	-10928
▁facilité	-10929
▁furieuse	-10930
▁haussant	-10931
▁industri	-10932
▁investig	-10933
▁mensonge	-10934
▁nerveuse	-10935
▁perspect	-10936
▁préparée	-10937
▁retourné	-10938
▁réfugier	-10939
▁réserves	-10940
▁réveillé	-10941
▁sciences	-10942
▁songeais	-10943
▁torrents	-10944
▁trompait	-10945
▁vérifier	-10946
▁éloigner	-10947
apparition	-10948
▁Islandais	-10949
▁appellent	-10950
▁bienveill	-10951
▁cinquième	-10952
▁conseille	-10953
▁constante	-10954
▁contenant	-10955
▁délicieux	-10956
▁effrayant	-10957
▁explosion	-10958
▁fiévreuse	-10959
▁incandesc	-10960
▁inconnues	-10961
▁partirent	-10962
▁programme	-10963
▁reprenant	-10964
▁réveillai	-10965
▁servaient	-10966
▁sincérité	-10967
▁suspendus	-10968
▁symptômes	-10969
▁tendresse	-10970
▁terminait	-10971
▁tombaient	-10972
▁éloignées	-10973
▁équipages	-10974
▁appartenir	-10975
▁demoiselle	-10976
▁devenaient	-10977
▁distinguai	-10978
▁précipités	-10979
▁rapprochés	-10980
▁semblèrent	-10981
▁serviteurs	-10982
▁silhouette	-10983
▁terrestres	-10984
▁timidement	-10985
▁totalement	-10986
▁charpentier	-10987
▁chronomètre	-10988
▁inquiétudes	-10989
▁prolongeait	-10990
▁remontèrent	-10991
▁retentirent	-10992
▁reviendrait	-10993
▁tempérament	-10994
▁cinquantaine	-10995
▁conservation	-10996
▁impénétrable	-10997
▁inexprimable	-10998
▁involontaire	-10999
▁scientifique	-11000
▁circonférence	-11001
▁effectivement	-11002
▁particulières	-11003
▁apparaissaient	-11004
▁responsabilité	-11005
AI	-11006
HI	-11007
On	-11008
Pr	-11009
UX	-11010
Év	-11011
èd	-11012
éz	-11013
▁œ	-11014
SEP	-11015
ada	-11016
alc	-11017
cha	-11018
inn	-11019
rép	-11020
tai	-11021
ven	-11022
éto	-11023
êté	-11024
▁Cé	-11025
▁Ed	-11026
▁Ru	-11027
▁XL	-11028
▁oc	-11029
▁rh	-11030
▁ye	-11031
adée	-11032
ahus	-11033
airs	-11034
ayez	-11035
etés	-11036
ford	-11037
hire	-11038
inox	-11039
lect	-11040
osam	-11041
over	-11042
pied	-11043
rate	-11044
siez	-11045
uité	-11046
ébre	-11047
égal	-11048
êque	-11049
ôles	-11050
ôtel	-11051
▁Aut	-11052
▁CON	-11053
▁Dan	-11054
▁Gib	-11055
▁Man	-11056
▁Pal	-11057
▁Sav	-11058
▁She	-11059
▁box	-11060
▁eas	-11061
▁fas	-11062
▁ger	-11063
▁ice	-11064
▁jud	-11065
▁osé	-11066
▁péc	-11067
▁set	-11068
▁sér	-11069
▁und	-11070
.»--«	-11071
accus	-11072
ainte	-11073
alait	-11074
angaï	-11075
apais	-11076
avril	-11077
herbe	-11078
ileté	-11079
illai	-11080
korff	-11081
lable	-11082
mètre	-11083
ourer	-11084
racey	-11085
ropre	-11086
trait	-11087
ulité	-11088
uries	-11089
uropé	-11090
écile	-11091
équip	-11092
érant	-11093
▁Huit	-11094
▁Jean	-11095
▁Mand	-11096
▁Moor	-11097
▁boud	-11098
▁boue	-11099
▁buff	-11100
▁cale	-11101
▁cass	-11102
▁couv	-11103
▁culp	-11104
▁dead	-11105
▁dise	-11106
▁dite	-11107
▁durs	-11108
▁exil	-11109
▁felt	-11110
▁fich	-11111
▁fleg	-11112
▁glac	-11113
▁gorg	-11114
▁gren	-11115
▁init	-11116
▁laid	-11117
▁lips	-11118
▁mean	-11119
▁musc	-11120
▁mène	-11121
▁orph	-11122
▁paqu	-11123
▁pian	-11124
▁pias	-11125
▁plum	-11126
▁prém	-11127
▁revu	-11128
▁réal	-11129
▁tamb	-11130
▁tron	-11131
▁tuai	-11132
▁vare	-11133
Madame	-11134
Stream	-11135
accabl	-11136
agonie	-11137
ahusac	-11138
appela	-11139
enferm	-11140
idente	-11141
ifiant	-11142
inform	-11143
instru	-11144
oyeurs	-11145
quinze	-11146
riques	-11147
ustice	-11148
▁achet	-11149
▁amonc	-11150
▁audit	-11151
▁bancs	-11152
▁bouts	-11153
▁clous	-11154
▁coupa	-11155
▁couss	-11156
▁crisp	-11157
▁décol	-11158
▁démes	-11159
▁dérob	-11160
▁effic	-11161
▁excès	-11162
▁franc	-11163
▁hâter	-11164
▁impré	-11165
▁indic	-11166
▁japon	-11167
▁juges	-11168
▁labor	-11169
▁latér	-11170
▁mines	-11171
▁month	-11172
▁musée	-11173
▁mêlée	-11174
▁nôtre	-11175
▁pract	-11176
▁pâlit	-11177
▁solid	-11178
▁tenue	-11179
▁tissu	-11180
▁vases	-11181
▁wrong	-11182
▁épées	-11183
▁étage	-11184
▁étend	-11185
Irlande	-11186
admirer	-11187
ajouter	-11188
aliment	-11189
attaque	-11190
attends	-11191
automne	-11192
engager	-11193
enlever	-11194
extrême	-11195
guments	-11196
isation	-11197
onshire	-11198
ouvrant	-11199
raction	-11200
remment	-11201
écoutai	-11202
épaisse	-11203
étudier	-11204
êtement	-11205
▁Bunsby	-11206
▁Coombe	-11207
▁Donnez	-11208
▁Durant	-11209
▁Jusque	-11210
▁Selden	-11211
▁Tracey	-11212
▁abordé	-11213
▁active	-11214
▁animée	-11215
▁armées	-11216
▁bordée	-11217
▁boulet	-11218
▁bronze	-11219
▁cartil	-11220
▁circum	-11221
▁compas	-11222
▁conclu	-11223
▁coraux	-11224
▁couvre	-11225
▁cueill	-11226
▁dressé	-11227
▁débatt	-11228
▁dégrad	-11229
▁dévoué	-11230
▁encomb	-11231
▁espion	-11232
▁expéri	-11233
▁festin	-11234
▁filait	-11235
▁foudre	-11236
▁féroce	-11237
▁gisait	-11238
▁gâteau	-11239
▁géants	-11240
▁horses	-11241
▁imprim	-11242
▁lancée	-11243
▁mourut	-11244
▁nommer	-11245
▁numéro	-11246
▁opérer	-11247
▁pencha	-11248
▁plaies	-11249
▁pleuré	-11250
▁porcel	-11251
▁portés	-11252
▁ralent	-11253
▁recour	-11254
▁rememb	-11255
▁régler	-11256
▁sainte	-11257
▁saviez	-11258
▁seemed	-11259
▁semblé	-11260
▁servis	-11261
▁souffl	-11262
▁sudden	-11263
▁sulfur	-11264
▁tombés	-11265
▁tribun	-11266
▁tropic	-11267
▁vaincu	-11268
▁vainqu	-11269
▁venues	-11270
▁écrasé	-11271
▁épousé	-11272
▁étoile	-11273
adresser	-11274
atigable	-11275
efforçai	-11276
itutrice	-11277
osamonde	-11278
écriture	-11279
éruption	-11280
évanouit	-11281
▁Cahusac	-11282
▁Inutile	-11283
▁Patrick	-11284
▁Quelles	-11285
▁Saville	-11286
▁Shangaï	-11287
▁accordé	-11288
▁acheter	-11289
▁allumée	-11290
▁apporte	-11291
▁apprend	-11292
▁attrist	-11293
▁blesser	-11294
▁chiffre	-11295
▁classes	-11296
▁composé	-11297
▁constat	-11298
▁contrai	-11299
▁couples	-11300
▁creusée	-11301
▁cristal	-11302
▁devrais	-11303
▁dispers	-11304
▁déchiré	-11305
▁déclare	-11306
▁dévorer	-11307
▁dévorés	-11308
▁effleur	-11309
▁fermées	-11310
▁fiancée	-11311
▁foudroy	-11312
▁fromage	-11313
▁imagine	-11314
▁immergé	-11315
▁intrigu	-11316
▁jacamar	-11317
▁marquer	-11318
▁monture	-11319
▁méprise	-11320
▁paquets	-11321
▁perçant	-11322
▁poulpes	-11323
▁poussés	-11324
▁prompte	-11325
▁regagné	-11326
▁remplis	-11327
▁renards	-11328
▁restant	-11329
▁sifflet	-11330
▁sommets	-11331
▁songeai	-11332
▁soumise	-11333
▁spécial	-11334
▁tiroirs	-11335
▁témoins	-11336
▁vallées	-11337
abaissait	-11338
ascension	-11339
assurance	-11340
empreinte	-11341
entraîner	-11342
important	-11343
▁allusion	-11344
▁arrondie	-11345
▁attachée	-11346
▁atteinte	-11347
▁boréales	-11348
▁carreaux	-11349
▁carrière	-11350
▁couchant	-11351
▁couloirs	-11352
▁desseins	-11353
▁deuxième	-11354
▁disaient	-11355
▁dixièmes	-11356
▁délivrer	-11357
▁détacher	-11358
▁effrayer	-11359
▁effrayée	-11360
▁employée	-11361
▁endormie	-11362
▁fabriqué	-11363
▁fraîches	-11364
▁gréement	-11365
▁habituée	-11366
▁illusion	-11367
▁illustre	-11368
▁indienne	-11369
▁indiquée	-11370
▁jouaient	-11371
▁machines	-11372
▁modifier	-11373
▁mystères	-11374
▁nageoire	-11375
▁orgueill	-11376
▁passager	-11377
▁persiste	-11378
▁piastres	-11379
▁posséder	-11380
▁prolongé	-11381
▁rapports	-11382
▁recevait	-11383
▁redevint	-11384
▁reptiles	-11385
▁retirant	-11386
▁returned	-11387
▁tableaux	-11388
▁trompais	-11389
▁troublée	-11390
▁vaudrait	-11391
▁voudriez	-11392
▁vulgaire	-11393
▁végétaux	-11394
▁élégante	-11395
auparavant	-11396
avancèrent	-11397
ographique	-11398
▁appartenu	-11399
▁cachalots	-11400
▁chaudière	-11401
▁crustacés	-11402
▁descendus	-11403
▁donnerais	-11404
▁entraînés	-11405
▁entrevoir	-11406
▁exécution	-11407
▁histoires	-11408
▁hypothèse	-11409
▁lointains	-11410
▁lumineuse	-11411
▁mettaient	-11412
▁minéralog	-11413
▁poursuivi	-11414
▁projetait	-11415
▁préparait	-11416
▁recueilli	-11417
▁réception	-11418
▁répliquai	-11419
▁saluèrent	-11420
▁servirait	-11421
▁soubrette	-11422
▁trentaine	-11423
instruments	-11424
▁Devonshire	-11425
▁accoutumée	-11426
▁admirables	-11427
▁arrivaient	-11428
▁battements	-11429
▁bouleversé	-11430
▁chaussures	-11431
▁croissante	-11432
▁domination	-11433
▁excellents	-11434
▁montraient	-11435
▁préférence	-11436
▁préoccuper	-11437
▁recommença	-11438
▁recouvrait	-11439
▁redoutable	-11440
▁revenaient	-11441
entreprendre	-11442
▁aboutissait	-11443
▁approvision	-11444
▁changements	-11445
▁demeurèrent	-11446
▁destination	-11447
▁disparurent	-11448
▁fournissait	-11449
▁impressions	-11450
▁inopinément	-11451
▁malencontre	-11452
▁miséricorde	-11453
▁permettrait	-11454
▁perspective	-11455
▁quadrupèdes	-11456
▁respectable	-11457
établissement	-11458
▁actuellement	-11459
▁descendaient	-11460
▁empressement	-11461
▁explorateurs	-11462
▁mélancolique	-11463
▁particuliers	-11464
▁spécialement	-11465
▁connaissaient	-11466
▁préoccupation	-11467
▁volontairement	-11468
?'	-11469
AC	-11470
DO	-11471
Es	-11472
GG	-11473
UI	-11474
Wh	-11475
în	-11476
▁ô	-11477
;--	-11478
Why	-11479
ald	-11480
aly	-11481
ané	-11482
aos	-11483
aus	-11484
ggs	-11485
igo	-11486
igu	-11487
lée	-11488
oli	-11489
ora	-11490
orb	-11491
ota	-11492
tah	-11493
uch	-11494
yph	-11495
âts	-11496
ébé	-11497
▁29	-11498
▁OÙ	-11499
▁Va	-11500
▁om	-11501
▁sn	-11502
HILE	-11503
OIDO	-11504
agas	-11505
amus	-11506
ased	-11507
avag	-11508
aven	-11509
cies	-11510
cted	-11511
eded	-11512
enal	-11513
iluv	-11514
inez	-11515
iral	-11516
ited	-11517
ococ	-11518
oust	-11519
ruct	-11520
ugal	-11521
urai	-11522
xton	-11523
érez	-11524
ésus	-11525
▁Ant	-11526
▁DES	-11527
▁Mex	-11528
▁Now	-11529
▁Pet	-11530
▁Str	-11531
▁VII	-11532
▁arc	-11533
▁bed	-11534
▁bur	-11535
▁cic	-11536
▁cyc	-11537
▁eue	-11538
▁idé	-11539
▁ifs	-11540
▁ign	-11541
▁las	-11542
▁let	-11543
▁lux	-11544
▁nag	-11545
▁sex	-11546
▁sim	-11547
▁tuy	-11548
▁vib	-11549
▁vir	-11550
▁zén	-11551
Quand	-11552
angée	-11553
aques	-11554
ayons	-11555
comme	-11556
envol	-11557
ering	-11558
erres	-11559
ficie	-11560
gères	-11561
image	-11562
inées	-11563
iront	-11564
leure	-11565
magne	-11566
nelle	-11567
notes	-11568
ocket	-11569
odeur	-11570
omptu	-11571
puiss	-11572
rides	-11573
ripit	-11574
usses	-11575
uséum	-11576
yptus	-11577
étrie	-11578
▁Bass	-11579
▁Brit	-11580
▁City	-11581
▁FOGG	-11582
▁Foss	-11583
▁Long	-11584
▁Miss	-11585
▁Ruhm	-11586
▁Soit	-11587
▁Thom	-11588
▁Wash	-11589
▁aidé	-11590
▁bamb	-11591
▁doué	-11592
▁déro	-11593
▁each	-11594
▁enqu	-11595
▁esqu	-11596
▁fair	-11597
▁fing	-11598
▁flux	-11599
▁furt	-11600
▁gold	-11601
▁grad	-11602
▁high	-11603
▁impl	-11604
▁marm	-11605
▁mors	-11606
▁myri	-11607
▁noct	-11608
▁pape	-11609
▁past	-11610
▁pint	-11611
▁pose	-11612
▁real	-11613
▁réel	-11614
▁sels	-11615
▁syll	-11616
▁unis	-11617
▁vier	-11618
▁vues	-11619
▁week	-11620
HILEAS	-11621
auteur	-11622
dehors	-11623
effort	-11624
ersion	-11625
itable	-11626
taient	-11627
termin	-11628
uisait	-11629
éleste	-11630
épanch	-11631
étroit	-11632
▁Dinah	-11633
▁MOIDO	-11634
▁Pococ	-11635
▁Young	-11636
▁arros	-11637
▁aspir	-11638
▁ayons	-11639
▁baril	-11640
▁bière	-11641
▁bleue	-11642
▁boule	-11643
▁brisa	-11644
▁brown	-11645
▁cadet	-11646
▁close	-11647
▁comes	-11648
▁coûta	-11649
▁céder	-11650
▁essuy	-11651
▁fîmes	-11652
▁gagne	-11653
▁greff	-11654
▁hydro	-11655
▁hâtai	-11656
▁jugea	-11657
▁jurer	-11658
▁lèvre	-11659
▁moral	-11660
▁mouss	-11661
▁mêler	-11662
▁nuire	-11663
▁occur	-11664
▁paper	-11665
▁peser	-11666
▁peupl	-11667
▁ports	-11668
▁poète	-11669
▁rudes	-11670
▁règle	-11671
▁sauve	-11672
▁since	-11673
▁subir	-11674
▁vagab	-11675
▁verte	-11676
▁volée	-11677
▁échev	-11678
▁école	-11679
abattre	-11680
absence	-11681
aillies	-11682
anthrop	-11683
antième	-11684
emporte	-11685
excuser	-11686
itaient	-11687
ldorado	-11688
oubliai	-11689
▁Céline	-11690
▁Malgré	-11691
▁Muséum	-11692
▁PASSEP	-11693
▁abomin	-11694
▁algues	-11695
▁anneau	-11696
▁answer	-11697
▁arrêta	-11698
▁associ	-11699
▁auront	-11700
▁boréal	-11701
▁cachot	-11702
▁carnet	-11703
▁chassé	-11704
▁clairs	-11705
▁classi	-11706
▁convoi	-11707
▁danser	-11708
▁disiez	-11709
▁dragon	-11710
▁défait	-11711
▁escarp	-11712
▁explos	-11713
▁fesait	-11714
▁fondit	-11715
▁frayer	-11716
▁griffe	-11717
▁heurté	-11718
▁hunter	-11719
▁jurons	-11720
▁livide	-11721
▁minces	-11722
▁montés	-11723
▁mérité	-11724
▁obtint	-11725
▁opport	-11726
▁pantal	-11727
▁perche	-11728
▁pigeon	-11729
▁plaçai	-11730
▁poteau	-11731
▁rabatt	-11732
▁recond	-11733
▁restez	-11734
▁royale	-11735
▁réalis	-11736
▁réveil	-11737
▁showed	-11738
▁sécher	-11739
▁touche	-11740
▁tricot	-11741
▁turned	-11742
▁utilis	-11743
▁zénith	-11744
▁émerve	-11745
allemand	-11746
altation	-11747
ancienne	-11748
calyptus	-11749
cessible	-11750
employer	-11751
issantes	-11752
éprouvai	-11753
▁PHILEAS	-11754
▁accepta	-11755
▁accumul	-11756
▁achevée	-11757
▁allongé	-11758
▁antique	-11759
▁appelez	-11760
▁ardents	-11761
▁attirer	-11762
▁beautés	-11763
▁biscuit	-11764
▁bougies	-11765
▁briquet	-11766
▁brisait	-11767
▁brûlant	-11768
▁chaises	-11769
▁changea	-11770
▁chemise	-11771
▁climats	-11772
▁collège	-11773
▁commerç	-11774
▁commode	-11775
▁emparée	-11776
▁emporte	-11777
▁faisiez	-11778
▁fameuse	-11779
▁fertile	-11780
▁frayeur	-11781
▁gâteaux	-11782
▁haleine	-11783
▁hasards	-11784
▁imaginé	-11785
▁indiqua	-11786
▁interpr	-11787
▁joueurs	-11788
▁légumes	-11789
▁marquée	-11790
▁montant	-11791
▁muscles	-11792
▁méchant	-11793
▁ordonné	-11794
▁ouvrait	-11795
▁parquet	-11796
▁planche	-11797
▁portais	-11798
▁potasse	-11799
▁pourpre	-11800
▁pouviez	-11801
▁pressés	-11802
▁propose	-11803
▁pénétré	-11804
▁ramassa	-11805
▁reached	-11806
▁remplit	-11807
▁renoncé	-11808
▁reptile	-11809
▁réduits	-11810
▁résisté	-11811
▁serrait	-11812
▁sixième	-11813
▁soutenu	-11814
▁spiritu	-11815
▁suffira	-11816
▁torture	-11817
adressait	-11818
apparence	-11819
embrasser	-11820
enfonçait	-11821
intensité	-11822
uellement	-11823
épuisable	-11824
équilibre	-11825
▁Gascogne	-11826
▁MOIDORES	-11827
▁Merripit	-11828
▁accueill	-11829
▁allongée	-11830
▁angoisse	-11831
▁approche	-11832
▁attitude	-11833
▁azotique	-11834
▁chaleurs	-11835
▁chantier	-11836
▁complais	-11837
▁comtesse	-11838
▁constant	-11839
▁décompos	-11840
▁délicate	-11841
▁déplaise	-11842
▁désastre	-11843
▁dévorait	-11844
▁essayant	-11845
▁exprimer	-11846
▁fatigués	-11847
▁features	-11848
▁fidélité	-11849
▁habituel	-11850
▁hasarder	-11851
▁ignorant	-11852
▁mettrait	-11853
▁mouiller	-11854
▁plaintes	-11855
▁plancher	-11856
▁projetée	-11857
▁présenté	-11858
▁publique	-11859
▁ramenait	-11860
▁retomber	-11861
▁revanche	-11862
▁reverrai	-11863
▁rudement	-11864
▁réaction	-11865
▁saillies	-11866
▁solution	-11867
▁steamers	-11868
▁terminer	-11869
▁tonnelle	-11870
▁troubler	-11871
▁troubles	-11872
▁trouvera	-11873
▁variétés	-11874
▁véhicule	-11875
▁écriture	-11876
admiration	-11877
étiquement	-11878
▁Capitaine	-11879
▁Justement	-11880
▁Rosamonde	-11881
▁Ruhmkorff	-11882
▁abondance	-11883
▁atteignit	-11884
▁blancheur	-11885
▁confusion	-11886
▁construit	-11887
▁courageux	-11888
▁coururent	-11889
▁embrasser	-11890
▁emportait	-11891
▁evidently	-11892
▁farouches	-11893
▁franchise	-11894
▁fraîcheur	-11895
▁knowledge	-11896
▁latitudes	-11897
▁marchions	-11898
▁observant	-11899
▁pardonner	-11900
▁passerait	-11901
▁persuadée	-11902
▁philosoph	-11903
▁pluvieuse	-11904
▁portraits	-11905
▁portugais	-11906
▁promettre	-11907
▁préserver	-11908
▁racontait	-11909
▁rappelais	-11910
▁rappelant	-11911
▁resterait	-11912
▁réglement	-11913
▁réservait	-11914
▁réservoir	-11915
▁soulevant	-11916
▁sérieuses	-11917
▁trouvâmes	-11918
▁éducation	-11919
▁éternelle	-11920
attendaient	-11921
▁Américains	-11922
▁bondissait	-11923
▁capricieux	-11924
▁comprenais	-11925
▁construite	-11926
▁continuant	-11927
▁convulsion	-11928
▁couvraient	-11929
▁directions	-11930
▁déplorable	-11931
▁flottaient	-11932
▁humblement	-11933
▁incroyable	-11934
▁kangourous	-11935
▁métallique	-11936
▁ouvertures	-11937
▁partageait	-11938
▁perroquets	-11939
▁poussaient	-11940
▁poussèrent	-11941
▁principaux	-11942
▁protecteur	-11943
▁précipitai	-11944
▁recouverte	-11945
▁rencontrai	-11946
▁retournait	-11947
▁reviendrai	-11948
▁succession	-11949
▁sulfurique	-11950
▁superficie	-11951
▁tapisserie	-11952
approchèrent	-11953
▁Pococurante	-11954
▁blanchâtres	-11955
▁considérais	-11956
▁dangereuses	-11957
▁invraisembl	-11958
▁manifestait	-11959
▁navigateurs	-11960
▁occupations	-11961
▁personnages	-11962
▁personnelle	-11963
▁plantations	-11964
▁rencontrait	-11965
▁ressemblent	-11966
▁résignation	-11967
▁tourbillons	-11968
embranchement	-11969
▁Bassompierre	-11970
▁Mademoiselle	-11971
▁continuaient	-11972
▁explications	-11973
▁inaccessible	-11974
▁intelligente	-11975
▁paisiblement	-11976
▁remarquables	-11977
▁interlocuteur	-11978
▁momentanément	-11979
▁préalablement	-11980
▁ressemblaient	-11981
▁fortifications	-11982
▁habituellement	-11983
▁inévitablement	-11984
De	-11985
My	-11986
OE	-11987
RA	-11988
ma	-11989
so	-11990
▁=	-11991
Ast	-11992
IER	-11993
Moi	-11994
ake	-11995
aye	-11996
cis	-11997
elé	-11998
ief	-11999
lif	-12000
odo	-12001
oly	-12002
oyd	-12003
ulé	-12004
unt	-12005
▁Bu	-12006
▁IN	-12007
▁SE	-12008
▁XI	-12009
Axel	-12010
Dieu	-12011
Rien	-12012
abel	-12013
allé	-12014
arat	-12015
ardi	-12016
bans	-12017
bots	-12018
escl	-12019
ifié	-12020
ilée	-12021
insp	-12022
long	-12023
nier	-12024
orée	-12025
ouée	-12026
voie	-12027
voix	-12028
ylan	-12029
éans	-12030
▁Ami	-12031
▁Ben	-12032
▁Cop	-12033
▁Pat	-12034
▁Rem	-12035
▁cer	-12036
▁cyl	-12037
▁dun	-12038
▁fée	-12039
▁gla	-12040
▁hut	-12041
▁idi	-12042
▁jon	-12043
▁lot	-12044
▁neu	-12045
▁pac	-12046
▁rez	-12047
Enfin	-12048
Votre	-12049
alien	-12050
aphir	-12051
apins	-12052
assey	-12053
cinqu	-12054
enfuy	-12055
envie	-12056
huile	-12057
icité	-12058
igner	-12059
inary	-12060
iness	-12061
inthe	-12062
iquer	-12063
isser	-12064
itent	-12065
light	-12066
ommer	-12067
otait	-12068
rices	-12069
under	-12070
urrah	-12071
épais	-12072
▁Amer	-12073
▁Bert	-12074
▁Kear	-12075
▁Neuf	-12076
▁Norv	-12077
▁Sept	-12078
▁Song	-12079
▁XXXV	-12080
▁anth	-12081
▁bébé	-12082
▁call	-12083
▁cire	-12084
▁club	-12085
▁clôt	-12086
▁coun	-12087
▁créé	-12088
▁fers	-12089
▁fila	-12090
▁grec	-12091
▁hant	-12092
▁hear	-12093
▁hope	-12094
▁jugé	-12095
▁lead	-12096
▁lest	-12097
▁lier	-12098
▁loch	-12099
▁mist	-12100
▁noyé	-12101
▁pect	-12102
▁pins	-12103
▁poud	-12104
▁pull	-12105
▁rêvé	-12106
▁secs	-12107
▁sett	-12108
▁subi	-12109
▁surc	-12110
▁surg	-12111
▁vend	-12112
▁wait	-12113
▁émue	-12114
▁étal	-12115
ARTOUT	-12116
aisons	-12117
allait	-12118
alogue	-12119
amitié	-12120
argile	-12121
arrête	-12122
ceeded	-12123
dedans	-12124
demain	-12125
empire	-12126
ernité	-12127
eurent	-12128
exprim	-12129
hésita	-12130
istant	-12131
naires	-12132
objets	-12133
olence	-12134
opodes	-12135
orique	-12136
ossais	-12137
oublie	-12138
ourdin	-12139
édiluv	-12140
éviter	-12141
▁Bonne	-12142
▁Grand	-12143
▁Nulle	-12144
▁admis	-12145
▁afflu	-12146
▁allem	-12147
▁battu	-12148
▁baume	-12149
▁bienf	-12150
▁blott	-12151
▁brûle	-12152
▁cabri	-12153
▁cacha	-12154
▁cache	-12155
▁coulé	-12156
▁dormi	-12157
▁draps	-12158
▁emmen	-12159
▁fatal	-12160
▁filer	-12161
▁fouet	-12162
▁fumer	-12163
▁grêle	-12164
▁guéri	-12165
▁isolé	-12166
▁joint	-12167
▁livré	-12168
▁louis	-12169
▁marié	-12170
▁meubl	-12171
▁muets	-12172
▁music	-12173
▁mèche	-12174
▁perce	-12175
▁piano	-12176
▁pince	-12177
▁piste	-12178
▁poils	-12179
▁polic	-12180
▁porcs	-12181
▁posée	-12182
▁pouce	-12183
▁quite	-12184
▁revis	-12185
▁ruiné	-12186
▁short	-12187
▁sonné	-12188
▁soude	-12189
▁start	-12190
▁surpl	-12191
▁tirée	-12192
▁track	-12193
▁veill	-12194
▁versa	-12195
▁volup	-12196
acieuse	-12197
agineux	-12198
allumer	-12199
empress	-12200
exposer	-12201
heureux	-12202
olution	-12203
oriques	-12204
oulogne	-12205
échappe	-12206
éraient	-12207
▁Briggs	-12208
▁Doctor	-12209
▁acheva	-12210
▁affair	-12211
▁aidant	-12212
▁aimant	-12213
▁aiment	-12214
▁altern	-12215
▁annonc	-12216
▁assign	-12217
▁attiré	-12218
▁basalt	-12219
▁behind	-12220
▁bleues	-12221
▁bûcher	-12222
▁clercs	-12223
▁climat	-12224
▁cochon	-12225
▁conter	-12226
▁coupés	-12227
▁crédit	-12228
▁cultiv	-12229
▁cylind	-12230
▁divisé	-12231
▁défier	-12232
▁either	-12233
▁entrés	-12234
▁envoie	-12235
▁excuse	-12236
▁fascin	-12237
▁favori	-12238
▁forger	-12239
▁gardez	-12240
▁garrot	-12241
▁glacée	-12242
▁gravir	-12243
▁guider	-12244
▁ignore	-12245
▁incons	-12246
▁indien	-12247
▁inside	-12248
▁jaguar	-12249
▁jaunes	-12250
▁légers	-12251
▁magist	-12252
▁malais	-12253
▁mâture	-12254
▁obstru	-12255
▁panier	-12256
▁pocket	-12257
▁pompes	-12258
▁posant	-12259
▁périll	-12260
▁rampes	-12261
▁recogn	-12262
▁reflux	-12263
▁remark	-12264
▁rendus	-12265
▁restau	-12266
▁roulis	-12267
▁règles	-12268
▁récits	-12269
▁réseau	-12270
▁sables	-12271
▁saluer	-12272
▁saphir	-12273
▁savent	-12274
▁sprang	-12275
▁taking	-12276
▁tigres	-12277
▁trombe	-12278
▁tâcher	-12279
▁valoir	-12280
▁venons	-12281
▁visité	-12282
▁vivais	-12283
▁vivent	-12284
▁épanch	-12285
arrivait	-12286
attacher	-12287
attaquer	-12288
embarras	-12289
incident	-12290
infortun	-12291
risseaux	-12292
▁Brixton	-12293
▁CHAPTER	-12294
▁Kearney	-12295
▁Mormons	-12296
▁Pérouse	-12297
▁Suivant	-12298
▁abattus	-12299
▁affaibl	-12300
▁allonge	-12301
▁apporta	-12302
▁assaill	-12303
▁bouquet	-12304
▁bruyère	-12305
▁capture	-12306
▁charmes	-12307
▁choisis	-12308
▁comptes	-12309
▁contrad	-12310
▁couchés	-12311
▁coulées	-12312
▁cousine	-12313
▁couvrir	-12314
▁cuisson	-12315
▁diviser	-12316
▁dossier	-12317
▁dégager	-12318
▁emparer	-12319
▁ensevel	-12320
▁ferment	-12321
▁grandir	-12322
▁griffes	-12323
▁guichet	-12324
▁humains	-12325
▁impitoy	-12326
▁indigne	-12327
▁inflamm	-12328
▁joignit	-12329
▁langues	-12330
▁leaving	-12331
▁légende	-12332
▁maudite	-12333
▁meurtre	-12334
▁mystery	-12335
▁négligé	-12336
▁oubliée	-12337
▁partant	-12338
▁passais	-12339
▁paysans	-12340
▁perdues	-12341
▁perplex	-12342
▁polaire	-12343
▁prenais	-12344
▁prenons	-12345
▁preuves	-12346
▁project	-12347
▁promets	-12348
▁raconte	-12349
▁rassuré	-12350
▁relevée	-12351
▁renonce	-12352
▁reproch	-12353
▁robuste	-12354
▁répétai	-12355
▁rêverie	-12356
▁stupeur	-12357
▁trappes	-12358
▁traînée	-12359
▁trouvés	-12360
▁variées	-12361
▁écrasés	-12362
▁éloigne	-12363
▁époques	-12364
▁éteinte	-12365
▁éternel	-12366
▁étrangl	-12367
ascenseur	-12368
cinquième	-12369
indiquait	-12370
éducation	-12371
▁Biscarat	-12372
▁ambition	-12373
▁arrivera	-12374
▁cervelle	-12375
▁chargées	-12376
▁chemises	-12377
▁décision	-12378
▁déclarer	-12379
▁employés	-12380
▁emportée	-12381
▁entières	-12382
▁envoyait	-12383
▁figurait	-12384
▁fortunes	-12385
▁froideur	-12386
▁inclinés	-12387
▁laissera	-12388
▁lecteurs	-12389
▁logement	-12390
▁lointain	-12391
▁manquent	-12392
▁manquera	-12393
▁matériel	-12394
▁mendiant	-12395
▁mortelle	-12396
▁original	-12397
▁prétendu	-12398
▁puissent	-12399
▁ramasser	-12400
▁rapporta	-12401
▁redevenu	-12402
▁relation	-12403
▁rendrait	-12404
▁rentrait	-12405
▁repartit	-12406
▁resterai	-12407
▁retenait	-12408
▁réchauff	-12409
▁régiment	-12410
▁répandre	-12411
▁solennel	-12412
▁sonnette	-12413
▁souffler	-12414
▁supplice	-12415
▁supposez	-12416
▁séparent	-12417
▁sévérité	-12418
▁tribunal	-12419
▁éclairer	-12420
▁écoutant	-12421
appartient	-12422
atiquement	-12423
ébranlable	-12424
étonnement	-12425
▁Constance	-12426
▁abondante	-12427
▁accoutumé	-12428
▁antédiluv	-12429
▁auditeurs	-12430
▁battaient	-12431
▁boisseaux	-12432
▁captivité	-12433
▁centièmes	-12434
▁charmants	-12435
▁commettre	-12436
▁destinées	-12437
▁débarquer	-12438
▁exercices	-12439
▁glycérine	-12440
▁ingénieux	-12441
▁innocente	-12442
▁instincts	-12443
▁isolement	-12444
▁maladroit	-12445
▁paquebots	-12446
▁perroquet	-12447
▁possédais	-12448
▁prendrait	-12449
▁prononcés	-12450
▁précédent	-12451
▁pénétrait	-12452
▁pénétrant	-12453
▁redescend	-12454
▁rejoignit	-12455
▁remettait	-12456
▁renverser	-12457
▁reprocher	-12458
▁retournée	-12459
▁roulaient	-12460
▁sacrifier	-12461
▁secousses	-12462
▁soupçonne	-12463
▁suffirait	-12464
▁tremblait	-12465
▁énergique	-12466
accroissait	-12467
entouraient	-12468
inquisiteur	-12469
▁Fossoyeurs	-12470
▁Washington	-12471
▁couverture	-12472
▁desquelles	-12473
▁embouchure	-12474
▁emprisonné	-12475
▁enthousias	-12476
▁entraînait	-12477
▁grièvement	-12478
▁ingénieurs	-12479
▁intérieurs	-12480
▁manoeuvres	-12481
▁monstrueux	-12482
▁particular	-12483
▁prodigieux	-12484
▁prononçait	-12485
▁précieuses	-12486
▁précédente	-12487
▁présentant	-12488
▁prétendait	-12489
▁recommanda	-12490
▁rougissant	-12491
▁simplicité	-12492
▁supportait	-12493
▁surveiller	-12494
▁tourbillon	-12495
▁travaillai	-12496
accompagnait	-12497
enthousiasme	-12498
▁accompagner	-12499
▁attachement	-12500
▁attendirent	-12501
▁compatriote	-12502
▁compliments	-12503
▁composaient	-12504
▁demandèrent	-12505
▁déplacement	-12506
▁emprisonnés	-12507
▁excellentes	-12508
▁infatigable	-12509
▁interrompue	-12510
▁monstrueuse	-12511
▁pittoresque	-12512
▁précipitant	-12513
▁redescendre	-12514
▁représenter	-12515
▁surveillait	-12516
▁transformée	-12517
▁transportés	-12518
▁PASSEPARTOUT	-12519
▁communicatif	-12520
▁compatriotes	-12521
▁consommation	-12522
▁nouvellement	-12523
▁portefeuille	-12524
▁représentait	-12525
▁ressemblance	-12526
▁surnaturelle	-12527
▁travailleurs	-12528
▁contemplation	-12529
▁inexplicables	-12530
▁pressentiment	-12531
▁établissement	-12532
▁emprisonnement	-12533
▁continuellement	-12534
▁personnellement	-12535
to	-12536
°1	-12537
——	-12538
▁i	-12539
Des	-12540
INS	-12541
alk	-12542
als	-12543
enr	-12544
fre	-12545
gon	-12546
hod	-12547
imb	-12548
ley	-12549
olé	-12550
ppe	-12551
▁(1	-12552
▁27	-12553
▁Ag	-12554
▁El	-12555
▁Em	-12556
▁Ob	-12557
Alle	-12558
Dans	-12559
Scot	-12560
This	-12561
apes	-12562
arth	-12563
aîtr	-12564
chem	-12565
cope	-12566
deed	-12567
icor	-12568
igny	-12569
illy	-12570
ired	-12571
iées	-12572
leep	-12573
lomb	-12574
most	-12575
oges	-12576
oyée	-12577
roix	-12578
sect	-12579
urés	-12580
yrie	-12581
éger	-12582
émie	-12583
êter	-12584
▁God	-12585
▁Lub	-12586
▁Lux	-12587
▁Ret	-12588
▁Vos	-12589
▁XVI	-12590
▁bac	-12591
▁bah	-12592
▁bav	-12593
▁dat	-12594
▁eye	-12595
▁hid	-12596
▁lie	-12597
▁nue	-12598
▁san	-12599
▁sût	-12600
▁tub	-12601
Ayres	-12602
Hélas	-12603
Omaha	-12604
aimée	-12605
améli	-12606
arned	-12607
ating	-12608
aumes	-12609
elait	-12610
eless	-12611
elets	-12612
eling	-12613
elves	-12614
ercer	-12615
ertes	-12616
inoxe	-12617
irais	-12618
itter	-12619
orges	-12620
ource	-12621
respo	-12622
rette	-12623
reurs	-12624
ébène	-12625
écras	-12626
étonn	-12627
înmes	-12628
▁Bois	-12629
▁Dodo	-12630
▁Four	-12631
▁Gaut	-12632
▁Hier	-12633
▁Juif	-12634
▁Lady	-12635
▁Loyd	-12636
▁Rome	-12637
▁Soci	-12638
▁abbé	-12639
▁alli	-12640
▁bapt	-12641
▁bass	-12642
▁body	-12643
▁boeu	-12644
▁brac	-12645
▁crav	-12646
▁does	-12647
▁draw	-12648
▁fear	-12649
▁fins	-12650
▁flor	-12651
▁fonc	-12652
▁fris	-12653
▁gaie	-12654
▁gêne	-12655
▁hall	-12656
▁herm	-12657
▁lamb	-12658
▁land	-12659
▁lean	-12660
▁lith	-12661
▁mill	-12662
▁odor	-12663
▁perç	-12664
▁plis	-12665
▁pots	-12666
▁raff	-12667
▁spar	-12668
▁tube	-12669
▁user	-12670
▁veng	-12671
▁veul	-12672
▁âgée	-12673
Scotia	-12674
adines	-12675
aillot	-12676
airait	-12677
arpent	-12678
attaqu	-12679
effray	-12680
esseur	-12681
existe	-12682
igence	-12683
inople	-12684
izième	-12685
marins	-12686
offrir	-12687
ologue	-12688
onfort	-12689
ouches	-12690
outres	-12691
overed	-12692
uscade	-12693
utions	-12694
écrier	-12695
éresse	-12696
ôpital	-12697
▁Jésus	-12698
▁Sioux	-12699
▁Times	-12700
▁XVIII	-12701
▁above	-12702
▁ambit	-12703
▁amena	-12704
▁ample	-12705
▁aston	-12706
▁baisa	-12707
▁braqu	-12708
▁broch	-12709
▁brune	-12710
▁bâtir	-12711
▁bénit	-12712
▁combl	-12713
▁cordi	-12714
▁coûte	-12715
▁dieux	-12716
▁divan	-12717
▁débau	-12718
▁délai	-12719
▁ennui	-12720
▁enver	-12721
▁errer	-12722
▁excav	-12723
▁garda	-12724
▁glacé	-12725
▁glass	-12726
▁houle	-12727
▁insur	-12728
▁jambe	-12729
▁lapin	-12730
▁leave	-12731
▁orage	-12732
▁ornés	-12733
▁pelle	-12734
▁péché	-12735
▁raide	-12736
▁rends	-12737
▁roman	-12738
▁royal	-12739
▁semer	-12740
▁shill	-12741
▁smile	-12742
▁soute	-12743
▁squel	-12744
▁strat	-12745
▁style	-12746
▁tarda	-12747
▁tendu	-12748
▁terme	-12749
▁téles	-12750
▁yours	-12751
▁étude	-12752
▁îlots	-12753
aissent	-12754
andises	-12755
attache	-12756
augment	-12757
berland	-12758
embourg	-12759
enquête	-12760
errière	-12761
essions	-12762
estomac	-12763
euillez	-12764
ifiante	-12765
ishment	-12766
issance	-12767
issants	-12768
èlement	-12769
ènerait	-12770
échauff	-12771
▁Ceylan	-12772
▁Copenh	-12773
▁Crespo	-12774
▁Songez	-12775
▁aiguis	-12776
▁amphib	-12777
▁assist	-12778
▁assomb	-12779
▁attrib	-12780
▁aveugl	-12781
▁bandit	-12782
▁barres	-12783
▁battus	-12784
▁braver	-12785
▁calmer	-12786
▁chants	-12787
▁coming	-12788
▁confin	-12789
▁conçue	-12790
▁coupai	-12791
▁diagon	-12792
▁déclin	-12793
▁dégagé	-12794
▁envahi	-12795
▁exprès	-12796
▁fluide	-12797
▁fondre	-12798
▁fourré	-12799
▁fuyait	-12800
▁genres	-12801
▁inanim	-12802
▁infini	-12803
▁insign	-12804
▁isolée	-12805
▁jarres	-12806
▁manche	-12807
▁manner	-12808
▁martyr	-12809
▁modèle	-12810
▁motifs	-12811
▁moules	-12812
▁ménage	-12813
▁ménagé	-12814
▁noeuds	-12815
▁parait	-12816
▁perpét	-12817
▁plaque	-12818
▁posait	-12819
▁potage	-12820
▁poulpe	-12821
▁ressac	-12822
▁reçoit	-12823
▁reçues	-12824
▁rouler	-12825
▁réconc	-12826
▁réunir	-12827
▁saurai	-12828
▁secrét	-12829
▁silent	-12830
▁somptu	-12831
▁sonder	-12832
▁soucie	-12833
▁suivez	-12834
▁surexc	-12835
▁talons	-12836
▁tasses	-12837
▁triang	-12838
▁varech	-12839
▁épaves	-12840
accident	-12841
accorder	-12842
astiques	-12843
douzaine	-12844
endormit	-12845
ensemble	-12846
entraîna	-12847
illement	-12848
incendie	-12849
istaient	-12850
oiselles	-12851
onçaient	-12852
tectives	-12853
▁Islande	-12854
▁Mexique	-12855
▁Northum	-12856
▁Norvège	-12857
▁Pardieu	-12858
▁abattre	-12859
▁absurde	-12860
▁accepté	-12861
▁account	-12862
▁appliqu	-12863
▁auberge	-12864
▁cascade	-12865
▁cauchem	-12866
▁causant	-12867
▁changée	-12868
▁chargea	-12869
▁clocher	-12870
▁conform	-12871
▁confuse	-12872
▁couchai	-12873
▁déserts	-12874
▁détacha	-12875
▁estimer	-12876
▁extrait	-12877
▁faculté	-12878
▁faillit	-12879
▁falaise	-12880
▁fermeté	-12881
▁fermier	-12882
▁flatter	-12883
▁fragile	-12884
▁franche	-12885
▁froides	-12886
▁gardait	-12887
▁garenne	-12888
▁hasarda	-12889
▁huîtres	-12890
▁imprégn	-12891
▁intimes	-12892
▁lourdes	-12893
▁légères	-12894
▁mangent	-12895
▁marchai	-12896
▁mettais	-12897
▁mettent	-12898
▁modifia	-12899
▁ménager	-12900
▁orifice	-12901
▁phrases	-12902
▁placées	-12903
▁plongée	-12904
▁portent	-12905
▁prévoir	-12906
▁quadrum	-12907
▁radieux	-12908
▁rendant	-12909
▁retenue	-12910
▁serrées	-12911
▁servant	-12912
▁signala	-12913
▁stewart	-12914
▁stupide	-12915
▁surprit	-12916
▁tombeau	-12917
▁traitée	-12918
▁utilité	-12919
▁vestige	-12920
▁veulent	-12921
▁échauff	-12922
▁éprouva	-12923
▁épuisée	-12924
▁établie	-12925
▁évanoui	-12926
arcations	-12927
attendant	-12928
entretien	-12929
exception	-12930
inclinant	-12931
isolement	-12932
mentières	-12933
▁Boulogne	-12934
▁Constant	-12935
▁Gauthier	-12936
▁Veuillez	-12937
▁allemand	-12938
▁approcha	-12939
▁archipel	-12940
▁baguette	-12941
▁biscuits	-12942
▁caresser	-12943
▁carnaval	-12944
▁chargeai	-12945
▁condamné	-12946
▁courtois	-12947
▁couteaux	-12948
▁devenant	-12949
▁distinct	-12950
▁distrait	-12951
▁délicats	-12952
▁démarche	-12953
▁désertes	-12954
▁emportés	-12955
▁esclaves	-12956
▁essayait	-12957
▁fatalité	-12958
▁franchit	-12959
▁gisaient	-12960
▁glorieux	-12961
▁greffier	-12962
▁grisâtre	-12963
▁habitait	-12964
▁hasardai	-12965
▁hospital	-12966
▁imbécile	-12967
▁improvis	-12968
▁instruit	-12969
▁intermin	-12970
▁joignant	-12971
▁limpides	-12972
▁mangeant	-12973
▁marquise	-12974
▁murderer	-12975
▁murmurai	-12976
▁myriades	-12977
▁méchante	-12978
▁nettoyer	-12979
▁ouvriers	-12980
▁pantalon	-12981
▁pardonné	-12982
▁prennent	-12983
▁prisoner	-12984
▁provoqué	-12985
▁précédés	-12986
▁rapporte	-12987
▁refermer	-12988
▁refermée	-12989
▁regagnai	-12990
▁remontai	-12991
▁rentrant	-12992
▁repasser	-12993
▁resterez	-12994
▁retarder	-12995
▁ridicule	-12996
▁régulier	-12997
▁répandit	-12998
▁réprimer	-12999
▁secouait	-13000
▁secourir	-13001
▁succombé	-13002
▁superbes	-13003
▁terrasse	-13004
▁tournure	-13005
▁voisines	-13006
▁évanouie	-13007
allongeait	-13008
entreprise	-13009
entretenir	-13010
impossible	-13011
▁Autrefois	-13012
▁approches	-13013
▁arrivions	-13014
▁assassins	-13015
▁attentive	-13016
▁baleinier	-13017
▁commander	-13018
▁compromis	-13019
▁conifères	-13020
▁considère	-13021
▁coupables	-13022
▁curieuses	-13023
▁diminuait	-13024
▁dirigeant	-13025
▁distraire	-13026
▁formèrent	-13027
▁grossière	-13028
▁importait	-13029
▁intéressé	-13030
▁mendiante	-13031
▁milliards	-13032
▁objection	-13033
▁parchemin	-13034
▁peintures	-13035
▁pratiquer	-13036
▁profitant	-13037
▁prononcée	-13038
▁provenant	-13039
▁péninsule	-13040
▁quiconque	-13041
▁repousser	-13042
▁retournez	-13043
▁rougeâtre	-13044
▁résidence	-13045
▁sortaient	-13046
▁souffrait	-13047
▁soutenait	-13048
▁trouverai	-13049
▁trouvions	-13050
▁télescope	-13051
▁épouvante	-13052
▁Luxembourg	-13053
▁activement	-13054
▁congénères	-13055
▁contraires	-13056
▁convaincre	-13057
▁convaincue	-13058
▁discipline	-13059
▁découverts	-13060
▁enveloppée	-13061
▁excellence	-13062
▁faiblement	-13063
▁grandement	-13064
▁hollandais	-13065
▁manifester	-13066
▁opérations	-13067
▁parcourait	-13068
▁religieuse	-13069
▁retournons	-13070
▁révélation	-13071
▁soupçonner	-13072
▁souterrain	-13073
▁épouvantés	-13074
apparaissait	-13075
▁arbrisseaux	-13076
▁cherchaient	-13077
▁considérait	-13078
▁embarrassée	-13079
▁entendirent	-13080
▁gémissement	-13081
▁joyeusement	-13082
▁monseigneur	-13083
▁perpendicul	-13084
▁productions	-13085
▁précipitait	-13086
▁quotidienne	-13087
▁rapprochait	-13088
▁recommander	-13089
▁scaphandres	-13090
▁souterrains	-13091
▁subsistance	-13092
▁successives	-13093
▁supposition	-13094
▁transformer	-13095
▁échantillon	-13096
▁compartiment	-13097
▁incomparable	-13098
▁inconvénient	-13099
▁maintenaient	-13100
▁présentaient	-13101
▁recouvraient	-13102
▁souterraines	-13103
▁trouveraient	-13104
▁scientifiques	-13105
▁télégraphique	-13106
▁Constantinople	-13107
▁communications	-13108
▁invariablement	-13109
▁instinctivement	-13110
4,	-13111
5'	-13112
8,	-13113
;»	-13114
;—	-13115
AM	-13116
DE	-13117
IÈ	-13118
OB	-13119
OL	-13120
Se	-13121
ka	-13122
kh	-13123
îm	-13124
ön	-13125
▁Ô	-13126
But	-13127
Hol	-13128
IEN	-13129
RUS	-13130
ago	-13131
ani	-13132
cre	-13133
day	-13134
enl	-13135
jör	-13136
tar	-13137
try	-13138
ufs	-13139
urc	-13140
ymn	-13141
ére	-13142
▁IX	-13143
▁NE	-13144
▁Tr	-13145
▁UN	-13146
▁ol	-13147
▁âp	-13148
?»--	-13149
Anne	-13150
ILLE	-13151
adix	-13152
adop	-13153
aken	-13154
amme	-13155
ases	-13156
avre	-13157
delk	-13158
eman	-13159
enai	-13160
enfl	-13161
ienc	-13162
igné	-13163
ilib	-13164
inam	-13165
ival	-13166
look	-13167
nord	-13168
oine	-13169
otan	-13170
oter	-13171
redi	-13172
roît	-13173
rète	-13174
tête	-13175
umer	-13176
°30'	-13177
écor	-13178
élag	-13179
éron	-13180
îtes	-13181
önig	-13182
▁185	-13183
▁Dou	-13184
▁Dés	-13185
▁Ent	-13186
▁Ier	-13187
▁Mor	-13188
▁Nev	-13189
▁Rép	-13190
▁Sat	-13191
▁Six	-13192
▁Tel	-13193
▁XII	-13194
▁bad	-13195
▁beg	-13196
▁fic	-13197
▁lié	-13198
▁pie	-13199
▁rag	-13200
▁sot	-13201
▁sph	-13202
▁sui	-13203
▁why	-13204
Après	-13205
Hôtel	-13206
RUSOE	-13207
Tiens	-13208
agées	-13209
aibli	-13210
angés	-13211
apore	-13212
arité	-13213
atern	-13214
chait	-13215
elled	-13216
enfin	-13217
enver	-13218
essai	-13219
estph	-13220
extra	-13221
fully	-13222
fèvre	-13223
gypte	-13224
house	-13225
igeon	-13226
inson	-13227
onger	-13228
osier	-13229
outis	-13230
quins	-13231
rante	-13232
ropol	-13233
seyez	-13234
uelle	-13235
umine	-13236
ushed	-13237
érées	-13238
évent	-13239
▁Cher	-13240
▁Chut	-13241
▁Clar	-13242
▁Fern	-13243
▁Fors	-13244
▁From	-13245
▁Gard	-13246
▁VIII	-13247
▁Vigo	-13248
▁XVII	-13249
▁amas	-13250
▁amer	-13251
▁atro	-13252
▁brit	-13253
▁chin	-13254
▁cycl	-13255
▁dust	-13256
▁easy	-13257
▁else	-13258
▁fire	-13259
▁gest	-13260
▁glob	-13261
▁grey	-13262
▁hour	-13263
▁hâta	-13264
▁legs	-13265
▁lien	-13266
▁lost	-13267
▁loué	-13268
▁none	-13269
▁norm	-13270
▁open	-13271
▁phot	-13272
▁pile	-13273
▁prié	-13274
▁puni	-13275
▁rond	-13276
▁ruse	-13277
▁sere	-13278
▁séqu	-13279
▁tang	-13280
▁unif	-13281
▁valu	-13282
▁visa	-13283
▁volt	-13284
▁étre	-13285
▁évap	-13286
Amiens	-13287
Astrol	-13288
Diable	-13289
Indien	-13290
assura	-13291
audace	-13292
auriez	-13293
ballon	-13294
ilités	-13295
incréd	-13296
issons	-13297
itting	-13298
lindre	-13299
onomie	-13300
onsoir	-13301
orales	-13302
ratign	-13303
uaient	-13304
éperon	-13305
▁Cadix	-13306
▁Croix	-13307
▁König	-13308
▁Mieux	-13309
▁Reste	-13310
▁Sitôt	-13311
▁Vérit	-13312
▁achar	-13313
▁agile	-13314
▁aride	-13315
▁avoue	-13316
▁baies	-13317
▁bouff	-13318
▁brève	-13319
▁citoy	-13320
▁conqu	-13321
▁crise	-13322
▁cubes	-13323
▁dauph	-13324
▁divin	-13325
▁douté	-13326
▁expir	-13327
▁fonte	-13328
▁força	-13329
▁gelée	-13330
▁given	-13331
▁guess	-13332
▁hotel	-13333
▁hours	-13334
▁human	-13335
▁humil	-13336
▁image	-13337
▁inouï	-13338
▁intol	-13339
▁jugez	-13340
▁known	-13341
▁marks	-13342
▁mises	-13343
▁nager	-13344
▁pages	-13345
▁parer	-13346
▁parût	-13347
▁posai	-13348
▁poupe	-13349
▁proph	-13350
▁rames	-13351
▁rapet	-13352
▁reven	-13353
▁riait	-13354
▁roula	-13355
▁rumin	-13356
▁répar	-13357
▁semée	-13358
▁sharp	-13359
▁smart	-13360
▁steps	-13361
▁tigre	-13362
▁tirés	-13363
▁toits	-13364
▁veste	-13365
▁words	-13366
▁world	-13367
▁years	-13368
▁égaré	-13369
▁éparp	-13370
▁épars	-13371
Graüben	-13372
affaibl	-13373
agitait	-13374
aissant	-13375
andonne	-13376
anglais	-13377
annique	-13378
atoires	-13379
attered	-13380
delkund	-13381
emmener	-13382
englout	-13383
idences	-13384
install	-13385
lantide	-13386
ligeait	-13387
oubliez	-13388
strasse	-13389
ulaient	-13390
usoires	-13391
Écoutez	-13392
écarter	-13393
élancer	-13394
▁CRUSOE	-13395
▁Carter	-13396
▁Europé	-13397
▁Guinée	-13398
▁Pierre	-13399
▁Saints	-13400
▁Taisez	-13401
▁Torrès	-13402
▁abrité	-13403
▁afflig	-13404
▁aiguës	-13405
▁alerte	-13406
▁amants	-13407
▁become	-13408
▁berger	-13409
▁blonde	-13410
▁bouton	-13411
▁brevet	-13412
▁broder	-13413
▁cabiai	-13414
▁cadran	-13415
▁calmes	-13416
▁cavité	-13417
▁contes	-13418
▁coudre	-13419
▁devine	-13420
▁devise	-13421
▁dirigé	-13422
▁divert	-13423
▁doublé	-13424
▁dressa	-13425
▁durait	-13426
▁during	-13427
▁dépêch	-13428
▁emparé	-13429
▁enjamb	-13430
▁enragé	-13431
▁espagn	-13432
▁expans	-13433
▁future	-13434
▁fâchée	-13435
▁garden	-13436
▁guérir	-13437
▁hanche	-13438
▁imprév	-13439
▁lament	-13440
▁madrép	-13441
▁marées	-13442
▁mother	-13443
▁occupe	-13444
▁océans	-13445
▁opaque	-13446
▁parten	-13447
▁ponctu	-13448
▁portez	-13449
▁poètes	-13450
▁prêtes	-13451
▁rangée	-13452
▁rangés	-13453
▁reflet	-13454
▁rejeta	-13455
▁rivale	-13456
▁réverb	-13457
▁sapins	-13458
▁saurez	-13459
▁sermon	-13460
▁seules	-13461
▁songes	-13462
▁sujets	-13463
▁things	-13464
▁torche	-13465
▁vendit	-13466
▁verrou	-13467
▁verser	-13468
▁vertus	-13469
▁vilain	-13470
▁voûtes	-13471
▁écarté	-13472
▁élever	-13473
▁étoffe	-13474
▁étudié	-13475
adiation	-13476
avouerai	-13477
embrassa	-13478
exercice	-13479
horrible	-13480
héritier	-13481
iculaire	-13482
imaginai	-13483
inquiète	-13484
oubliais	-13485
septième	-13486
écoutais	-13487
étonnait	-13488
▁Arrivés	-13489
▁Forster	-13490
▁Laquais	-13491
▁Patrice	-13492
▁Puisque	-13493
▁Royaume	-13494
▁accueil	-13495
▁amateur	-13496
▁animale	-13497
▁anéanti	-13498
▁aperçue	-13499
▁apperçu	-13500
▁arrangé	-13501
▁assembl	-13502
▁assourd	-13503
▁bambous	-13504
▁baronne	-13505
▁bordure	-13506
▁buisson	-13507
▁bureaux	-13508
▁cabanes	-13509
▁choisit	-13510
▁convoit	-13511
▁courtes	-13512
▁coussin	-13513
▁céleste	-13514
▁cérémon	-13515
▁dominer	-13516
▁dorsale	-13517
▁droites	-13518
▁dunette	-13519
▁délices	-13520
▁engager	-13521
▁engourd	-13522
▁ennemie	-13523
▁envoyés	-13524
▁estomac	-13525
▁excuses	-13526
▁exister	-13527
▁faciles	-13528
▁fâcheux	-13529
▁heurter	-13530
▁lançait	-13531
▁mailles	-13532
▁massifs	-13533
▁nageait	-13534
▁offensé	-13535
▁oppress	-13536
▁parente	-13537
▁partner	-13538
▁passere	-13539
▁perçait	-13540
▁polypes	-13541
▁present	-13542
▁presser	-13543
▁reflets	-13544
▁remonté	-13545
▁retirai	-13546
▁revenue	-13547
▁revêtus	-13548
▁répandu	-13549
▁semblez	-13550
▁signalé	-13551
▁souples	-13552
▁strange	-13553
▁suivais	-13554
▁séjourn	-13555
▁séparée	-13556
▁tardait	-13557
▁tinrent	-13558
▁turning	-13559
▁ébranlé	-13560
▁épargné	-13561
▁évasion	-13562
▁éveillé	-13563
Astrolabe	-13564
Espérance	-13565
agitation	-13566
entourait	-13567
imaginais	-13568
infortuné	-13569
éloignait	-13570
▁Portugal	-13571
▁accorder	-13572
▁appuyant	-13573
▁argument	-13574
▁autorité	-13575
▁bizarres	-13576
▁calculer	-13577
▁cloisons	-13578
▁composée	-13579
▁confuses	-13580
▁conserve	-13581
▁contours	-13582
▁contrari	-13583
▁conviens	-13584
▁création	-13585
▁cylindre	-13586
▁demandes	-13587
▁domicile	-13588
▁désireux	-13589
▁effrayés	-13590
▁entourés	-13591
▁essences	-13592
▁extermin	-13593
▁extrêmes	-13594
▁fixèrent	-13595
▁fuyaient	-13596
▁fâcheuse	-13597
▁gaiement	-13598
▁garantir	-13599
▁grossier	-13600
▁habitués	-13601
▁honnêtes	-13602
▁indigène	-13603
▁inquiète	-13604
▁ironique	-13605
▁jetaient	-13606
▁justesse	-13607
▁maintenu	-13608
▁modernes	-13609
▁méritait	-13610
▁nourrice	-13611
▁occurred	-13612
▁ornement	-13613
▁pleurant	-13614
▁pourront	-13615
▁pourvoir	-13616
▁préparai	-13617
▁racontai	-13618
▁redressa	-13619
▁réaliser	-13620
▁répandue	-13621
▁répondez	-13622
▁réservée	-13623
▁sourires	-13624
▁suivants	-13625
▁suivions	-13626
▁suppléer	-13627
▁terreurs	-13628
▁tiennent	-13629
▁utiliser	-13630
▁veillait	-13631
▁voitures	-13632
▁éteindre	-13633
accommoder	-13634
▁Papouasie	-13635
▁Singapore	-13636
▁accidents	-13637
▁admettant	-13638
▁agréables	-13639
▁arguments	-13640
▁australes	-13641
▁calcaires	-13642
▁carabines	-13643
▁changeait	-13644
▁conscienc	-13645
▁contempor	-13646
▁couvertes	-13647
▁descendue	-13648
▁diligence	-13649
▁dimension	-13650
▁détachait	-13651
▁détourner	-13652
▁embarquer	-13653
▁embuscade	-13654
▁formation	-13655
▁fourneaux	-13656
▁généreuse	-13657
▁honorable	-13658
▁horribles	-13659
▁huguenots	-13660
▁imperturb	-13661
▁indiquant	-13662
▁militaire	-13663
▁mollusque	-13664
▁montaient	-13665
▁multitude	-13666
▁ossements	-13667
▁parcourue	-13668
▁parcourut	-13669
▁pardonnez	-13670
▁plaisante	-13671
▁plongeant	-13672
▁pratiques	-13673
▁princesse	-13674
▁promesses	-13675
▁périmètre	-13676
▁remarquée	-13677
▁remerciai	-13678
▁respirait	-13679
▁ruisseaux	-13680
▁récemment	-13681
▁réconfort	-13682
▁sonnaient	-13683
▁soupirant	-13684
▁soupçonné	-13685
▁souverain	-13686
▁spécimens	-13687
▁suspendre	-13688
▁testament	-13689
▁vaguement	-13690
▁verticale	-13691
▁violentes	-13692
▁émergeait	-13693
▁éprouvait	-13694
▁Bundelkund	-13695
▁Copenhague	-13696
▁abandonnés	-13697
▁affirmatif	-13698
▁affliction	-13699
▁américains	-13700
▁appearance	-13701
▁assistance	-13702
▁attendions	-13703
▁bondissant	-13704
▁champignon	-13705
▁charmantes	-13706
▁comprenant	-13707
▁conduisant	-13708
▁corneilles	-13709
▁courtisans	-13710
▁directrice	-13711
▁délicieuse	-13712
▁détestable	-13713
▁exactitude	-13714
▁fournirent	-13715
▁fréquentes	-13716
▁habilement	-13717
▁inférieurs	-13718
▁interroger	-13719
▁objections	-13720
▁palissadée	-13721
▁patiemment	-13722
▁politiques	-13723
▁procession	-13724
▁prononçant	-13725
▁rapprochée	-13726
▁retirèrent	-13727
▁répugnance	-13728
▁splendides	-13729
▁supplément	-13730
▁éclatèrent	-13731
▁confusément	-13732
▁convulsions	-13733
▁dessinaient	-13734
▁distinguait	-13735
▁géologiques	-13736
▁horizontale	-13737
▁indignation	-13738
▁indépendant	-13739
▁inépuisable	-13740
▁nationalité	-13741
▁proportions	-13742
▁préoccupait	-13743
▁quadrumanes	-13744
▁redescendit	-13745
▁rencontrent	-13746
▁supériorité	-13747
▁transmettre	-13748
▁viendraient	-13749
▁appréhension	-13750
▁conviendrait	-13751
▁démesurément	-13752
▁indéfiniment	-13753
▁insuffisante	-13754
▁intelligents	-13755
▁intéressante	-13756
▁inébranlable	-13757
▁marchandises	-13758
▁mugissements	-13759
▁personnelles	-13760
▁précédemment	-13761
▁représentant	-13762
extraordinaire	-13763
▁cartilagineux	-13764
▁conséquemment	-13765
▁convalescence	-13766
▁conversations	-13767
▁gracieusement	-13768
▁retranchement	-13769
▁réfléchissant	-13770
▁satisfaisante	-13771
▁signification	-13772
▁transparentes	-13773
▁vraisemblable	-13774
accomplissement	-13775
▁anfractuosités	-13776
▁hermétiquement	-13777
.—	-13778
6,	-13779
9,	-13780
If	-13781
bo	-13782
bâ	-13783
ts	-13784
wh	-13785
ws	-13786
yn	-13787
▁,	-13788
***	-13789
:--	-13790
Ant	-13791
Att	-13792
Now	-13793
ORT	-13794
OUS	-13795
Uni	-13796
[1]	-13797
acy	-13798
adi	-13799
bis	-13800
cif	-13801
dis	-13802
dom	-13803
eth	-13804
eum	-13805
fol	-13806
gar	-13807
gth	-13808
hal	-13809
hme	-13810
ism	-13811
itz	-13812
jug	-13813
nex	-13814
osa	-13815
pic	-13816
ror	-13817
sed	-13818
voc	-13819
yth	-13820
ége	-13821
éod	-13822
▁Bé	-13823
▁EN	-13824
▁Ho	-13825
▁sw	-13826
...?	-13827
._--	-13828
anée	-13829
arin	-13830
atin	-13831
ause	-13832
ayed	-13833
bour	-13834
chée	-13835
eler	-13836
enfu	-13837
fant	-13838
harm	-13839
hist	-13840
iler	-13841
ilés	-13842
ined	-13843
itai	-13844
itué	-13845
omét	-13846
osai	-13847
ourm	-13848
plic	-13849
pont	-13850
quit	-13851
rain	-13852
resh	-13853
rust	-13854
ssis	-13855
ulli	-13856
ward	-13857
what	-13858
wich	-13859
élér	-13860
▁Bat	-13861
▁Bou	-13862
▁Eff	-13863
▁Emp	-13864
▁Fér	-13865
▁How	-13866
▁Mac	-13867
▁Pen	-13868
▁Sch	-13869
▁Ser	-13870
▁THE	-13871
▁ask	-13872
▁ate	-13873
▁cit	-13874
▁dec	-13875
▁den	-13876
▁die	-13877
▁geô	-13878
▁gob	-13879
▁max	-13880
▁por	-13881
▁rat	-13882
▁run	-13883
▁tac	-13884
▁top	-13885
▁tyr	-13886
▁van	-13887
Neuve	-13888
abapt	-13889
acter	-13890
arche	-13891
aries	-13892
aïque	-13893
chons	-13894
elées	-13895
ength	-13896
ennuy	-13897
envoy	-13898
etage	-13899
euves	-13900
exact	-13901
idait	-13902
ierra	-13903
ilisé	-13904
ipels	-13905
irrit	-13906
itect	-13907
onckh	-13908
opium	-13909
orang	-13910
ouses	-13911
rient	-13912
seize	-13913
thers	-13914
urées	-13915
ustin	-13916
ébrés	-13917
éries	-13918
ézard	-13919
ûment	-13920
▁Angl	-13921
▁Lake	-13922
▁Mich	-13923
▁Nept	-13924
▁Stam	-13925
▁abat	-13926
▁abré	-13927
▁blas	-13928
▁boit	-13929
▁brum	-13930
▁cils	-13931
▁cing	-13932
▁cite	-13933
▁driv	-13934
▁dupe	-13935
▁duré	-13936
▁dévo	-13937
▁eniv	-13938
▁foot	-13939
▁fore	-13940
▁gate	-13941
▁glad	-13942
▁gréé	-13943
▁held	-13944
▁herb	-13945
▁houl	-13946
▁hung	-13947
▁irez	-13948
▁jard	-13949
▁jets	-13950
▁join	-13951
▁lacs	-13952
▁laps	-13953
▁less	-13954
▁list	-13955
▁liés	-13956
▁morm	-13957
▁nois	-13958
▁piét	-13959
▁pond	-13960
▁pros	-13961
▁rats	-13962
▁séch	-13963
▁till	-13964
▁true	-13965
▁turb	-13966
▁typh	-13967
▁unie	-13968
▁want	-13969
▁âmes	-13970
▁ébah	-13971
▁écol	-13972
Faites	-13973
Pardon	-13974
accept	-13975
algues	-13976
assass	-13977
ataire	-13978
bation	-13979
beille	-13980
ceptez	-13981
effect	-13982
entiel	-13983
faites	-13984
humeur	-13985
ically	-13986
ineuse	-13987
ipèdes	-13988
isthme	-13989
laient	-13990
lature	-13991
leurer	-13992
nèrent	-13993
obscur	-13994
onnent	-13995
outils	-13996
propre	-13997
raltar	-13998
sectes	-13999
uisent	-14000
ulsion	-14001
écouta	-14002
éproch	-14003
étions	-14004
▁Bohém	-14005
▁Brind	-14006
▁Green	-14007
▁Hotel	-14008
▁Lubin	-14009
▁Maure	-14010
▁Point	-14011
▁Sallé	-14012
▁adopt	-14013
▁améli	-14014
▁aplat	-14015
▁assid	-14016
▁belie	-14017
▁brodé	-14018
▁bénéf	-14019
▁chaos	-14020
▁chauv	-14021
▁conçu	-14022
▁disgr	-14023
▁douta	-14024
▁drame	-14025
▁dropp	-14026
▁dures	-14027
▁empty	-14028
▁enfui	-14029
▁engin	-14030
▁fibre	-14031
▁fisse	-14032
▁floor	-14033
▁flétr	-14034
▁gagna	-14035
▁haies	-14036
▁impar	-14037
▁labyr	-14038
▁lance	-14039
▁laver	-14040
▁learn	-14041
▁lisse	-14042
▁liste	-14043
▁louer	-14044
▁manch	-14045
▁masqu	-14046
▁mauss	-14047
▁meurs	-14048
▁mulet	-14049
▁natal	-14050
▁nitro	-14051
▁noeud	-14052
▁nomma	-14053
▁noyer	-14054
▁parie	-14055
▁patte	-14056
▁perru	-14057
▁plier	-14058
▁pompe	-14059
▁posté	-14060
▁pâtur	-14061
▁rails	-14062
▁reins	-14063
▁remor	-14064
▁récif	-14065
▁récré	-14066
▁sacré	-14067
▁saute	-14068
▁sitôt	-14069
▁sleep	-14070
▁sonde	-14071
▁speed	-14072
▁stick	-14073
▁stopp	-14074
▁stret	-14075
▁talus	-14076
▁tamis	-14077
▁trône	-14078
▁verme	-14079
▁vider	-14080
▁whose	-14081
▁éloqu	-14082
accepte	-14083
accroch	-14084
accuser	-14085
achemin	-14086
actions	-14087
artaris	-14088
aujourd	-14089
aurions	-14090
chaient	-14091
chement	-14092
empêcha	-14093
engouff	-14094
espèces	-14095
gourdin	-14096
iendrai	-14097
onniers	-14098
ouvrais	-14099
retagne	-14100
termine	-14101
tronckh	-14102
élevant	-14103
ériques	-14104
étoiles	-14105
étonner	-14106
étroite	-14107
évation	-14108
▁Berthe	-14109
▁Calais	-14110
▁Christ	-14111
▁George	-14112
▁Herald	-14113
▁Louisa	-14114
▁Madère	-14115
▁Nature	-14116
▁Nevada	-14117
▁Pauvre	-14118
▁Pigeon	-14119
▁Pouvez	-14120
▁Sierra	-14121
▁Source	-14122
▁Tantôt	-14123
▁Vestph	-14124
▁abuser	-14125
▁actuel	-14126
▁adieux	-14127
▁affamé	-14128
▁agents	-14129
▁agglom	-14130
▁ancres	-14131
▁assiég	-14132
▁attrap	-14133
▁avenir	-14134
▁averti	-14135
▁bavard	-14136
▁belong	-14137
▁boisée	-14138
▁brilla	-14139
▁brises	-14140
▁brunes	-14141
▁brûlée	-14142
▁calend	-14143
▁called	-14144
▁carrée	-14145
▁chevau	-14146
▁chérie	-14147
▁câbles	-14148
▁devins	-14149
▁dormis	-14150
▁désarm	-14151
▁engins	-14152
▁errant	-14153
▁exquis	-14154
▁extase	-14155
▁feront	-14156
▁finger	-14157
▁fixant	-14158
▁fusion	-14159
▁galets	-14160
▁galère	-14161
▁ground	-14162
▁habite	-14163
▁hameau	-14164
▁houill	-14165
▁humili	-14166
▁justes	-14167
▁labour	-14168
▁lancés	-14169
▁lierre	-14170
▁lithod	-14171
▁littér	-14172
▁livrée	-14173
▁longer	-14174
▁masque	-14175
▁menait	-14176
▁moeurs	-14177
▁mortes	-14178
▁métaux	-14179
▁méthod	-14180
▁nourri	-14181
▁offici	-14182
▁ongles	-14183
▁osseux	-14184
▁ouvrez	-14185
▁paires	-14186
▁parsem	-14187
▁pioche	-14188
▁plates	-14189
▁pousse	-14190
▁prenne	-14191
▁prouvé	-14192
▁prîmes	-14193
▁périls	-14194
▁rafale	-14195
▁rechar	-14196
▁refait	-14197
▁refuse	-14198
▁rejeté	-14199
▁répété	-14200
▁scélér	-14201
▁servie	-14202
▁soufre	-14203
▁souple	-14204
▁tartes	-14205
▁tendue	-14206
▁tonnes	-14207
▁trajet	-14208
▁valise	-14209
▁veillé	-14210
▁verrai	-14211
▁volets	-14212
▁égales	-14213
▁étourd	-14214
affirmer	-14215
appelais	-14216
autorité	-14217
avançant	-14218
chaussée	-14219
entrique	-14220
explique	-14221
honnêtes	-14222
ifiaient	-14223
issables	-14224
obstacle	-14225
oulement	-14226
écoutait	-14227
évanouir	-14228
▁Honneur	-14229
▁Restait	-14230
▁Thunder	-14231
▁admirer	-14232
▁adroite	-14233
▁annonce	-14234
▁anthrop	-14235
▁applaud	-14236
▁asseyez	-14237
▁assurée	-14238
▁avancés	-14239
▁barbare	-14240
▁berceau	-14241
▁blessée	-14242
▁bonsoir	-14243
▁centigr	-14244
▁chassés	-14245
▁châssis	-14246
▁communs	-14247
▁comprim	-14248
▁comptez	-14249
▁concern	-14250
▁corromp	-14251
▁country	-14252
▁culpeux	-14253
▁dessert	-14254
▁desserv	-14255
▁dixième	-14256
▁découvr	-14257
▁dépêche	-14258
▁enterré	-14259
▁envoyée	-14260
▁estimée	-14261
▁exciter	-14262
▁exécuté	-14263
▁fleuves	-14264
▁fouillé	-14265
▁grappes	-14266
▁guerres	-14267
▁habillé	-14268
▁homards	-14269
▁honteux	-14270
▁impassi	-14271
▁injuste	-14272
▁irrévoc	-14273
▁jardins	-14274
▁journey	-14275
▁learned	-14276
▁menaces	-14277
▁million	-14278
▁mousses	-14279
▁notable	-14280
▁occupés	-14281
▁palanqu	-14282
▁partira	-14283
▁passera	-14284
▁plainte	-14285
▁plongés	-14286
▁poindre	-14287
▁positif	-14288
▁poutres	-14289
▁pressée	-14290
▁promena	-14291
▁propice	-14292
▁précept	-14293
▁précédé	-14294
▁préfère	-14295
▁préféré	-14296
▁présume	-14297
▁pupille	-14298
▁recours	-14299
▁regrets	-14300
▁relâche	-14301
▁rempart	-14302
▁rouvrit	-14303
▁réduite	-14304
▁réunies	-14305
▁réunion	-14306
▁sautant	-14307
▁scories	-14308
▁sergent	-14309
▁sitting	-14310
▁situées	-14311
▁solaire	-14312
▁souffla	-14313
▁soulagé	-14314
▁soutien	-14315
▁spectre	-14316
▁supplie	-14317
▁temples	-14318
▁tordait	-14319
▁torpeur	-14320
▁tournai	-14321
▁tournée	-14322
▁tumulte	-14323
▁vertige	-14324
▁voltige	-14325
▁volutes	-14326
▁échéant	-14327
▁écoulée	-14328
▁élevées	-14329
▁élégant	-14330
▁étoffes	-14331
▁étourdi	-14332
Islandais	-14333
abaptiste	-14334
arpentier	-14335
atteignis	-14336
ceptibles	-14337
enfuirent	-14338
entendant	-14339
glycérine	-14340
installer	-14341
instruire	-14342
▁American	-14343
▁Derrière	-14344
▁Stamford	-14345
▁accroché	-14346
▁ajoutait	-14347
▁ajoutant	-14348
▁antipath	-14349
▁arrivent	-14350
▁assister	-14351
▁attaqués	-14352
▁australe	-14353
▁bleuâtre	-14354
▁bordages	-14355
▁bouillir	-14356
▁bouillon	-14357
▁calcaire	-14358
▁caresses	-14359
▁chagrins	-14360
▁chapelle	-14361
▁chapitre	-14362
▁commandé	-14363
▁comptant	-14364
▁convenue	-14365
▁couchait	-14366
▁cristaux	-14367
▁diminuer	-14368
▁dénotait	-14369
▁dépenses	-14370
▁désempar	-14371
▁embarqué	-14372
▁embrassa	-14373
▁enfoncés	-14374
▁enseigne	-14375
▁entrâmes	-14376
▁existent	-14377
▁expliqua	-14378
▁extravag	-14379
▁feraient	-14380
▁fougères	-14381
▁honneurs	-14382
▁hésitant	-14383
▁infailli	-14384
▁infranch	-14385
▁insensée	-14386
▁interdit	-14387
▁laissées	-14388
▁minérale	-14389
▁minéraux	-14390
▁observed	-14391
▁opportun	-14392
▁parvenus	-14393
▁pauvreté	-14394
▁polaires	-14395
▁pressant	-14396
▁protéger	-14397
▁ramenant	-14398
▁rassurer	-14399
▁rebrouss	-14400
▁recouvre	-14401
▁remercia	-14402
▁remirent	-14403
▁repoussa	-14404
▁réfugiés	-14405
▁résigner	-14406
▁révélait	-14407
▁secrètes	-14408
▁seizième	-14409
▁sentiers	-14410
▁soudaine	-14411
▁souvient	-14412
▁suivîmes	-14413
▁surcroît	-14414
▁surplomb	-14415
▁torpille	-14416
▁tragédie	-14417
▁veuillez	-14418
▁victimes	-14419
▁visibles	-14420
▁vitrines	-14421
▁végétale	-14422
▁yourself	-14423
▁échelons	-14424
▁écossais	-14425
▁émotions	-14426
▁éveiller	-14427
ageusement	-14428
éprochable	-14429
▁Gibraltar	-14430
▁accomplie	-14431
▁aiguilles	-14432
▁angoisses	-14433
▁apportait	-14434
▁apprivois	-14435
▁archipels	-14436
▁ardemment	-14437
▁avidement	-14438
▁chrétiens	-14439
▁considéré	-14440
▁continuez	-14441
▁corbeille	-14442
▁distingué	-14443
▁dormaient	-14444
▁déclarait	-14445
▁décrivait	-14446
▁dépendait	-14447
▁examinait	-14448
▁faciliter	-14449
▁fanatique	-14450
▁gouverner	-14451
▁habituels	-14452
▁hurlement	-14453
▁infortuné	-14454
▁intermitt	-14455
▁intrigues	-14456
▁justifier	-14457
▁menaçante	-14458
▁mouchoirs	-14459
▁passionné	-14460
▁plongeurs	-14461
▁practical	-14462
▁promenais	-14463
▁prétendre	-14464
▁repoussée	-14465
▁réguliers	-14466
▁salutaire	-14467
▁sauvetage	-14468
▁sinistres	-14469
▁sonnèrent	-14470
▁souhaiter	-14471
▁supposant	-14472
▁téméraire	-14473
▁vainqueur	-14474
▁abondaient	-14475
▁antérieure	-14476
▁aperçurent	-14477
▁aquatiques	-14478
▁arriverait	-14479
▁atterrages	-14480
▁commandait	-14481
▁consistait	-14482
▁continuons	-14483
▁contrarier	-14484
▁dominaient	-14485
▁entendîmes	-14486
▁grognement	-14487
▁importants	-14488
▁inflexible	-14489
▁infusoires	-14490
▁labyrinthe	-14491
▁manquerait	-14492
▁menaçaient	-14493
▁parvinrent	-14494
▁pintadines	-14495
▁pleinement	-14496
▁poursuivit	-14497
▁promettait	-14498
▁provisoire	-14499
▁rattachait	-14500
▁recueillis	-14501
▁remplirent	-14502
▁rentraient	-14503
▁retrouvait	-14504
▁résolurent	-14505
▁satisfaits	-14506
▁scaphandre	-14507
▁secrétaire	-14508
▁sinuosités	-14509
▁soumission	-14510
▁substances	-14511
▁supérieurs	-14512
▁tentatives	-14513
▁trahissait	-14514
▁transformé	-14515
▁triomphant	-14516
▁vieillards	-14517
▁éclataient	-14518
▁énergiques	-14519
arrondissait	-14520
▁Armentières	-14521
▁Charpentier	-14522
▁accompagnée	-14523
▁antarctique	-14524
▁bienfaiteur	-14525
▁comparaison	-14526
▁conclusions	-14527
▁contenaient	-14528
▁demoiselles	-14529
▁descendîmes	-14530
▁distraction	-14531
▁dévastation	-14532
▁européennes	-14533
▁expériences	-14534
▁flegmatique	-14535
▁indications	-14536
▁responsable	-14537
▁spectateurs	-14538
▁traitements	-14539
▁tressaillir	-14540
▁visiblement	-14541
▁éblouissant	-14542
impossibilité	-14543
▁accompagnait	-14544
▁agréablement	-14545
▁antarctiques	-14546
▁capricieuses	-14547
▁constitution	-14548
▁embarcations	-14549
▁indépendante	-14550
▁passablement	-14551
▁persévérance	-14552
▁présentèrent	-14553
▁rapportèrent	-14554
▁reconnaissez	-14555
▁bienveillance	-14556
▁irréprochable	-14557
▁protestations	-14558
▁précipitaient	-14559
▁raisonnements	-14560
▁représentants	-14561
▁Northumberland	-14562
▁investigations	-14563
▁resplendissait	-14564
▁disparaissaient	-14565
▁prodigieusement	-14566
▁septentrionales	-14567
2'	-14568
5,	-14569
Du	-14570
Sh	-14571
cl	-14572
co	-14573
ji	-14574
sa	-14575
°4	-14576
».	-14577
ÉE	-14578
AIN	-14579
AIS	-14580
Ang	-14581
Car	-14582
Cet	-14583
ILL	-14584
ITÉ	-14585
aig	-14586
[...]
