<pad>	0
<unk>	0
<s>	0
</s>	0
▁d	-0
▁e	-1
▁de	-2
▁l	-3
▁a	-4
os	-5
▁s	-6
▁c	-7
▁p	-8
er	-9
en	-10
ue	-11
ar	-12
▁m	-13
as	-14
an	-15
on	-16
que	-17
es	-18
or	-19
do	-20
ab	-21
▁h	-22
▁que	-23
un	-24
▁t	-25
▁la	-26
▁y	-27
ci	-28
re	-29
st	-30
in	-31
▁en	-32
▁el	-33
▁n	-34
ent	-35
ra	-36
▁un	-37
ía	-38
▁v	-39
▁se	-40
al	-41
ad	-42
▁con	-43
om	-44
▁su	-45
ro	-46
ta	-47
▁al	-48
is	-49
▁f	-50
▁no	-51
▁b	-52
▁es	-53
di	-54
le	-55
am	-56
▁o	-57
ri	-58
▁est	-59
ón	-60
te	-61
aba	-62
▁los	-63
ch	-64
to	-65
▁por	-66
il	-67
▁hab	-68
ente	-69
la	-70
▁me	-71
▁in	-72
ado	-73
▁par	-74
▁del	-75
▁re	-76
▁una	-77
ol	-78
qu	-79
id	-80
res	-81
ero	-82
▁com	-83
▁las	-84
gu	-85
▁E	-86
▁di	-87
▁cu	-88
ti	-89
▁-	-90
lo	-91
▁P	-92
▁des	-93
em	-94
▁A	-95
▁si	-96
▁g	-97
ec	-98
▁S	-99
▁mi	-100
▁ha	-101
▁lo	-102
ier	-103
jo	-104
ás	-105
ran	-106
od	-107
ción	-108
cu	-109
de	-110
go	-111
ir	-112
▁mu	-113
im	-114
▁L	-115
ada	-116
co	-117
se	-118
bre	-119
ien	-120
▁le	-121
ca	-122
tu	-123
cia	-124
▁para	-125
▁C	-126
▁había	-127
▁ex	-128
ando	-129
▁N	-130
▁M	-131
▁qu	-132
tr	-133
▁D	-134
▁más	-135
ed	-136
▁–	-137
it	-138
▁¿	-139
▁como	-140
▁pro	-141
▁vi	-142
gun	-143
da	-144
me	-145
▁sus	-146
ras	-147
ían	-148
án	-149
ido	-150
el	-151
ter	-152
uest	-153
▁so	-154
us	-155
▁per	-156
mo	-157
era	-158
▁ca	-159
▁an	-160
cho	-161
ento	-162
ez	-163
tra	-164
▁señ	-165
▁¡	-166
▁sin	-167
▁ten	-168
quel	-169
aban	-170
tes	-171
ora	-172
▁esp	-173
▁pero	-174
▁mar	-175
▁era	-176
ce	-177
mente	-178
ib	-179
cer	-180
ru	-181
▁res	-182
▁aquel	-183
▁mis	-184
▁H	-185
▁ser	-186
ma	-187
amente	-188
io	-189
▁ap	-190
ones	-191
fi	-192
▁pre	-193
▁tod	-194
con	-195
..	-196
iz	-197
▁tan	-198
odo	-199
▁ar	-200
los	-201
ante	-202
▁lle	-203
▁El	-204
las	-205
tar	-206
gn	-207
▁man	-208
pa	-209
tro	-210
▁ent	-211
▁pu	-212
emp	-213
▁hu	-214
li	-215
▁ab	-216
ust	-217
▁é	-218
▁T	-219
mi	-220
▁cas	-221
▁sal	-222
▁pas	-223
és	-224
tos	-225
▁car	-226
▁po	-227
ados	-228
▁señor	-229
▁pue	-230
vi	-231
▁ver	-232
mos	-233
ten	-234
▁En	-235
▁pr	-236
▁as	-237
▁sobre	-238
▁j	-239
lar	-240
idad	-241
ida	-242
▁ma	-243
▁pod	-244
ún	-245
én	-246
gar	-247
▁dos	-248
ces	-249
▁dijo	-250
dos	-251
eci	-252
ver	-253
pu	-254
▁he	-255
▁em	-256
▁fu	-257
▁cab	-258
▁yo	-259
▁du	-260
▁F	-261
▁ni	-262
▁Y	-263
▁ac	-264
▁cor	-265
pon	-266
▁B	-267
tó	-268
ión	-269
vo	-270
dad	-271
▁im	-272
▁r	-273
ens	-274
▁estaba	-275
▁todo	-276
▁gran	-277
car	-278
▁pi	-279
par	-280
lam	-281
▁ob	-282
asta	-283
aj	-284
ios	-285
▁nos	-286
encia	-287
lan	-288
ría	-289
▁hom	-290
▁muy	-291
za	-292
tas	-293
▁tra	-294
▁No	-295
les	-296
able	-297
▁La	-298
aci	-299
bi	-300
▁cos	-301
▁cuando	-302
▁vol	-303
ino	-304
▁ti	-305
ist	-306
amos	-307
iera	-308
por	-309
usted	-310
▁usted	-311
per	-312
ia	-313
▁él	-314
▁deb	-315
▁cam	-316
gnan	-317
ga	-318
▁algun	-319
Ar	-320
tagnan	-321
dido	-322
Artagnan	-323
ros	-324
▁hasta	-325
eros	-326
pe	-327
ío	-328
▁bien	-329
til	-330
aron	-331
ve	-332
▁R	-333
cas	-334
ana	-335
▁ve	-336
pi	-337
▁ya	-338
▁esta	-339
▁fue	-340
che	-341
du	-342
▁sab	-343
▁Pero	-344
rim	-345
ie	-346
▁entre	-347
th	-348
▁deci	-349
ren	-350
cha	-351
▁vez	-352
▁bu	-353
▁á	-354
▁ro	-355
emos	-356
eces	-357
ven	-358
▁medi	-359
dió	-360
Qu	-361
ales	-362
jos	-363
▁or	-364
▁dis	-365
▁comp	-366
ac	-367
▁os	-368
▁agu	-369
▁Por	-370
ación	-371
bar	-372
▁am	-373
thos	-374
▁hacer	-375
...	-376
ton	-377
▁pal	-378
▁este	-379
▁col	-380
ió	-381
orm	-382
▁nuest	-383
pit	-384
tura	-385
pués	-386
▁sol	-387
▁G	-388
▁ra	-389
▁—	-390
éis	-391
den	-392
adas	-393
▁tiemp	-394
tado	-395
▁porque	-396
▁men	-397
ena	-398
tros	-399
▁mil	-400
▁lu	-401
▁V	-402
▁tiempo	-403
▁ad	-404
ur	-405
▁qué	-406
▁segu	-407
ores	-408
▁is	-409
▁co	-410
enta	-411
▁encon	-412
▁sent	-413
▁dej	-414
sta	-415
▁cons	-416
entos	-417
▁pues	-418
▁gu	-419
▁cre	-420
ig	-421
arse	-422
▁pe	-423
▁hacia	-424
▁ter	-425
ño	-426
ese	-427
erv	-428
cos	-429
gún	-430
No	-431
ina	-432
dijo	-433
▁toda	-434
▁mí	-435
um	-436
eron	-437
cía	-438
▁parec	-439
der	-440
▁hub	-441
ano	-442
▁pres	-443
endo	-444
Un	-445
▁pa	-446
▁hombre	-447
fec	-448
enc	-449
▁ba	-450
▁esc	-451
ciones	-452
po	-453
▁Se	-454
▁día	-455
all	-456
entes	-457
ya	-458
▁llev	-459
sto	-460
gra	-461
▁ella	-462
so	-463
cio	-464
▁son	-465
ff	-466
▁cal	-467
▁después	-468
▁prim	-469
uel	-470
▁decir	-471
▁tenía	-472
▁nada	-473
▁capit	-474
je	-475
ber	-476
▁mom	-477
pañ	-478
ible	-479
unto	-480
▁podía	-481
▁pos	-482
▁pens	-483
ul	-484
▁her	-485
ías	-486
▁tres	-487
▁inter	-488
▁aquella	-489
onde	-490
▁ese	-491
tor	-492
▁Al	-493
▁está	-494
clam	-495
and	-496
zo	-497
tamente	-498
▁habían	-499
taba	-500
mit	-501
▁poco	-502
▁embar	-503
▁--	-504
▁cer	-505
trar	-506
rib	-507
▁na	-508
▁Me	-509
▁parte	-510
▁capitán	-511
va	-512
▁ing	-513
rante	-514
ita	-515
inu	-516
▁todos	-517
encro	-518
oc	-519
tad	-520
encroff	-521
▁hor	-522
ea	-523
▁isla	-524
▁mismo	-525
uso	-526
▁palab	-527
▁ven	-528
▁Pencroff	-529
oy	-530
▁-¿	-531
▁momento	-532
▁J	-533
▁uno	-534
▁ah	-535
tre	-536
▁prof	-537
van	-538
▁fin	-539
▁cual	-540
▁quer	-541
▁menos	-542
▁puer	-543
iro	-544
▁donde	-545
omb	-546
Qué	-547
▁noche	-548
▁I	-549
▁exp	-550
▁inst	-551
▁Un	-552
▁haber	-553
▁Ciro	-554
eza	-555
gos	-556
▁sido	-557
min	-558
ómo	-559
das	-560
▁Con	-561
▁bar	-562
quí	-563
ito	-564
▁––	-565
▁pregun	-566
mas	-567
igu	-568
▁ocu	-569
▁esper	-570
▁tom	-571
▁,	-572
iento	-573
▁casa	-574
▁nue	-575
▁otro	-576
▁Athos	-577
antes	-578
des	-579
▁tam	-580
▁enton	-581
iendo	-582
ara	-583
eg	-584
▁respon	-585
▁entonces	-586
▁te	-587
▁hecho	-588
▁lleg	-589
▁cont	-590
uego	-591
▁ami	-592
▁mucho	-593
▁mon	-594
ña	-595
▁otra	-596
son	-597
▁mo	-598
pos	-599
▁tar	-600
cil	-601
jer	-602
raba	-603
ag	-604
ré	-605
▁hi	-606
idos	-607
ólo	-608
▁tran	-609
dose	-610
ica	-611
can	-612
▁tu	-613
▁inf	-614
▁.	-615
▁Es	-616
rado	-617
▁hubiera	-618
▁mano	-619
▁Los	-620
mith	-621
▁ojos	-622
▁Smith	-623
fici	-624
▁esa	-625
clamó	-626
lí	-627
zón	-628
osque	-629
ord	-630
▁ru	-631
▁can	-632
cl	-633
uesto	-634
▁fuer	-635
ieron	-636
iente	-637
no	-638
vid	-639
▁embargo	-640
oz	-641
util	-642
▁cin	-643
mp	-644
man	-645
cias	-646
og	-647
bres	-648
▁antes	-649
iero	-650
oci	-651
vía	-652
rar	-653
▁desde	-654
ves	-655
▁así	-656
▁nin	-657
▁qued	-658
ños	-659
▁rec	-660
entras	-661
▁eso	-662
▁preci	-663
▁Est	-664
▁llam	-665
▁ú	-666
▁tien	-667
▁aquí	-668
▁agua	-669
lti	-670
▁mal	-671
▁quien	-672
ior	-673
▁tanto	-674
▁compañ	-675
▁pla	-676
ierto	-677
bién	-678
vil	-679
▁sigu	-680
▁tier	-681
▁bas	-682
▁ir	-683
▁mujer	-684
▁Mil	-685
▁pes	-686
izo	-687
▁lib	-688
▁«	-689
serv	-690
ís	-691
▁for	-692
oso	-693
▁todas	-694
▁aun	-695
▁neces	-696
▁De	-697
▁puerta	-698
anto	-699
▁gra	-700
▁tem	-701
▁apar	-702
eno	-703
▁mej	-704
▁va	-705
▁jo	-706
▁sa	-707
▁contra	-708
▁Na	-709
▁emp	-710
▁reg	-711
yo	-712
▁ingen	-713
▁ch	-714
▁hay	-715
ién	-716
ja	-717
▁Har	-718
▁vida	-719
rig	-720
▁ib	-721
▁cabeza	-722
-.	-723
▁sí	-724
atro	-725
rá	-726
fer	-727
illa	-728
▁ante	-729
▁días	-730
bo	-731
▁lar	-732
aría	-733
▁bajo	-734
▁medio	-735
dia	-736
bert	-737
▁tal	-738
▁durante	-739
na	-740
ud	-741
▁ellos	-742
▁sólo	-743
ba	-744
ady	-745
fecto	-746
▁estu	-747
undo	-748
▁esto	-749
▁joven	-750
cen	-751
▁vuest	-752
▁les	-753
tal	-754
nos	-755
ura	-756
▁Su	-757
esa	-758
▁ahora	-759
arme	-760
▁Milady	-761
▁extra	-762
rió	-763
ron	-764
ex	-765
▁bo	-766
ario	-767
▁O	-768
eció	-769
▁cri	-770
▁Harbert	-771
▁oí	-772
aje	-773
ñana	-774
▁tierra	-775
▁también	-776
▁dist	-777
tud	-778
onos	-779
▁últi	-780
sa	-781
▁hizo	-782
enas	-783
▁Ro	-784
ancia	-785
▁pron	-786
ias	-787
▁super	-788
▁sub	-789
▁muer	-790
utilus	-791
▁debía	-792
▁encontr	-793
▁Nautilus	-794
qué	-795
ombre	-796
ín	-797
▁sue	-798
mis	-799
▁veces	-800
osa	-801
▁llegar	-802
có	-803
▁allí	-804
▁form	-805
chas	-806
▁aún	-807
▁1	-808
▁señora	-809
▁Yo	-810
empre	-811
▁observ	-812
▁desa	-813
ándo	-814
tante	-815
▁verdad	-816
▁lugar	-817
pre	-818
▁alguna	-819
▁ll	-820
zos	-821
▁ingeniero	-822
ró	-823
▁mientras	-824
▁eran	-825
▁cuatro	-826
▁mañana	-827
rada	-828
▁duda	-829
▁peque	-830
tt	-831
vió	-832
▁aunque	-833
▁Era	-834
▁voz	-835
▁mejor	-836
tido	-837
▁rep	-838
▁Fog	-839
▁anim	-840
▁hora	-841
tras	-842
▁Fogg	-843
té	-844
unca	-845
ire	-846
▁bus	-847
▁cuar	-848
vers	-849
▁palabras	-850
▁punto	-851
▁camino	-852
▁hall	-853
▁hombres	-854
▁fa	-855
Sí	-856
▁algo	-857
▁unos	-858
zar	-859
ene	-860
▁sil	-861
▁estaban	-862
▁pon	-863
iones	-864
▁parecía	-865
▁In	-866
▁dar	-867
cción	-868
▁indi	-869
▁siempre	-870
zó	-871
▁Mi	-872
▁fal	-873
▁algunos	-874
▁sino	-875
ard	-876
▁mas	-877
▁ref	-878
▁habría	-879
▁respondió	-880
▁efecto	-881
▁Des	-882
▁iba	-883
ues	-884
▁Porthos	-885
ion	-886
tir	-887
quil	-888
▁acer	-889
▁compren	-890
acio	-891
chos	-892
▁imp	-893
lado	-894
▁puede	-895
▁modo	-896
▁dicho	-897
▁levan	-898
–,	-899
emo	-900
▁Si	-901
almente	-902
▁ju	-903
▁casi	-904
▁estar	-905
▁carden	-906
pec	-907
▁ins	-908
▁pies	-909
▁han	-910
ándose	-911
▁Cu	-912
▁cardenal	-913
▁Sin	-914
▁person	-915
ced	-916
▁dirig	-917
▁especi	-918
gi	-919
▁bor	-920
▁salv	-921
▁volver	-922
▁vuel	-923
▁luego	-924
cado	-925
▁Dios	-926
▁cada	-927
▁pudi	-928
▁reci	-929
isa	-930
▁ri	-931
▁fuera	-932
respon	-933
▁id	-934
▁natura	-935
▁mor	-936
▁Nemo	-937
ril	-938
ck	-939
▁mundo	-940
dor	-941
▁vos	-942
▁hacía	-943
stru	-944
▁visto	-945
▁colonos	-946
ador	-947
▁do	-948
▁nuestro	-949
cion	-950
▁val	-951
▁tras	-952
dí	-953
▁tiene	-954
▁may	-955
miento	-956
▁nombre	-957
▁pá	-958
▁sor	-959
ramis	-960
▁cinco	-961
oles	-962
▁cosa	-963
ós	-964
▁nunca	-965
Es	-966
▁noso	-967
áb	-968
duci	-969
▁baj	-970
día	-971
▁Aramis	-972
▁-¡	-973
cub	-974
▁viv	-975
inar	-976
segu	-977
▁incl	-978
▁manos	-979
▁Lo	-980
–.	-981
▁tri	-982
▁algún	-983
▁horas	-984
yó	-985
▁dese	-986
▁tarde	-987
ches	-988
▁recon	-989
▁tor	-990
▁vein	-991
tiv	-992
▁nosotros	-993
▁gri	-994
▁buen	-995
▁traba	-996
▁ay	-997
anza	-998
▁prop	-999
▁continu	-1000
▁cuanto	-1001
▁op	-1002
▁situ	-1003
tonces	-1004
ux	-1005
porte	-1006
▁cora	-1007
▁hablar	-1008
▁nuestra	-1009
▁caso	-1010
áis	-1011
gado	-1012
vent	-1013
▁estas	-1014
▁compañeros	-1015
ej	-1016
▁cuer	-1017
▁solo	-1018
▁cabal	-1019
▁cosas	-1020
rb	-1021
▁pronto	-1022
for	-1023
▁bra	-1024
rep	-1025
tener	-1026
qui	-1027
-,	-1028
▁lado	-1029
ición	-1030
▁marino	-1031
pile	-1032
▁estre	-1033
▁otros	-1034
▁ningun	-1035
En	-1036
andon	-1037
pilett	-1038
▁profun	-1039
▁Nab	-1040
ic	-1041
▁Spilett	-1042
▁granito	-1043
ang	-1044
▁ag	-1045
▁fr	-1046
ste	-1047
▁cómo	-1048
▁algunas	-1049
▁rey	-1050
▁aire	-1051
ecer	-1052
▁palabra	-1053
ientos	-1054
▁descub	-1055
▁vis	-1056
omo	-1057
▁fi	-1058
▁años	-1059
▁mayor	-1060
▁abandon	-1061
▁escu	-1062
▁estado	-1063
ér	-1064
tri	-1065
emás	-1066
▁comple	-1067
▁–¡	-1068
laba	-1069
ifi	-1070
▁plan	-1071
▁vent	-1072
▁exclamó	-1073
vis	-1074
▁mío	-1075
▁costa	-1076
▁Cuando	-1077
▁puesto	-1078
tun	-1079
unci	-1080
▁Hab	-1081
▁Ned	-1082
▁tío	-1083
▁hubi	-1084
ñad	-1085
▁mist	-1086
zas	-1087
▁pel	-1088
▁atra	-1089
▁hal	-1090
▁corri	-1091
mb	-1092
vor	-1093
▁Mr	-1094
▁sorp	-1095
eb	-1096
ble	-1097
▁amigo	-1098
▁W	-1099
▁arro	-1100
▁misma	-1101
▁corazón	-1102
seil	-1103
ecu	-1104
rir	-1105
char	-1106
▁tranquil	-1107
ónde	-1108
lu	-1109
▁encontrar	-1110
▁siguiente	-1111
▁trans	-1112
▁Ali	-1113
▁acu	-1114
tió	-1115
ecía	-1116
▁todavía	-1117
ielo	-1118
▁árb	-1119
▁podido	-1120
▁Conseil	-1121
cre	-1122
▁Re	-1123
adre	-1124
▁segun	-1125
aciones	-1126
ñas	-1127
▁Ge	-1128
▁Una	-1129
▁posible	-1130
▁primera	-1131
▁bastante	-1132
▁»	-1133
esor	-1134
▁acab	-1135
Por	-1136
▁luz	-1137
▁nad	-1138
▁Alicia	-1139
▁hace	-1140
▁lan	-1141
testó	-1142
▁seis	-1143
▁estos	-1144
izá	-1145
▁vista	-1146
icaporte	-1147
▁comen	-1148
▁tengo	-1149
ñor	-1150
▁Picaporte	-1151
ome	-1152
xim	-1153
▁dem	-1154
▁var	-1155
sí	-1156
cip	-1157
cur	-1158
▁demas	-1159
▁nuevo	-1160
▁minu	-1161
Ah	-1162
ne	-1163
iado	-1164
▁oscu	-1165
pregun	-1166
▁bosque	-1167
▁conf	-1168
ierta	-1169
▁sería	-1170
exclamó	-1171
▁esos	-1172
▁somb	-1173
ign	-1174
▁grandes	-1175
▁ves	-1176
▁Ch	-1177
edad	-1178
sión	-1179
▁suelo	-1180
imiento	-1181
▁aquellos	-1182
lor	-1183
▁mucha	-1184
ici	-1185
▁ci	-1186
ville	-1187
▁preguntó	-1188
arlo	-1189
▁millas	-1190
▁perman	-1191
▁ros	-1192
▁dire	-1193
▁habita	-1194
▁pie	-1195
▁descon	-1196
caba	-1197
cación	-1198
ilidad	-1199
▁aguas	-1200
▁Sí	-1201
entas	-1202
▁exist	-1203
chester	-1204
ables	-1205
ecido	-1206
▁forma	-1207
ico	-1208
▁Can	-1209
▁gol	-1210
▁orden	-1211
áp	-1212
▁den	-1213
▁ocur	-1214
▁tener	-1215
▁resp	-1216
▁parece	-1217
▁Rochester	-1218
▁of	-1219
▁dado	-1220
lig	-1221
▁diez	-1222
ífi	-1223
inas	-1224
▁impor	-1225
▁mosque	-1226
▁escal	-1227
▁fuego	-1228
▁silen	-1229
idas	-1230
Pero	-1231
Se	-1232
▁at	-1233
quier	-1234
▁temp	-1235
▁Las	-1236
▁Pal	-1237
uesta	-1238
yos	-1239
reci	-1240
▁fon	-1241
▁mes	-1242
▁esca	-1243
▁unas	-1244
▁cub	-1245
▁prin	-1246
▁mister	-1247
▁volvió	-1248
itar	-1249
rían	-1250
▁instante	-1251
▁superfici	-1252
mej	-1253
▁Le	-1254
▁cent	-1255
▁primer	-1256
cep	-1257
illo	-1258
▁apro	-1259
▁amigos	-1260
▁Bon	-1261
▁cierto	-1262
▁Entonces	-1263
gas	-1264
▁clar	-1265
mor	-1266
▁dio	-1267
trado	-1268
▁cuya	-1269
▁saber	-1270
▁según	-1271
▁viento	-1272
ajes	-1273
▁Tré	-1274
▁sea	-1275
▁"	-1276
inc	-1277
▁Bu	-1278
▁pelig	-1279
▁consid	-1280
▁Candido	-1281
▁cono	-1282
▁ocho	-1283
tel	-1284
uda	-1285
mes	-1286
pecto	-1287
▁largo	-1288
▁resul	-1289
▁viaje	-1290
▁ninguna	-1291
▁–¿	-1292
▁cuenta	-1293
▁demasiado	-1294
ete	-1295
▁Gede	-1296
▁blan	-1297
cog	-1298
ile	-1299
ral	-1300
ror	-1301
acie	-1302
imos	-1303
▁neg	-1304
▁idea	-1305
▁semej	-1306
▁termin	-1307
▁superficie	-1308
▁dest	-1309
ev	-1310
ól	-1311
acieux	-1312
▁Gedeón	-1313
▁present	-1314
cti	-1315
▁Ad	-1316
▁lab	-1317
▁paso	-1318
▁Bonacieux	-1319
▁bal	-1320
▁hon	-1321
▁volv	-1322
▁conven	-1323
▁ol	-1324
▁agra	-1325
▁querido	-1326
cul	-1327
Cómo	-1328
ará	-1329
▁guar	-1330
▁barco	-1331
▁extre	-1332
▁ningún	-1333
▁amo	-1334
▁real	-1335
▁media	-1336
tá	-1337
▁oc	-1338
▁princip	-1339
ería	-1340
rido	-1341
▁especie	-1342
▁Aquel	-1343
oh	-1344
▁cir	-1345
▁sos	-1346
itu	-1347
quiera	-1348
tis	-1349
ído	-1350
▁Ay	-1351
▁inm	-1352
▁siti	-1353
▁nadie	-1354
preguntó	-1355
▁razón	-1356
▁podría	-1357
▁mer	-1358
▁buena	-1359
▁sabía	-1360
▁regres	-1361
▁prob	-1362
▁mov	-1363
▁pun	-1364
▁ráp	-1365
▁cabo	-1366
▁expli	-1367
▁pobre	-1368
▁esas	-1369
▁Palacio	-1370
▁Tréville	-1371
dir	-1372
pas	-1373
▁río	-1374
ábamos	-1375
▁desapar	-1376
▁gen	-1377
zado	-1378
▁Par	-1379
▁inv	-1380
rando	-1381
▁Fran	-1382
eo	-1383
ál	-1384
dio	-1385
media	-1386
rible	-1387
▁disp	-1388
▁señal	-1389
▁cuid	-1390
▁rostro	-1391
lación	-1392
▁fá	-1393
▁sé	-1394
▁Hol	-1395
tando	-1396
▁minutos	-1397
▁pasar	-1398
▁mirada	-1399
▁habitación	-1400
▁ún	-1401
▁Mar	-1402
▁fran	-1403
▁pol	-1404
▁creo	-1405
▁recib	-1406
▁2	-1407
jar	-1408
▁soy	-1409
▁buque	-1410
▁carta	-1411
▁hallaba	-1412
▁profesor	-1413
▁prepar	-1414
ay	-1415
ond	-1416
▁Du	-1417
leza	-1418
zaba	-1419
▁recor	-1420
op	-1421
mar	-1422
rton	-1423
contestó	-1424
▁ello	-1425
▁fondo	-1426
▁cuarto	-1427
culo	-1428
▁mos	-1429
cuent	-1430
dente	-1431
▁tend	-1432
▁fácil	-1433
cel	-1434
olu	-1435
▁hubiese	-1436
uer	-1437
▁desp	-1438
▁pude	-1439
▁tenido	-1440
▁muerte	-1441
Oh	-1442
endi	-1443
▁equi	-1444
▁salir	-1445
▁separ	-1446
gua	-1447
vés	-1448
inos	-1449
▁cog	-1450
▁entr	-1451
▁recu	-1452
▁pasos	-1453
▁poder	-1454
▁Ayrton	-1455
▁cielo	-1456
▁buscar	-1457
▁imag	-1458
▁consider	-1459
ocido	-1460
taban	-1461
▁alcan	-1462
▁Holmes	-1463
cido	-1464
cidad	-1465
▁manera	-1466
ase	-1467
▁hum	-1468
▁tre	-1469
▁caus	-1470
▁cerca	-1471
amiento	-1472
▁través	-1473
lante	-1474
▁estoy	-1475
▁otras	-1476
tención	-1477
▁orilla	-1478
▁obst	-1479
▁Land	-1480
▁enci	-1481
▁marcha	-1482
▁gal	-1483
▁aleg	-1484
▁exten	-1485
▁rocas	-1486
▁seguir	-1487
entemente	-1488
tivo	-1489
▁Fel	-1490
▁dom	-1491
▁ton	-1492
▁árboles	-1493
▁to	-1494
▁herm	-1495
▁llegado	-1496
ane	-1497
▁veinte	-1498
▁bordo	-1499
▁hemos	-1500
▁sitio	-1501
yec	-1502
▁abs	-1503
posible	-1504
▁af	-1505
▁acom	-1506
▁quizá	-1507
ejo	-1508
end	-1509
ridad	-1510
▁hier	-1511
ap	-1512
vas	-1513
iguió	-1514
▁poner	-1515
▁sorpren	-1516
▁sac	-1517
▁inmedia	-1518
▁situación	-1519
ing	-1520
▁ban	-1521
▁dec	-1522
▁pareció	-1523
▁nuestros	-1524
inta	-1525
▁cien	-1526
▁dere	-1527
▁dorm	-1528
▁ocas	-1529
▁cuerpo	-1530
▁br	-1531
trás	-1532
▁dif	-1533
▁cuyo	-1534
▁Felton	-1535
▁Después	-1536
ñadió	-1537
▁mesa	-1538
▁puso	-1539
bu	-1540
und	-1541
▁tro	-1542
▁produ	-1543
▁puedo	-1544
▁pasado	-1545
ajo	-1546
▁ho	-1547
▁quería	-1548
▁ej	-1549
▁Así	-1550
▁Sir	-1551
▁pan	-1552
ciendo	-1553
▁confi	-1554
gan	-1555
vir	-1556
▁bril	-1557
▁demás	-1558
▁An	-1559
▁Ph	-1560
▁olvid	-1561
ileas	-1562
▁Había	-1563
▁fuerza	-1564
pli	-1565
tan	-1566
resión	-1567
▁silencio	-1568
tin	-1569
▁Ah	-1570
▁desgra	-1571
▁último	-1572
▁distancia	-1573
ima	-1574
esti	-1575
▁capa	-1576
repuso	-1577
gó	-1578
ry	-1579
▁fam	-1580
tación	-1581
▁interior	-1582
titud	-1583
▁dejar	-1584
rm	-1585
▁K	-1586
ohn	-1587
rer	-1588
▁doc	-1589
▁junto	-1590
cular	-1591
ieran	-1592
▁anti	-1593
adores	-1594
▁reina	-1595
▁Phileas	-1596
El	-1597
ix	-1598
lá	-1599
tón	-1600
▁lejos	-1601
▁refle	-1602
▁vapor	-1603
▁llevar	-1604
ablemente	-1605
De	-1606
▁vio	-1607
▁fuerte	-1608
▁aquellas	-1609
▁ade	-1610
▁ech	-1611
iment	-1612
▁pros	-1613
▁encima	-1614
adamente	-1615
▁caballo	-1616
fa	-1617
tico	-1618
▁ne	-1619
tida	-1620
▁fel	-1621
yas	-1622
▁animal	-1623
idamente	-1624
▁viol	-1625
▁vuestra	-1626
inado	-1627
▁ruido	-1628
▁sabe	-1629
▁Ya	-1630
▁go	-1631
▁habéis	-1632
▁contrar	-1633
mer	-1634
▁elev	-1635
▁obje	-1636
lanche	-1637
▁vuestro	-1638
anas	-1639
inter	-1640
▁favor	-1641
▁quier	-1642
▁cru	-1643
▁famil	-1644
Cu	-1645
▁pris	-1646
nes	-1647
tada	-1648
▁Fix	-1649
▁John	-1650
▁hermos	-1651
▁convers	-1652
▁encuent	-1653
▁quin	-1654
▁tomar	-1655
▁fueron	-1656
tí	-1657
amás	-1658
dida	-1659
orte	-1660
▁Mis	-1661
▁amor	-1662
▁just	-1663
eas	-1664
▁lá	-1665
▁vig	-1666
▁alma	-1667
▁acompañ	-1668
▁preciso	-1669
omp	-1670
▁má	-1671
▁hici	-1672
▁padre	-1673
▁secre	-1674
▁proyec	-1675
tuvo	-1676
▁Ten	-1677
▁bol	-1678
▁Jane	-1679
▁pudo	-1680
uestra	-1681
▁satis	-1682
▁primero	-1683
▁ó	-1684
▁Mas	-1685
▁exper	-1686
▁apenas	-1687
▁Durante	-1688
ham	-1689
pel	-1690
tía	-1691
tados	-1692
eración	-1693
▁aspecto	-1694
▁oír	-1695
▁oído	-1696
▁;	-1697
gio	-1698
ocu	-1699
▁sang	-1700
xo	-1701
fra	-1702
orn	-1703
rum	-1704
▁Ahora	-1705
▁sentía	-1706
▁tenían	-1707
▁velo	-1708
▁éste	-1709
▁desem	-1710
▁perder	-1711
iso	-1712
jas	-1713
respondió	-1714
didad	-1715
▁Como	-1716
▁desc	-1717
terior	-1718
▁X	-1719
bió	-1720
▁parti	-1721
▁pensar	-1722
rí	-1723
bra	-1724
▁ce	-1725
eral	-1726
▁circ	-1727
▁envi	-1728
▁decía	-1729
▁bel	-1730
gular	-1731
teros	-1732
▁acos	-1733
▁difí	-1734
▁avent	-1735
▁persona	-1736
▁da	-1737
▁gr	-1738
erdo	-1739
▁Esta	-1740
▁además	-1741
▁atraves	-1742
▁terrible	-1743
▁imposible	-1744
aré	-1745
▁trabajo	-1746
oln	-1747
pul	-1748
▁Qu	-1749
terra	-1750
▁dentro	-1751
idi	-1752
ilo	-1753
▁rela	-1754
▁Luego	-1755
▁condu	-1756
▁fre	-1757
▁comer	-1758
▁animales	-1759
este	-1760
▁inqu	-1761
▁sola	-1762
idades	-1763
incoln	-1764
▁seguro	-1765
▁ocul	-1766
▁inclin	-1767
▁Lincoln	-1768
ub	-1769
igo	-1770
▁án	-1771
udad	-1772
▁mod	-1773
▁golpe	-1774
▁playa	-1775
▁caball	-1776
▁suf	-1777
▁pequeña	-1778
▁dirección	-1779
▁lí	-1780
ille	-1781
ífico	-1782
▁Este	-1783
▁haya	-1784
▁será	-1785
▁pri	-1786
▁hist	-1787
▁corre	-1788
▁monta	-1789
▁circun	-1790
ong	-1791
▁—¡	-1792
erte	-1793
izon	-1794
▁perfec	-1795
ge	-1796
▁lig	-1797
▁exam	-1798
▁pared	-1799
▁gracias	-1800
mpl	-1801
izar	-1802
▁jun	-1803
▁evid	-1804
▁Ing	-1805
▁dixo	-1806
▁salón	-1807
▁última	-1808
▁horizon	-1809
▁llevaba	-1810
▁naturaleza	-1811
cada	-1812
migo	-1813
▁vas	-1814
▁habl	-1815
▁entrar	-1816
▁están	-1817
▁distin	-1818
taron	-1819
▁amar	-1820
▁veía	-1821
▁comun	-1822
▁metros	-1823
»,	-1824
▁(	-1825
zon	-1826
▁podían	-1827
▁perdido	-1828
vol	-1829
ducir	-1830
▁vino	-1831
▁empez	-1832
▁pesar	-1833
▁altura	-1834
▁conoci	-1835
▁cuales	-1836
▁profundidad	-1837
▁il	-1838
tent	-1839
▁sir	-1840
▁asegu	-1841
▁brazos	-1842
▁correspon	-1843
eras	-1844
▁sur	-1845
▁Esto	-1846
▁pied	-1847
▁muerto	-1848
▁constru	-1849
▁corriente	-1850
ítu	-1851
▁li	-1852
▁gru	-1853
iense	-1854
illas	-1855
▁ciudad	-1856
▁labios	-1857
▁vuelta	-1858
ensa	-1859
rede	-1860
▁Ingla	-1861
▁fuese	-1862
▁presencia	-1863
Me	-1864
Est	-1865
irme	-1866
tero	-1867
table	-1868
▁ellas	-1869
▁dispar	-1870
▁nuestras	-1871
▁Inglaterra	-1872
cán	-1873
cios	-1874
▁ata	-1875
▁dep	-1876
▁histor	-1877
▁perten	-1878
▁difícil	-1879
▁encontrado	-1880
Que	-1881
iene	-1882
itos	-1883
tiva	-1884
▁avan	-1885
▁muchas	-1886
▁completamente	-1887
úm	-1888
val	-1889
▁lon	-1890
▁clas	-1891
▁cuad	-1892
▁dejado	-1893
▁pequeño	-1894
fo	-1895
▁hos	-1896
▁inc	-1897
▁boca	-1898
▁cier	-1899
▁permi	-1900
▁muchos	-1901
fac	-1902
ista	-1903
▁Han	-1904
▁Top	-1905
▁arm	-1906
poner	-1907
▁crist	-1908
▁sangre	-1909
▁segundo	-1910
▁Lond	-1911
▁au	-1912
▁az	-1913
▁pene	-1914
▁escri	-1915
▁servi	-1916
▁incluso	-1917
▁conversación	-1918
▁Entre	-1919
▁emple	-1920
▁march	-1921
lanchet	-1922
cin	-1923
imo	-1924
uro	-1925
▁dé	-1926
fuer	-1927
guas	-1928
▁gent	-1929
▁encar	-1930
▁alrede	-1931
▁sufici	-1932
imientos	-1933
uelo	-1934
▁Tod	-1935
inaba	-1936
▁curi	-1937
▁ocup	-1938
▁reti	-1939
▁agrad	-1940
▁conte	-1941
▁habit	-1942
▁frente	-1943
▁Londres	-1944
▁ventana	-1945
▁esperaba	-1946
eda	-1947
éano	-1948
▁def	-1949
▁dije	-1950
▁longi	-1951
▁suerte	-1952
▁Planchet	-1953
ou	-1954
rán	-1955
▁Ha	-1956
resa	-1957
stan	-1958
turas	-1959
ítulo	-1960
▁canad	-1961
▁sospe	-1962
▁preocu	-1963
▁siquiera	-1964
▁semejante	-1965
cían	-1966
mbre	-1967
▁lad	-1968
▁mad	-1969
▁nave	-1970
▁viaj	-1971
cuenta	-1972
▁creer	-1973
▁duque	-1974
▁jamás	-1975
▁longitud	-1976
▁canadiense	-1977
fe	-1978
▁magn	-1979
▁pira	-1980
▁asunto	-1981
▁inquie	-1982
▁igu	-1983
▁debe	-1984
▁mostr	-1985
▁papel	-1986
▁grande	-1987
don	-1988
útil	-1989
▁quién	-1990
▁inmediatamente	-1991
bos	-1992
vos	-1993
lobo	-1994
ufra	-1995
éndo	-1996
▁cap	-1997
▁alto	-1998
▁const	-1999
▁reflex	-2000
ír	-2001
nas	-2002
ple	-2003
▁daba	-2004
▁reun	-2005
▁rode	-2006
▁meses	-2007
▁siete	-2008
▁absolu	-2009
▁pudiera	-2010
II	-2011
Lo	-2012
fes	-2013
éri	-2014
anos	-2015
risa	-2016
tuna	-2017
▁ign	-2018
▁lim	-2019
ándome	-2020
▁liber	-2021
reg	-2022
tenía	-2023
viera	-2024
▁Pues	-2025
▁cara	-2026
▁homb	-2027
▁señores	-2028
▁continuó	-2029
▁velocidad	-2030
arios	-2031
ramos	-2032
▁costu	-2033
cientos	-2034
▁libras	-2035
▁treinta	-2036
▁contrario	-2037
▁esperanza	-2038
jado	-2039
orme	-2040
dista	-2041
inero	-2042
remos	-2043
▁arras	-2044
▁calle	-2045
▁dónde	-2046
▁llegó	-2047
▁conmigo	-2048
▁natural	-2049
▁cincuenta	-2050
▁mosqueteros	-2051
rad	-2052
▁doce	-2053
vieron	-2054
▁Además	-2055
▁esperar	-2056
▁país	-2057
▁condi	-2058
▁extremo	-2059
▁precipit	-2060
▁cualquier	-2061
irse	-2062
▁gan	-2063
didos	-2064
▁caer	-2065
▁atención	-2066
▁escalera	-2067
at	-2068
Con	-2069
gué	-2070
▁Di	-2071
▁dejó	-2072
▁honor	-2073
▁perio	-2074
camente	-2075
▁cuidado	-2076
bio	-2077
umb	-2078
▁pl	-2079
hesa	-2080
▁Todo	-2081
▁tomó	-2082
éndose	-2083
▁quedó	-2084
▁peligro	-2085
▁horizonte	-2086
ama	-2087
esto	-2088
alidad	-2089
▁inútil	-2090
▁conserv	-2091
aro	-2092
▁tú	-2093
Pues	-2094
enar	-2095
▁and	-2096
tarse	-2097
cultad	-2098
iernes	-2099
▁dehesa	-2100
▁resist	-2101
▁ocasión	-2102
▁historia	-2103
gue	-2104
▁—¿	-2105
iles	-2106
itaba	-2107
ración	-2108
▁asomb	-2109
▁enter	-2110
▁miser	-2111
▁periodista	-2112
esen	-2113
culos	-2114
▁Gran	-2115
▁escuch	-2116
▁movimiento	-2117
dije	-2118
▁encontró	-2119
La	-2120
dil	-2121
arle	-2122
▁Hen	-2123
▁lín	-2124
antos	-2125
▁aproxim	-2126
▁familia	-2127
▁desconocido	-2128
.»	-2129
––.	-2130
idez	-2131
osos	-2132
embre	-2133
▁apoy	-2134
▁armas	-2135
▁equivo	-2136
▁recono	-2137
▁He	-2138
▁on	-2139
lote	-2140
▁ayud	-2141
▁ayuda	-2142
▁recog	-2143
mientos	-2144
▁quiere	-2145
▁comprender	-2146
ece	-2147
▁er	-2148
▁alej	-2149
▁camp	-2150
▁enem	-2151
▁tuvo	-2152
eja	-2153
licó	-2154
▁fra	-2155
▁allá	-2156
▁pers	-2157
▁entra	-2158
▁procu	-2159
▁hallar	-2160
▁océano	-2161
▁fortuna	-2162
▁Mientras	-2163
▁cuarenta	-2164
bas	-2165
ender	-2166
▁mares	-2167
▁delante	-2168
▁fe	-2169
▁año	-2170
▁nav	-2171
▁exac	-2172
▁tard	-2173
tenido	-2174
damente	-2175
▁trataba	-2176
▁rápidamente	-2177
una	-2178
▁Bas	-2179
▁Cre	-2180
▁der	-2181
▁fan	-2182
▁sen	-2183
guien	-2184
▁mese	-2185
▁ofre	-2186
▁brazo	-2187
▁cambi	-2188
▁guard	-2189
▁Viernes	-2190
▁extraño	-2191
uró	-2192
▁enc	-2193
▁figu	-2194
▁hice	-2195
▁hubo	-2196
▁inci	-2197
▁roca	-2198
amento	-2199
▁carne	-2200
samente	-2201
▁hacerlo	-2202
jes	-2203
▁mía	-2204
▁cano	-2205
▁murm	-2206
▁sueño	-2207
▁alguno	-2208
▁partes	-2209
▁comenzó	-2210
oro	-2211
▁Cap	-2212
▁mara	-2213
▁hierro	-2214
▁meseta	-2215
ueva	-2216
cking	-2217
▁alta	-2218
▁difi	-2219
▁frío	-2220
▁simp	-2221
▁Henry	-2222
▁falta	-2223
▁salió	-2224
ckingham	-2225
▁principio	-2226
sie	-2227
dias	-2228
▁nar	-2229
▁voy	-2230
▁lago	-2231
▁opin	-2232
▁util	-2233
▁color	-2234
▁inten	-2235
▁servir	-2236
ár	-2237
land	-2238
ramo	-2239
rero	-2240
▁gas	-2241
▁arena	-2242
▁excel	-2243
▁frecu	-2244
▁desper	-2245
entamente	-2246
▁caballos	-2247
▁pronunci	-2248
▁necesario	-2249
vel	-2250
▁Lle	-2251
▁dul	-2252
ierno	-2253
▁miró	-2254
▁libre	-2255
▁debían	-2256
▁descen	-2257
▁ingles	-2258
▁peligros	-2259
▁Buckingham	-2260
uy	-2261
ria	-2262
▁cuest	-2263
▁deses	-2264
posición	-2265
▁maravil	-2266
▁alrededor	-2267
si	-2268
▁u	-2269
▁Sus	-2270
▁conv	-2271
▁prision	-2272
▁Capítulo	-2273
ritu	-2274
▁ras	-2275
radas	-2276
▁prue	-2277
▁morir	-2278
▁salud	-2279
▁Winter	-2280
▁enorme	-2281
▁páramo	-2282
ob	-2283
arla	-2284
gaba	-2285
gada	-2286
▁Pro	-2287
▁cad	-2288
▁épo	-2289
Quién	-2290
dieron	-2291
▁abrió	-2292
▁coche	-2293
▁nueva	-2294
▁perro	-2295
▁vivir	-2296
vamente	-2297
▁acababa	-2298
cto	-2299
udo	-2300
▁rap	-2301
▁Miss	-2302
▁olas	-2303
▁tono	-2304
▁abrir	-2305
ame	-2306
ell	-2307
uvi	-2308
▁»-	-2309
▁Gri	-2310
▁log	-2311
izado	-2312
▁gust	-2313
▁hijo	-2314
diendo	-2315
▁encan	-2316
▁larga	-2317
iamente	-2318
▁doctor	-2319
▁esfuer	-2320
▁pensaba	-2321
▁oscuridad	-2322
▁existencia	-2323
▁--¡	-2324
rados	-2325
▁Allí	-2326
▁acon	-2327
añadió	-2328
ándole	-2329
▁record	-2330
▁Sa	-2331
itas	-2332
▁Sta	-2333
▁vuelto	-2334
▁alguien	-2335
▁servicio	-2336
Si	-2337
▁vm	-2338
poco	-2339
tivos	-2340
▁escap	-2341
▁infer	-2342
mir	-2343
▁Ri	-2344
▁vel	-2345
▁ases	-2346
▁niña	-2347
emente	-2348
▁matar	-2349
▁detuvo	-2350
▁superior	-2351
Ya	-2352
sal	-2353
carse	-2354
▁admi	-2355
▁dice	-2356
▁pasó	-2357
▁causa	-2358
▁quiero	-2359
▁interes	-2360
tivamente	-2361
▁prosiguió	-2362
▁pál	-2363
eneas	-2364
▁Majes	-2365
▁prote	-2366
imeneas	-2367
▁contar	-2368
▁hermano	-2369
▁Majestad	-2370
▁encontraba	-2371
▁núm	-2372
▁pul	-2373
▁veo	-2374
tidos	-2375
▁refu	-2376
▁Señor	-2377
▁segura	-2378
ibilidad	-2379
minencia	-2380
▁reconocer	-2381
olas	-2382
▁Hans	-2383
▁abri	-2384
▁atre	-2385
▁lord	-2386
▁temb	-2387
▁prome	-2388
▁espada	-2389
amientos	-2390
▁Vuestra	-2391
▁fuerzas	-2392
▁dispuesto	-2393
▁hoy	-2394
ponía	-2395
▁iban	-2396
▁tren	-2397
▁globo	-2398
▁plata	-2399
▁propi	-2400
▁hubieran	-2401
▁3	-2402
--.	-2403
lés	-2404
deci	-2405
▁Mer	-2406
▁trata	-2407
▁antigu	-2408
▁contin	-2409
▁varios	-2410
▁estamos	-2411
▁seguida	-2412
▁segunda	-2413
▁Eminencia	-2414
▁respuesta	-2415
edo	-2416
▁ev	-2417
▁ór	-2418
ment	-2419
▁sois	-2420
▁vamos	-2421
▁cierta	-2422
▁escrib	-2423
▁seguía	-2424
▁interés	-2425
▁opinión	-2426
▁personas	-2427
▁mol	-2428
▁bols	-2429
▁enfer	-2430
▁menor	-2431
▁leguas	-2432
▁sentido	-2433
▁sonrisa	-2434
▁observar	-2435
óme	-2436
▁bre	-2437
▁oro	-2438
íritu	-2439
▁inte	-2440
▁sens	-2441
▁suce	-2442
▁cuyas	-2443
▁lluvi	-2444
iéndose	-2445
▁conver	-2446
▁alegría	-2447
▁escapar	-2448
▁levantó	-2449
Yo	-2450
ill	-2451
▁iz	-2452
cómo	-2453
▁nub	-2454
▁pró	-2455
▁caza	-2456
▁esco	-2457
▁pase	-2458
▁sign	-2459
▁Desde	-2460
▁cumpl	-2461
▁sentí	-2462
▁estación	-2463
▁Am	-2464
itor	-2465
▁dol	-2466
ambre	-2467
ecían	-2468
mento	-2469
▁deseo	-2470
▁miedo	-2471
▁dinero	-2472
▁imagin	-2473
▁inglés	-2474
▁número	-2475
▁consigu	-2476
▁derecho	-2477
▁adelante	-2478
▁lec	-2479
▁rom	-2480
▁bote	-2481
▁amena	-2482
▁ofici	-2483
▁detrás	-2484
▁desembar	-2485
▁haciendo	-2486
▁obstante	-2487
▁necesidad	-2488
▁perfectamente	-2489
Bu	-2490
▁ví	-2491
▁cur	-2492
▁fus	-2493
ceder	-2494
▁mani	-2495
▁calor	-2496
▁cuyos	-2497
▁difer	-2498
▁entró	-2499
▁igual	-2500
▁lanzó	-2501
▁suces	-2502
cientas	-2503
▁Estaba	-2504
▁tienen	-2505
▁dificultad	-2506
enos	-2507
eran	-2508
pedi	-2509
▁aum	-2510
▁min	-2511
torio	-2512
▁baja	-2513
▁desl	-2514
▁diab	-2515
▁reco	-2516
▁valor	-2517
▁época	-2518
▁libertad	-2519
▁costumbre	-2520
oma	-2521
paci	-2522
▁hun	-2523
▁pist	-2524
▁admir	-2525
▁arroj	-2526
▁concl	-2527
▁islote	-2528
▁propós	-2529
▁venido	-2530
▁volcán	-2531
▁espíritu	-2532
▁experiment	-2533
▁caz	-2534
▁mez	-2535
▁canoa	-2536
▁creía	-2537
▁madre	-2538
▁único	-2539
▁reserv	-2540
▁reconoci	-2541
▁responder	-2542
ju	-2543
▁ta	-2544
ctor	-2545
▁ahí	-2546
▁bon	-2547
▁flo	-2548
▁har	-2549
▁oyó	-2550
▁apara	-2551
▁coloc	-2552
▁habitu	-2553
▁partida	-2554
▁verdadero	-2555
et	-2556
▁adi	-2557
▁emo	-2558
▁pru	-2559
▁toc	-2560
ficio	-2561
▁noti	-2562
▁encen	-2563
▁punta	-2564
▁resto	-2565
▁subir	-2566
▁cambio	-2567
▁provis	-2568
stancias	-2569
▁hablaba	-2570
▁instrum	-2571
▁expresión	-2572
her	-2573
íos	-2574
▁18	-2575
▁Sur	-2576
viese	-2577
ducido	-2578
rol	-2579
Bien	-2580
tica	-2581
▁acep	-2582
▁arran	-2583
▁feliz	-2584
▁comida	-2585
▁varias	-2586
▁distingu	-2587
une	-2588
form	-2589
tadas	-2590
▁Sólo	-2591
▁semb	-2592
▁mitad	-2593
▁objeto	-2594
▁próxim	-2595
▁simple	-2596
▁cuestión	-2597
▁desgraci	-2598
ác	-2599
eso	-2600
▁Mrs	-2601
▁fij	-2602
▁ilum	-2603
encias	-2604
pleton	-2605
▁espec	-2606
▁pocas	-2607
▁puente	-2608
▁puerto	-2609
▁sencil	-2610
▁Francia	-2611
▁estable	-2612
▁general	-2613
▁salvajes	-2614
▁consiguiente	-2615
uras	-2616
▁cul	-2617
▁ley	-2618
manas	-2619
▁grito	-2620
▁contes	-2621
▁criado	-2622
▁secreto	-2623
▁tenemos	-2624
▁extraord	-2625
▁nie	-2626
▁tab	-2627
▁Para	-2628
▁marea	-2629
▁mater	-2630
▁peces	-2631
▁herido	-2632
▁siguió	-2633
abilidad	-2634
▁compañía	-2635
▁parecían	-2636
▁caballero	-2637
aya	-2638
▁Ke	-2639
tumb	-2640
vido	-2641
▁Gra	-2642
▁enf	-2643
▁fun	-2644
atura	-2645
▁cant	-2646
▁dign	-2647
▁digo	-2648
▁ésta	-2649
▁útil	-2650
▁abund	-2651
▁negro	-2652
▁compar	-2653
▁intent	-2654
▁pasaba	-2655
▁extraña	-2656
▁guardias	-2657
▁Stapleton	-2658
▁compañero	-2659
éc	-2660
alo	-2661
tur	-2662
▁mé	-2663
arles	-2664
lones	-2665
▁Eran	-2666
▁fría	-2667
▁sust	-2668
▁suyo	-2669
ientes	-2670
▁bueno	-2671
▁ignor	-2672
▁norte	-2673
▁tripu	-2674
▁anunci	-2675
▁parecer	-2676
ús	-2677
ped	-2678
▁ball	-2679
▁habrá	-2680
▁nueve	-2681
▁pueda	-2682
▁viejo	-2683
▁intelig	-2684
▁izquier	-2685
▁monstru	-2686
▁particular	-2687
▁corresponsal	-2688
erg	-2689
ezas	-2690
▁Aou	-2691
▁len	-2692
▁sold	-2693
▁Algun	-2694
▁clase	-2695
▁moles	-2696
▁centro	-2697
▁impaci	-2698
▁pueden	-2699
▁quedaba	-2700
▁pistolas	-2701
▁sorpresa	-2702
emb	-2703
mpa	-2704
▁cr	-2705
▁Per	-2706
▁pen	-2707
▁tur	-2708
essie	-2709
estad	-2710
▁huel	-2711
▁pose	-2712
▁quis	-2713
▁vela	-2714
▁temer	-2715
▁miraba	-2716
▁veinti	-2717
▁consegu	-2718
▁satisfac	-2719
▁pensamientos	-2720
▁circunstancias	-2721
ló	-2722
tig	-2723
fera	-2724
▁cel	-2725
▁ens	-2726
Dónde	-2727
Señor	-2728
▁apre	-2729
▁cole	-2730
▁come	-2731
▁fras	-2732
▁ejemp	-2733
cciones	-2734
▁acercó	-2735
▁tomado	-2736
▁consecu	-2737
▁manifes	-2738
▁condiciones	-2739
óm	-2740
ine	-2741
mon	-2742
éron	-2743
▁ama	-2744
▁fil	-2745
ibles	-2746
▁prisa	-2747
▁torno	-2748
▁Aouida	-2749
▁debajo	-2750
▁dirigió	-2751
▁espacio	-2752
tty	-2753
▁Fa	-2754
▁Ju	-2755
erra	-2756
▁bri	-2757
▁rum	-2758
denes	-2759
iores	-2760
▁vaci	-2761
▁Merced	-2762
▁partir	-2763
▁pregunta	-2764
tán	-2765
▁Po	-2766
tigo	-2767
▁ces	-2768
bamos	-2769
cados	-2770
tillo	-2771
▁llan	-2772
▁obli	-2773
gación	-2774
▁atrás	-2775
▁Bessie	-2776
▁inform	-2777
▁placer	-2778
▁quince	-2779
icia	-2780
ismo	-2781
ñado	-2782
óvil	-2783
ácter	-2784
▁masa	-2785
▁domin	-2786
▁descan	-2787
▁conocer	-2788
▁seguido	-2789
▁carácter	-2790
▁Chimeneas	-2791
▁suficiente	-2792
Ha	-2793
▁É	-2794
▁«¡	-2795
▁lág	-2796
▁abajo	-2797
▁gusto	-2798
▁divers	-2799
▁tenéis	-2800
▁mujeres	-2801
▁acostumb	-2802
▁habíamos	-2803
▁instantes	-2804
▁precisamente	-2805
rup	-2806
▁So	-2807
chel	-2808
osas	-2809
pera	-2810
▁ido	-2811
adura	-2812
▁apres	-2813
▁detal	-2814
▁mural	-2815
▁tanta	-2816
▁volun	-2817
▁hermosa	-2818
▁apareció	-2819
▁primeros	-2820
mado	-2821
▁Mor	-2822
▁has	-2823
éctri	-2824
▁prom	-2825
▁calma	-2826
▁corte	-2827
▁recom	-2828
▁total	-2829
▁venir	-2830
▁vigil	-2831
▁expres	-2832
▁inmens	-2833
▁sombra	-2834
▁Aquella	-2835
▁semejantes	-2836
▁Que	-2837
▁ren	-2838
▁sup	-2839
gunda	-2840
usión	-2841
zando	-2842
érica	-2843
▁cuán	-2844
▁ense	-2845
▁luna	-2846
uestos	-2847
▁impul	-2848
acífico	-2849
▁órdenes	-2850
▁tranquilo	-2851
▁mosquetero	-2852
gul	-2853
mós	-2854
▁fab	-2855
illos	-2856
▁atmós	-2857
▁botel	-2858
▁desar	-2859
▁gente	-2860
▁gesto	-2861
▁respe	-2862
▁sopor	-2863
▁árbol	-2864
ecieron	-2865
▁dejaba	-2866
▁perdon	-2867
▁contemp	-2868
▁muchacho	-2869
▁probable	-2870
▁propósito	-2871
▁resultado	-2872
az	-2873
art	-2874
cri	-2875
dico	-2876
▁mir	-2877
▁sop	-2878
▁sua	-2879
ental	-2880
▁Ketty	-2881
▁añadió	-2882
▁propor	-2883
▁submar	-2884
▁eléctri	-2885
▁hermana	-2886
▁tampoco	-2887
ví	-2888
Hab	-2889
iza	-2890
rio	-2891
èle	-2892
ares	-2893
kerv	-2894
rock	-2895
▁bru	-2896
▁cañ	-2897
▁pus	-2898
▁tir	-2899
▁debo	-2900
▁efec	-2901
▁pasa	-2902
▁adver	-2903
▁deber	-2904
▁libro	-2905
▁preca	-2906
▁tarea	-2907
▁prueba	-2908
kerville	-2909
▁llegada	-2910
▁evidente	-2911
▁realidad	-2912
▁recibido	-2913
▁Baskerville	-2914
icos	-2915
ques	-2916
▁línea	-2917
▁sumer	-2918
▁piedra	-2919
unegunda	-2920
eta	-2921
▁Ex	-2922
bust	-2923
ejas	-2924
eles	-2925
señor	-2926
▁cama	-2927
▁devor	-2928
▁navío	-2929
▁marido	-2930
Entonces	-2931
▁bosques	-2932
▁Pacífico	-2933
▁hicieron	-2934
▁Cunegunda	-2935
Ay	-2936
he	-2937
cis	-2938
▁tr	-2939
ioso	-2940
áron	-2941
▁Tam	-2942
forma	-2943
zaron	-2944
▁guía	-2945
▁mala	-2946
▁Adèle	-2947
▁arreg	-2948
▁mirar	-2949
▁pájar	-2950
▁rumbo	-2951
ventura	-2952
eramente	-2953
▁habrían	-2954
▁descubri	-2955
▁encontré	-2956
▁profundo	-2957
▁transcur	-2958
▁excelente	-2959
▁tempestad	-2960
▁fácilmente	-2961
▁tripulación	-2962
Mi	-2963
íg	-2964
enes	-2965
gust	-2966
oder	-2967
odía	-2968
▁ado	-2969
▁déb	-2970
▁relo	-2971
exclam	-2972
telero	-2973
oración	-2974
▁adelan	-2975
▁destru	-2976
▁ofreci	-2977
▁sumerg	-2978
▁terren	-2979
▁llevado	-2980
▁importante	-2981
▁z	-2982
aso	-2983
cés	-2984
ozco	-2985
rump	-2986
uela	-2987
▁beb	-2988
▁fle	-2989
▁juz	-2990
▁sem	-2991
itado	-2992
zones	-2993
▁eleg	-2994
▁vivo	-2995
▁arrib	-2996
▁habia	-2997
▁tales	-2998
▁espantos	-2999
▁encuentro	-3000
▁U	-3001
Así	-3002
pió	-3003
uez	-3004
ólv	-3005
abor	-3006
vuel	-3007
▁Sal	-3008
▁dud	-3009
pongo	-3010
▁cayó	-3011
▁crim	-3012
▁laca	-3013
▁novi	-3014
▁Tenía	-3015
▁asust	-3016
▁dando	-3017
▁encer	-3018
▁aprove	-3019
▁permit	-3020
▁salida	-3021
▁acuerdo	-3022
▁conocía	-3023
▁mirando	-3024
▁cantidad	-3025
▁pregunté	-3026
▁izquierda	-3027
▁embarcación	-3028
fax	-3029
sos	-3030
▁Ap	-3031
▁ná	-3032
maud	-3033
tran	-3034
▁Nos	-3035
▁hue	-3036
▁pien	-3037
terrán	-3038
▁campo	-3039
▁dolor	-3040
▁vigor	-3041
▁anterior	-3042
icas	-3043
teci	-3044
▁pin	-3045
▁jard	-3046
▁pier	-3047
ólvora	-3048
▁capaz	-3049
▁capri	-3050
▁conci	-3051
▁llama	-3052
▁milla	-3053
▁gentil	-3054
▁hambre	-3055
▁Grimaud	-3056
▁detener	-3057
▁paredes	-3058
▁vestido	-3059
▁montañas	-3060
▁agradable	-3061
▁ped	-3062
atson	-3063
irfax	-3064
tanto	-3065
▁adiv	-3066
▁fabri	-3067
▁resol	-3068
▁correr	-3069
▁estudi	-3070
▁expedi	-3071
▁pólvora	-3072
▁bolsillo	-3073
▁observación	-3074
Le	-3075
tus	-3076
iosa	-3077
▁bur	-3078
▁due	-3079
▁gig	-3080
izada	-3081
▁cuch	-3082
▁esté	-3083
▁despe	-3084
▁llevó	-3085
▁pocos	-3086
▁relig	-3087
eratura	-3088
▁Watson	-3089
▁aument	-3090
▁precau	-3091
▁tratar	-3092
▁América	-3093
▁Fairfax	-3094
▁llegaron	-3095
▁vuestros	-3096
».	-3097
▁“	-3098
Una	-3099
var	-3100
acam	-3101
iría	-3102
▁San	-3103
rimas	-3104
▁Nada	-3105
▁afir	-3106
▁cuel	-3107
▁enga	-3108
termin	-3109
▁alter	-3110
▁canal	-3111
▁influ	-3112
▁pecho	-3113
▁lluvia	-3114
▁completo	-3115
▁comunica	-3116
bli	-3117
iré	-3118
▁Ma	-3119
▁ga	-3120
▁oy	-3121
edor	-3122
▁Hay	-3123
▁cort	-3124
▁repi	-3125
▁Norte	-3126
▁capas	-3127
▁imper	-3128
▁lleno	-3129
▁vieja	-3130
▁Martin	-3131
▁import	-3132
▁lágrimas	-3133
▁abandonar	-3134
▁hostelero	-3135
▁desaparecido	-3136
Cre	-3137
Sin	-3138
cal	-3139
▁fo	-3140
▁éx	-3141
▁fui	-3142
estra	-3143
▁fati	-3144
▁míos	-3145
▁prol	-3146
hombre	-3147
▁Todos	-3148
▁rodil	-3149
▁sabéis	-3150
osamente	-3151
▁aquello	-3152
▁quienes	-3153
▁posición	-3154
▁recuerdo	-3155
▁frecuencia	-3156
▁disposición	-3157
ini	-3158
▁us	-3159
ervi	-3160
onio	-3161
▁sig	-3162
Bueno	-3163
caron	-3164
▁chal	-3165
▁inex	-3166
▁obra	-3167
▁pese	-3168
▁repe	-3169
render	-3170
riendo	-3171
▁Buena	-3172
▁claro	-3173
▁conse	-3174
▁coron	-3175
▁grano	-3176
▁inves	-3177
▁lecho	-3178
▁apoder	-3179
▁cuello	-3180
▁hablado	-3181
▁latitud	-3182
▁rapidez	-3183
▁mantener	-3184
▁señorita	-3185
▁posibilidad	-3186
—,	-3187
cor	-3188
iar	-3189
Vaya	-3190
bles	-3191
▁carb	-3192
▁dici	-3193
▁peso	-3194
▁acaso	-3195
▁baron	-3196
▁espal	-3197
▁pensé	-3198
▁venía	-3199
andante	-3200
▁blanco	-3201
▁instal	-3202
▁deseaba	-3203
▁inmóvil	-3204
▁recuper	-3205
eld	-3206
▁Mon	-3207
▁lla	-3208
cando	-3209
tarme	-3210
▁alar	-3211
▁cans	-3212
▁diam	-3213
▁tuve	-3214
tiendo	-3215
▁breve	-3216
▁demos	-3217
▁ejecu	-3218
iciones	-3219
▁confes	-3220
▁estrel	-3221
▁madera	-3222
▁naufra	-3223
▁salido	-3224
▁dientes	-3225
▁montaña	-3226
▁estrecho	-3227
▁confianza	-3228
▁gentilhombre	-3229
Eso	-3230
lin	-3231
stas	-3232
zada	-3233
▁Bar	-3234
▁actu	-3235
▁empu	-3236
▁gris	-3237
osidad	-3238
▁balsa	-3239
▁grave	-3240
▁reloj	-3241
▁repar	-3242
▁arriba	-3243
▁propio	-3244
▁derecha	-3245
▁poderos	-3246
▁desesper	-3247
▁ventanas	-3248
▁desgracia	-3249
▁incidente	-3250
Al	-3251
cé	-3252
año	-3253
▁Fue	-3254
▁sob	-3255
▁vac	-3256
cable	-3257
▁once	-3258
▁susp	-3259
▁compr	-3260
▁exces	-3261
▁volví	-3262
▁costas	-3263
▁horror	-3264
▁motivo	-3265
icamente	-3266
▁signifi	-3267
▁ustedes	-3268
▁ocurrido	-3269
▁terminado	-3270
▁comandante	-3271
cta	-3272
ger	-3273
gri	-3274
imen	-3275
onal	-3276
caban	-3277
▁Euro	-3278
▁añad	-3279
▁dama	-3280
▁llor	-3281
dencia	-3282
fortun	-3283
▁conoc	-3284
▁camaro	-3285
▁propia	-3286
▁siendo	-3287
▁volvía	-3288
▁aparato	-3289
▁alcanzar	-3290
▁singular	-3291
gon	-3292
▁Lu	-3293
▁Os	-3294
cina	-3295
▁Eso	-3296
▁Pas	-3297
▁aus	-3298
▁ind	-3299
▁sól	-3300
▁vag	-3301
▁van	-3302
▁adop	-3303
▁alim	-3304
▁edad	-3305
▁poli	-3306
▁sole	-3307
▁vege	-3308
iencia	-3309
ómetro	-3310
▁autor	-3311
▁hielo	-3312
▁islas	-3313
▁temor	-3314
▁medida	-3315
caciones	-3316
▁francés	-3317
▁galería	-3318
▁magnífi	-3319
▁explicar	-3320
▁viajeros	-3321
▁operación	-3322
▁temperatura	-3323
su	-3324
boc	-3325
itó	-3326
lad	-3327
caso	-3328
omos	-3329
unque	-3330
venes	-3331
zaban	-3332
▁aver	-3333
▁exig	-3334
▁cabel	-3335
▁debido	-3336
▁impres	-3337
▁abierto	-3338
▁hombros	-3339
▁ninguno	-3340
▁piedras	-3341
▁pudiese	-3342
▁recibir	-3343
▁desarrol	-3344
▁atmósfera	-3345
▁abandonado	-3346
▁sentimiento	-3347
Di	-3348
pó	-3349
jaba	-3350
tores	-3351
umeros	-3352
▁ambos	-3353
▁espes	-3354
▁excep	-3355
▁monte	-3356
▁pasaj	-3357
▁razon	-3358
▁silla	-3359
▁vícti	-3360
▁Europa	-3361
▁guerra	-3362
▁hechos	-3363
▁hombro	-3364
▁emoción	-3365
▁hacerse	-3366
▁llegaba	-3367
▁ocurrió	-3368
▁quedado	-3369
▁queréis	-3370
▁sombrero	-3371
▁reflexion	-3372
eme	-3373
úbi	-3374
▁Co	-3375
▁Ni	-3376
dían	-3377
▁Com	-3378
▁cen	-3379
▁cho	-3380
▁cól	-3381
field	-3382
▁faci	-3383
▁llen	-3384
▁dieci	-3385
▁nubes	-3386
exclamé	-3387
▁estuvo	-3388
▁juntos	-3389
▁repres	-3390
ctamente	-3391
▁Charles	-3392
▁Francis	-3393
▁claridad	-3394
▁seguridad	-3395
00	-3396
ció	-3397
lós	-3398
ída	-3399
▁Ar	-3400
encé	-3401
irar	-3402
stos	-3403
▁bah	-3404
▁gar	-3405
deste	-3406
iebre	-3407
ráter	-3408
▁Pang	-3409
▁orig	-3410
▁pena	-3411
▁sala	-3412
▁devol	-3413
▁haría	-3414
▁intro	-3415
▁pensó	-3416
▁rayos	-3417
▁blanca	-3418
▁declar	-3419
▁descar	-3420
▁gritos	-3421
▁tantas	-3422
▁Panglós	-3423
▁ingleses	-3424
▁profunda	-3425
▁impresión	-3426
▁siguiendo	-3427
!,	-3428
inó	-3429
...,	-3430
enda	-3431
onia	-3432
tera	-3433
▁Jup	-3434
▁Más	-3435
▁afec	-3436
▁dibu	-3437
▁fres	-3438
▁impe	-3439
▁líqu	-3440
éramos	-3441
óvenes	-3442
▁Hasta	-3443
▁Nueva	-3444
▁comba	-3445
▁doble	-3446
▁nervi	-3447
▁orgul	-3448
▁sacar	-3449
▁cráter	-3450
▁instru	-3451
▁terror	-3452
▁triste	-3453
▁aliment	-3454
▁entrada	-3455
▁plantas	-3456
▁vapores	-3457
▁camarote	-3458
▁regresar	-3459
▁violencia	-3460
▁volvieron	-3461
▁absolutamente	-3462
lio	-3463
▁Él	-3464
▁tim	-3465
gadas	-3466
jeron	-3467
timer	-3468
íamos	-3469
▁humo	-3470
▁some	-3471
iertos	-3472
▁débil	-3473
▁enseñ	-3474
▁litor	-3475
▁obstá	-3476
▁ramas	-3477
▁cólera	-3478
▁meridi	-3479
▁jóvenes	-3480
▁persegu	-3481
▁escuchar	-3482
▁solamente	-3483
▁pensamiento	-3484
▁satisfacción	-3485
ám	-3486
▁Th	-3487
▁be	-3488
ende	-3489
loso	-3490
ribu	-3491
▁Vol	-3492
▁gén	-3493
chado	-3494
gados	-3495
gando	-3496
visto	-3497
▁avis	-3498
▁colo	-3499
▁peda	-3500
aremos	-3501
imenea	-3502
ombres	-3503
▁quiso	-3504
▁salvo	-3505
▁ciento	-3506
▁náufra	-3507
▁escrito	-3508
▁necesar	-3509
▁numeros	-3510
▁palacio	-3511
▁diciendo	-3512
▁gigantes	-3513
Ten	-3514
bor	-3515
▁aba	-3516
▁ast	-3517
▁cál	-3518
▁pad	-3519
yendo	-3520
▁casu	-3521
▁suya	-3522
observ	-3523
ribles	-3524
▁Hacia	-3525
▁caído	-3526
▁darle	-3527
▁deten	-3528
▁corría	-3529
▁cuerda	-3530
▁explor	-3531
▁policía	-3532
▁presión	-3533
▁chimenea	-3534
▁esfuerzo	-3535
▁parecido	-3536
▁respecto	-3537
▁intención	-3538
▁interrump	-3539
▁expedición	-3540
▁plataforma	-3541
▁descubierto	-3542
▁Buenaventura	-3543
––	-3544
lice	-3545
para	-3546
pero	-3547
puse	-3548
▁Tal	-3549
▁alo	-3550
▁––¿	-3551
lares	-3552
▁elem	-3553
▁leer	-3554
▁mand	-3555
▁opor	-3556
▁tron	-3557
▁viva	-3558
inario	-3559
tusias	-3560
▁discu	-3561
▁mente	-3562
▁nieve	-3563
▁triun	-3564
▁arroyo	-3565
▁felici	-3566
▁litoral	-3567
▁piragua	-3568
▁tendría	-3569
▁desemboc	-3570
▁entusias	-3571
▁voluntad	-3572
▁proporcion	-3573
tró	-3574
▁vo	-3575
▁Rey	-3576
▁fen	-3577
▁pra	-3578
▁sep	-3579
▁vís	-3580
esión	-3581
iéndo	-3582
zados	-3583
▁acus	-3584
▁apag	-3585
▁bahía	-3586
▁dulce	-3587
▁retro	-3588
▁gentes	-3589
▁puntos	-3590
ferencia	-3591
▁dejando	-3592
▁faltaba	-3593
▁guardia	-3594
▁interro	-3595
▁llamaba	-3596
▁muralla	-3597
▁últimos	-3598
▁Mortimer	-3599
▁determin	-3600
▁hallaban	-3601
▁inferior	-3602
▁descubrir	-3603
▁sentimientos	-3604
▁k	-3605
pes	-3606
yun	-3607
▁Gu	-3608
▁Pa	-3609
more	-3610
▁ape	-3611
▁ord	-3612
arnos	-3613
estro	-3614
ésped	-3615
▁ayer	-3616
▁naci	-3617
▁pico	-3618
▁puse	-3619
minist	-3620
▁brick	-3621
▁busca	-3622
▁escol	-3623
▁recob	-3624
tándose	-3625
▁figura	-3626
▁humana	-3627
▁inspec	-3628
▁menudo	-3629
▁asombro	-3630
▁importa	-3631
▁invierno	-3632
▁lentamente	-3633
olo	-3634
▁hé	-3635
tuga	-3636
garse	-3637
quina	-3638
▁Creo	-3639
▁Mary	-3640
▁aves	-3641
▁paci	-3642
▁Paris	-3643
▁mismos	-3644
▁repente	-3645
▁constitu	-3646
▁cualquiera	-3647
cid	-3648
cón	-3649
sen	-3650
▁XX	-3651
Para	-3652
aros	-3653
▁cla	-3654
▁don	-3655
▁tin	-3656
tilla	-3657
▁cima	-3658
▁dedi	-3659
iertas	-3660
▁echar	-3661
▁memor	-3662
▁repro	-3663
▁techo	-3664
▁cocina	-3665
▁evitar	-3666
▁exclam	-3667
▁lengua	-3668
▁nuevas	-3669
▁antiguo	-3670
▁huellas	-3671
▁cuidados	-3672
▁millones	-3673
▁momentos	-3674
▁rodillas	-3675
▁comenzaba	-3676
▁verdadera	-3677
▁provisiones	-3678
▁extraordinar	-3679
",	-3680
añ	-3681
ope	-3682
rón	-3683
bern	-3684
cera	-3685
etas	-3686
iden	-3687
igos	-3688
jada	-3689
ress	-3690
▁pañ	-3691
didas	-3692
tivas	-3693
▁arri	-3694
▁detu	-3695
▁pais	-3696
▁piso	-3697
rymore	-3698
▁acord	-3699
▁banco	-3700
▁casco	-3701
▁divis	-3702
▁paseo	-3703
▁libros	-3704
▁llegué	-3705
▁regist	-3706
▁visita	-3707
▁preocup	-3708
▁víspera	-3709
▁producir	-3710
▁proyecto	-3711
▁quisiera	-3712
▁estuviera	-3713
▁proyectos	-3714
▁continente	-3715
▁sorprendido	-3716
.,	-3717
ale	-3718
tín	-3719
▁Ve	-3720
cero	-3721
difi	-3722
ines	-3723
quél	-3724
sted	-3725
áver	-3726
▁zon	-3727
forme	-3728
manos	-3729
▁Está	-3730
▁amer	-3731
▁rato	-3732
▁sacó	-3733
▁Thorn	-3734
▁altas	-3735
▁cogió	-3736
▁oblig	-3737
▁pedir	-3738
▁tamaño	-3739
▁Algunos	-3740
▁También	-3741
▁aventur	-3742
▁cadáver	-3743
▁enemigo	-3744
▁replicó	-3745
▁detalles	-3746
cent	-3747
jero	-3748
tara	-3749
▁ses	-3750
dores	-3751
gamos	-3752
tería	-3753
▁ejer	-3754
acambo	-3755
▁Frank	-3756
▁curso	-3757
▁energ	-3758
▁españ	-3759
▁hacen	-3760
▁ideas	-3761
▁nivel	-3762
▁sacri	-3763
▁éxito	-3764
replicó	-3765
▁acción	-3766
▁agente	-3767
▁desliz	-3768
▁largas	-3769
▁Cacambo	-3770
▁descans	-3771
▁ejemplo	-3772
▁formaba	-3773
▁podemos	-3774
▁refugio	-3775
▁aconteci	-3776
▁transpor	-3777
▁Thornfield	-3778
▁movimientos	-3779
abo	-3780
▁pú	-3781
rera	-3782
tres	-3783
ácti	-3784
▁Tom	-3785
erson	-3786
raban	-3787
ronna	-3788
venir	-3789
▁Aust	-3790
▁niño	-3791
▁vaso	-3792
ineros	-3793
▁Vamos	-3794
▁estim	-3795
▁pendi	-3796
▁provo	-3797
▁salía	-3798
▁única	-3799
observó	-3800
▁Aronna	-3801
▁anillo	-3802
▁recuer	-3803
▁restos	-3804
▁traves	-3805
▁desayun	-3806
▁objetos	-3807
▁oficial	-3808
▁regreso	-3809
▁resplan	-3810
inalmente	-3811
▁exterior	-3812
▁habitual	-3813
▁primeras	-3814
▁realmente	-3815
▁curiosidad	-3816
arra	-3817
▁dor	-3818
▁emb	-3819
▁lin	-3820
sidad	-3821
untos	-3822
▁huir	-3823
▁peor	-3824
▁ángu	-3825
▁acaba	-3826
▁creyó	-3827
▁depós	-3828
▁error	-3829
▁fenóm	-3830
▁firme	-3831
▁incon	-3832
▁queda	-3833
▁gobern	-3834
▁jardín	-3835
▁lament	-3836
▁llamar	-3837
▁proced	-3838
▁Aronnax	-3839
▁cristal	-3840
▁espectá	-3841
▁llamado	-3842
▁murmuró	-3843
▁corredor	-3844
▁atravesar	-3845
▁conveniente	-3846
má	-3847
▁4	-3848
dón	-3849
lán	-3850
xel	-3851
icio	-3852
iste	-3853
vado	-3854
▁Fer	-3855
▁fru	-3856
chaba	-3857
ticas	-3858
tubre	-3859
▁apli	-3860
▁cena	-3861
▁muro	-3862
▁rinc	-3863
▁torm	-3864
▁Reina	-3865
▁Vista	-3866
▁adqui	-3867
▁facil	-3868
▁justo	-3869
▁llamó	-3870
▁testi	-3871
▁visit	-3872
▁apreci	-3873
▁buenos	-3874
▁conclu	-3875
▁despre	-3876
▁formid	-3877
▁hacían	-3878
▁negros	-3879
▁oscuro	-3880
▁prácti	-3881
▁quiera	-3882
▁miradas	-3883
▁octubre	-3884
▁produjo	-3885
▁salvaje	-3886
▁suponer	-3887
▁terreno	-3888
▁contener	-3889
▁criatura	-3890
▁enemigos	-3891
▁horrible	-3892
▁Barrymore	-3893
▁estábamos	-3894
▁preguntar	-3895
▁necesitaba	-3896
▁nuevamente	-3897
▁permanecer	-3898
▁imaginación	-3899
▁importancia	-3900
▁instrumentos	-3901
▁desembocadura	-3902
▁evidentemente	-3903
hab	-3904
ler	-3905
lón	-3906
pone	-3907
▁fer	-3908
▁lej	-3909
▁Aquí	-3910
▁agit	-3911
▁anci	-3912
▁azul	-3913
▁futu	-3914
▁inde	-3915
▁indu	-3916
▁ruta	-3917
▁bajar	-3918
▁bella	-3919
▁común	-3920
▁frase	-3921
▁hecha	-3922
▁miemb	-3923
▁reson	-3924
▁abrigo	-3925
▁desvan	-3926
▁semana	-3927
▁terres	-3928
videncia	-3929
▁oportun	-3930
▁orillas	-3931
▁presidi	-3932
▁semanas	-3933
▁víctima	-3934
▁pequeños	-3935
▁Entretanto	-3936
▁campamento	-3937
▁influencia	-3938
▁impaciencia	-3939
mur	-3940
tid	-3941
▁At	-3942
dría	-3943
lada	-3944
▁Cal	-3945
▁Res	-3946
▁Tra	-3947
▁ais	-3948
▁oía	-3949
▁plu	-3950
lesia	-3951
rarse	-3952
tales	-3953
▁Sher	-3954
▁docu	-3955
▁echó	-3956
▁erup	-3957
▁fiel	-3958
▁rojo	-3959
▁veng	-3960
▁conce	-3961
▁excur	-3962
▁humil	-3963
▁Aunque	-3964
▁cortar	-3965
▁grados	-3966
▁género	-3967
▁quando	-3968
▁comencé	-3969
▁mansión	-3970
▁partido	-3971
▁habiendo	-3972
▁desconoci	-3973
▁represent	-3974
▁permaneció	-3975
Des	-3976
iva	-3977
oda	-3978
Cuál	-3979
Dios	-3980
adme	-3981
iere	-3982
lock	-3983
minu	-3984
ueso	-3985
▁--¿	-3986
▁Tor	-3987
▁cau	-3988
▁Bien	-3989
▁Tras	-3990
▁apos	-3991
▁perf	-3992
▁proa	-3993
▁ropa	-3994
▁sacu	-3995
rieron	-3996
▁Tabor	-3997
▁lumin	-3998
▁traje	-3999
▁trist	-4000
▁verlo	-4001
▁abierta	-4002
▁decirlo	-4003
▁noticia	-4004
▁pusieron	-4005
▁recorrido	-4006
▁directamente	-4007
▁probablemente	-4008
▁profundidades	-4009
aja	-4010
drá	-4011
▁té	-4012
cito	-4013
ejos	-4014
grad	-4015
uros	-4016
▁Ese	-4017
▁ano	-4018
▁red	-4019
▁tía	-4020
▁uni	-4021
arlos	-4022
laban	-4023
▁dedo	-4024
▁rean	-4025
▁grupo	-4026
▁infin	-4027
▁Rivers	-4028
▁arries	-4029
▁instin	-4030
▁relato	-4031
▁sentado	-4032
▁tuviera	-4033
▁olvidado	-4034
▁pequeñas	-4035
▁travesía	-4036
▁cristales	-4037
▁comunicación	-4038
amb	-4039
▁Ab	-4040
▁ig	-4041
▁Dos	-4042
▁Lou	-4043
▁fac	-4044
▁fir	-4045
Vamos	-4046
tamos	-4047
▁Medi	-4048
▁arma	-4049
▁exci	-4050
▁flor	-4051
▁grav	-4052
▁pesc	-4053
▁piel	-4054
▁veci	-4055
Porque	-4056
uestro	-4057
▁Quizá	-4058
▁carro	-4059
▁daban	-4060
▁digno	-4061
▁final	-4062
▁repos	-4063
▁decidí	-4064
▁extrem	-4065
▁noches	-4066
▁traído	-4067
ivamente	-4068
▁decirme	-4069
▁frances	-4070
▁generos	-4071
▁obtener	-4072
▁piratas	-4073
▁regular	-4074
▁Sherlock	-4075
▁contestó	-4076
▁cubierta	-4077
▁ocasiones	-4078
▁espectáculo	-4079
▁presidiarios	-4080
au	-4081
cí	-4082
ian	-4083
ila	-4084
Esto	-4085
cial	-4086
tást	-4087
▁alf	-4088
▁alm	-4089
▁mun	-4090
▁base	-4091
▁cola	-4092
▁cuál	-4093
▁hija	-4094
▁tipo	-4095
▁turb	-4096
tillas	-4097
▁Diana	-4098
▁adent	-4099
▁aquél	-4100
▁brisa	-4101
▁golfo	-4102
▁recur	-4103
▁vivía	-4104
▁ánimo	-4105
▁Apenas	-4106
▁acerca	-4107
▁carbón	-4108
▁espera	-4109
▁extran	-4110
▁medios	-4111
▁sintió	-4112
▁tantos	-4113
▁decirle	-4114
▁describ	-4115
▁memoria	-4116
▁satisfe	-4117
▁soldados	-4118
▁inquietud	-4119
▁caballeros	-4120
int	-4121
íme	-4122
▁16	-4123
▁za	-4124
anes	-4125
gata	-4126
pens	-4127
▁ori	-4128
▁tus	-4129
inada	-4130
tario	-4131
taría	-4132
▁Mist	-4133
▁aber	-4134
▁desn	-4135
▁espl	-4136
▁lava	-4137
▁pelo	-4138
▁súbi	-4139
▁colum	-4140
▁fusil	-4141
▁marzo	-4142
▁negra	-4143
▁viene	-4144
▁aguard	-4145
▁alegre	-4146
▁pálido	-4147
▁romper	-4148
▁alcance	-4149
▁conozco	-4150
▁destino	-4151
antemente	-4152
▁decidido	-4153
▁especial	-4154
▁formaban	-4155
▁justicia	-4156
▁prudente	-4157
▁recomend	-4158
▁venganza	-4159
▁vestidos	-4160
▁corriendo	-4161
▁noviembre	-4162
▁pasajeros	-4163
▁principal	-4164
▁tranquila	-4165
▁vivamente	-4166
▁consecuencia	-4167
ím	-4168
ecí	-4169
ona	-4170
áce	-4171
▁Is	-4172
▁Mu	-4173
▁fl	-4174
Cuán	-4175
quen	-4176
selo	-4177
táce	-4178
▁lám	-4179
▁mue	-4180
▁tér	-4181
cioso	-4182
lando	-4183
▁abra	-4184
▁elec	-4185
mentos	-4186
▁Esper	-4187
▁ampli	-4188
▁borde	-4189
▁caver	-4190
▁cueva	-4191
▁despa	-4192
▁hojas	-4193
▁obras	-4194
▁oeste	-4195
▁prodi	-4196
▁velas	-4197
▁acento	-4198
▁humano	-4199
▁modifi	-4200
▁salvado	-4201
▁comprome	-4202
▁trabajos	-4203
▁Providencia	-4204
▁conocimiento	-4205
▁profundamente	-4206
jó	-4207
chó	-4208
uss	-4209
dito	-4210
imas	-4211
ison	-4212
réis	-4213
▁Rec	-4214
▁bro	-4215
▁edi	-4216
▁hura	-4217
ándolo	-4218
▁Saint	-4219
▁halla	-4220
▁melan	-4221
▁señas	-4222
▁amante	-4223
terráneo	-4224
▁mineral	-4225
▁prisión	-4226
▁puertas	-4227
▁traslad	-4228
▁contenía	-4229
▁desierto	-4230
▁especies	-4231
▁hubiesen	-4232
▁imaginar	-4233
▁mediodía	-4234
▁pensando	-4235
▁regiones	-4236
▁diciembre	-4237
▁encuentra	-4238
▁preguntas	-4239
▁habitantes	-4240
cla	-4241
sas	-4242
▁15	-4243
Está	-4244
rier	-4245
▁azu	-4246
▁bes	-4247
▁div	-4248
▁feb	-4249
▁háb	-4250
▁pec	-4251
▁sel	-4252
raron	-4253
vista	-4254
▁irre	-4255
diente	-4256
entado	-4257
tencia	-4258
▁manio	-4259
▁seres	-4260
▁verme	-4261
▁conden	-4262
▁prefer	-4263
▁tienes	-4264
▁vieron	-4265
▁belleza	-4266
▁huésped	-4267
▁desapareció	-4268
III	-4269
río	-4270
▁ago	-4271
▁pob	-4272
▁rem	-4273
▁vir	-4274
anzas	-4275
inete	-4276
leman	-4277
orado	-4278
ticos	-4279
yeron	-4280
ámara	-4281
▁auda	-4282
▁azar	-4283
▁brus	-4284
▁caja	-4285
pación	-4286
rumpió	-4287
▁carac	-4288
▁dueño	-4289
▁empal	-4290
▁enorm	-4291
▁juego	-4292
▁refer	-4293
▁retor	-4294
▁salto	-4295
▁somos	-4296
▁colina	-4297
▁compla	-4298
▁escena	-4299
▁insist	-4300
▁viendo	-4301
▁asuntos	-4302
▁botella	-4303
▁ciencia	-4304
▁inmensa	-4305
▁permiti	-4306
▁conocido	-4307
▁cuchillo	-4308
▁hablando	-4309
▁miembros	-4310
▁monseñor	-4311
▁pudieron	-4312
▁documento	-4313
▁esperando	-4314
),	-4315
ah	-4316
ide	-4317
ógi	-4318
▁Ob	-4319
aran	-4320
▁gab	-4321
uesos	-4322
▁arti	-4323
▁haré	-4324
▁loco	-4325
▁send	-4326
▁suma	-4327
ompren	-4328
ornada	-4329
▁dedos	-4330
▁tenga	-4331
▁Porque	-4332
▁estáis	-4333
▁futuro	-4334
▁permis	-4335
▁armados	-4336
▁diablos	-4337
▁disminu	-4338
▁tierras	-4339
▁monstruo	-4340
▁esfuerzos	-4341
▁naufragio	-4342
▁doscientos	-4343
▁observaciones	-4344
▁tranquilamente	-4345
!»	-4346
Ex	-4347
mó	-4348
–;	-4349
▁6	-4350
just	-4351
paña	-4352
▁Deb	-4353
▁Fal	-4354
▁Pre	-4355
▁bib	-4356
▁sul	-4357
brock	-4358
cadas	-4359
gritó	-4360
tiene	-4361
▁haga	-4362
▁Antes	-4363
▁Atlán	-4364
▁París	-4365
▁bille	-4366
▁carre	-4367
▁gritó	-4368
cionado	-4369
▁dormir	-4370
▁escope	-4371
▁herida	-4372
▁largos	-4373
loración	-4374
▁estaría	-4375
▁formado	-4376
▁hacerme	-4377
▁iglesia	-4378
▁inmenso	-4379
▁pañuelo	-4380
▁visitar	-4381
▁entender	-4382
▁presente	-4383
▁marineros	-4384
▁comprendió	-4385
▁explicación	-4386
▁7	-4387
abe	-4388
egu	-4389
lia	-4390
ork	-4391
reb	-4392
▁et	-4393
▁ín	-4394
Nada	-4395
ctos	-4396
gram	-4397
tifi	-4398
▁dan	-4399
▁ele	-4400
▁gob	-4401
▁mam	-4402
▁pér	-4403
iloto	-4404
liote	-4405
▁Rojo	-4406
▁York	-4407
▁ahor	-4408
▁apun	-4409
▁aten	-4410
▁aust	-4411
▁bala	-4412
chenta	-4413
▁Liden	-4414
▁andar	-4415
▁barro	-4416
▁camin	-4417
▁coger	-4418
▁llena	-4419
▁lleva	-4420
▁perci	-4421
▁resca	-4422
uestras	-4423
▁Ingram	-4424
▁Mosque	-4425
▁barcos	-4426
▁milord	-4427
▁ocupar	-4428
▁pareci	-4429
▁precio	-4430
▁proble	-4431
▁ángulo	-4432
▁colonia	-4433
▁criados	-4434
▁debemos	-4435
▁impedir	-4436
▁mejores	-4437
▁pájaros	-4438
▁completa	-4439
▁conducir	-4440
▁contempl	-4441
▁resistir	-4442
▁estuviese	-4443
▁miserable	-4444
▁reconoció	-4445
▁Lidenbrock	-4446
▁casualidad	-4447
▁probabilidad	-4448
--	-4449
gü	-4450
▁Fu	-4451
▁Vi	-4452
▁ge	-4453
ecen	-4454
esta	-4455
inal	-4456
piro	-4457
▁Cas	-4458
▁ace	-4459
▁sum	-4460
▁vin	-4461
chero	-4462
lamos	-4463
tiles	-4464
▁Deci	-4465
▁hará	-4466
▁ment	-4467
▁vaya	-4468
radora	-4469
éndome	-4470
▁Estos	-4471
▁Estoy	-4472
▁desen	-4473
▁escon	-4474
▁jugar	-4475
▁lucha	-4476
▁moder	-4477
▁traer	-4478
▁advers	-4479
▁empezó	-4480
▁gracia	-4481
▁cazador	-4482
▁ciertos	-4483
▁haberse	-4484
▁razones	-4485
▁últimas	-4486
▁Franklin	-4487
▁aventura	-4488
▁bibliote	-4489
▁cubierto	-4490
▁desagrad	-4491
▁misterio	-4492
▁obligado	-4493
▁supuesto	-4494
▁salvación	-4495
▁claramente	-4496
▁presentaba	-4497
▁totalmente	-4498
▁únicamente	-4499
▁prisioneros	-4500
Su	-4501
▁5	-4502
--,	-4503
vre	-4504
isas	-4505
tase	-4506
teza	-4507
▁Señ	-4508
▁dob	-4509
▁hil	-4510
Ahora	-4511
ciosa	-4512
tenta	-4513
▁Abra	-4514
▁Axel	-4515
▁acog	-4516
▁empe	-4517
▁maqu	-4518
▁nego	-4519
▁odio	-4520
▁pozo	-4521
▁reno	-4522
▁vale	-4523
▁vano	-4524
lantes	-4525
▁apren	-4526
▁basta	-4527
▁incor	-4528
▁invit	-4529
▁molus	-4530
▁proce	-4531
▁sonre	-4532
▁supli	-4533
▁buenas	-4534
▁cetáce	-4535
▁consul	-4536
▁corrió	-4537
▁enferm	-4538
▁existe	-4539
▁pobres	-4540
▁preten	-4541
▁fragata	-4542
▁muertos	-4543
▁próxima	-4544
▁temblor	-4545
▁mistress	-4546
▁aparición	-4547
▁magnífico	-4548
▁producido	-4549
▁transform	-4550
▁convencido	-4551
▁gobernador	-4552
▁exploración	-4553
▁considerable	-4554
chi	-4555
iró	-4556
yre	-4557
▁Ga	-4558
▁có	-4559
azin	-4560
odos	-4561
reza	-4562
▁tum	-4563
siones	-4564
▁bolsa	-4565
▁cerró	-4566
▁grado	-4567
▁veían	-4568
olución	-4569
osotros	-4570
▁amable	-4571
▁cerrar	-4572
▁compro	-4573
▁deseos	-4574
▁fantas	-4575
▁impuls	-4576
▁lacayo	-4577
▁líneas	-4578
▁mostró	-4579
▁sentir	-4580
▁venían	-4581
cimiento	-4582
peración	-4583
taciones	-4584
▁ballena	-4585
▁comedor	-4586
▁enormes	-4587
▁estreme	-4588
▁hacerle	-4589
▁pensado	-4590
▁necesita	-4591
▁felicidad	-4592
▁precipitó	-4593
▁resultaba	-4594
▁sensación	-4595
▁terribles	-4596
▁corrientes	-4597
▁dispuestos	-4598
esu	-4599
ind	-4600
ular	-4601
▁Hac	-4602
▁Hel	-4603
▁san	-4604
ísimo	-4605
▁Temp	-4606
▁leña	-4607
▁reme	-4608
▁suje	-4609
▁India	-4610
▁abría	-4611
▁beber	-4612
▁reemp	-4613
▁serpi	-4614
▁conoce	-4615
▁realiz	-4616
▁región	-4617
▁rápida	-4618
▁sabido	-4619
▁baronet	-4620
▁energía	-4621
▁hierbas	-4622
▁mayores	-4623
▁ochenta	-4624
▁ofreció	-4625
▁piernas	-4626
▁situada	-4627
▁caracter	-4628
▁castillo	-4629
▁centenar	-4630
▁encantad	-4631
▁examinar	-4632
▁valiente	-4633
▁construir	-4634
▁precaución	-4635
▁desgraciado	-4636
▁construcción	-4637
ha	-4638
Pue	-4639
ema	-4640
gal	-4641
ood	-4642
▁je	-4643
▁nu	-4644
▁«¿	-4645
icor	-4646
tinu	-4647
▁Cor	-4648
▁Sab	-4649
▁Tan	-4650
▁Ven	-4651
▁caj	-4652
▁fís	-4653
▁mat	-4654
▁rue	-4655
abell	-4656
ridos	-4657
ulgar	-4658
▁Dreb	-4659
▁Eyre	-4660
▁Hong	-4661
▁Sent	-4662
▁obed	-4663
▁popa	-4664
▁suel	-4665
▁Bazin	-4666
▁chalu	-4667
▁decís	-4668
▁habla	-4669
▁invad	-4670
stancia	-4671
▁médico	-4672
▁nuevos	-4673
▁resuel	-4674
▁rincón	-4675
▁trabaj	-4676
▁Drebber	-4677
▁Ferrier	-4678
▁consejo	-4679
▁marchar	-4680
▁renunci	-4681
▁sabueso	-4682
▁señales	-4683
▁situado	-4684
▁aparecer	-4685
▁ausencia	-4686
▁diversas	-4687
▁escribir	-4688
▁relación	-4689
▁tormenta	-4690
▁Mosquetón	-4691
▁extensión	-4692
▁preparado	-4693
▁intensidad	-4694
▁exactamente	-4695
Te	-4696
▁i	-4697
erá	-4698
usa	-4699
éla	-4700
ést	-4701
omas	-4702
ñaba	-4703
▁Nin	-4704
▁obs	-4705
▁veh	-4706
adora	-4707
grado	-4708
ombay	-4709
▁ambi	-4710
▁cari	-4711
▁eres	-4712
▁haci	-4713
▁ries	-4714
▁roto	-4715
▁Mason	-4716
▁Nunca	-4717
▁absor	-4718
▁casti	-4719
▁caída	-4720
▁conmo	-4721
▁gusta	-4722
▁nariz	-4723
▁pagar	-4724
▁prima	-4725
▁públi	-4726
▁retra	-4727
▁subió	-4728
▁verti	-4729
▁abismo	-4730
▁diablo	-4731
▁doncel	-4732
▁estará	-4733
▁explos	-4734
▁formas	-4735
▁juzgar	-4736
▁oscura	-4737
▁quedar	-4738
▁siento	-4739
pregunté	-4740
▁contaba	-4741
▁curioso	-4742
▁llanura	-4743
▁nombres	-4744
▁parajes	-4745
▁absoluto	-4746
▁fenómeno	-4747
▁recorrer	-4748
▁observado	-4749
▁tendremos	-4750
▁biblioteca	-4751
▁continuaba	-4752
▁instrumento	-4753
fortunadamente	-4754
ye	-4755
gel	-4756
rom	-4757
ñar	-4758
▁Hu	-4759
ceso	-4760
laro	-4761
omía	-4762
rano	-4763
tito	-4764
tora	-4765
▁gui	-4766
▁hel	-4767
▁ple	-4768
▁tos	-4769
cidos	-4770
iraba	-4771
mbres	-4772
quesa	-4773
quién	-4774
rente	-4775
traba	-4776
▁Pens	-4777
▁Grant	-4778
▁abril	-4779
▁balas	-4780
▁herra	-4781
▁inici	-4782
▁pluma	-4783
▁trató	-4784
▁volvi	-4785
▁Bombay	-4786
▁Louvre	-4787
▁envuel	-4788
▁pálida	-4789
▁servid	-4790
▁asiento	-4791
▁caverna	-4792
▁ciertas	-4793
▁consigo	-4794
▁content	-4795
▁espalda	-4796
▁franque	-4797
▁permiso	-4798
▁propios	-4799
▁veremos	-4800
▁presentó	-4801
▁utilizar	-4802
▁convertir	-4803
▁facciones	-4804
▁sustancia	-4805
▁finalmente	-4806
▁hallábamos	-4807
▁permanecía	-4808
▁quinientos	-4809
▁encontraron	-4810
gre	-4811
tia	-4812
▁zo	-4813
izas	-4814
leta	-4815
vidu	-4816
ward	-4817
chura	-4818
▁Llev	-4819
▁Stre	-4820
▁Toda	-4821
▁ahog	-4822
▁culp	-4823
▁pueb	-4824
▁pura	-4825
▁silb	-4826
▁teor	-4827
▁besti	-4828
▁casas	-4829
▁cazar	-4830
▁hijos	-4831
▁llave	-4832
▁perió	-4833
▁polvo	-4834
▁rever	-4835
▁rique	-4836
▁temía	-4837
▁verdu	-4838
▁Temple	-4839
▁arreci	-4840
▁calles	-4841
▁confun	-4842
▁crimen	-4843
▁derrib	-4844
▁dieron	-4845
▁esposa	-4846
▁matado	-4847
▁practi	-4848
▁Parecía	-4849
▁central	-4850
▁chalupa	-4851
▁hermoso	-4852
▁materia	-4853
▁observó	-4854
▁ponerse	-4855
▁sesenta	-4856
▁tercera	-4857
▁alimento	-4858
▁detenido	-4859
▁extendía	-4860
▁individu	-4861
▁investig	-4862
▁penetrar	-4863
▁pudieran	-4864
▁soportar	-4865
▁sucedido	-4866
▁terminar	-4867
▁depósitos	-4868
▁excursión	-4869
▁prudencia	-4870
▁entusiasmo	-4871
▁resplandor	-4872
▁circunstancia	-4873
▁desesperación	-4874
▁suficientemente	-4875
Muy	-4876
dri	-4877
est	-4878
fre	-4879
––,	-4880
▁Im	-4881
▁bó	-4882
cura	-4883
diós	-4884
jera	-4885
lico	-4886
rito	-4887
▁Son	-4888
▁goz	-4889
▁ojo	-4890
▁––¡	-4891
cedía	-4892
deras	-4893
diera	-4894
pefac	-4895
ronto	-4896
zadas	-4897
▁Ante	-4898
▁alba	-4899
▁arru	-4900
▁cose	-4901
▁dejé	-4902
▁disi	-4903
▁vari	-4904
▁adecu	-4905
▁cereb	-4906
▁conta	-4907
▁escla	-4908
▁hotel	-4909
▁niños	-4910
▁trozo	-4911
quenard	-4912
▁afecto	-4913
▁americ	-4914
▁bienes	-4915
▁creído	-4916
▁juicio	-4917
▁ligera	-4918
▁prolon	-4919
▁proteg	-4920
▁repuso	-4921
▁averigu	-4922
▁colores	-4923
▁escuela	-4924
▁fuertes	-4925
▁inglesa	-4926
▁necesit	-4927
▁recoger	-4928
▁cometido	-4929
▁levantar	-4930
▁Coquenard	-4931
▁estupefac	-4932
▁terrestre	-4933
Hay	-4934
ade	-4935
nal	-4936
pón	-4937
▁17	-4938
elos	-4939
emán	-4940
fica	-4941
rica	-4942
tían	-4943
▁Low	-4944
▁Nor	-4945
▁aux	-4946
▁eri	-4947
▁int	-4948
▁nov	-4949
▁pis	-4950
▁reb	-4951
cinco	-4952
garon	-4953
umbre	-4954
▁Cada	-4955
▁Segu	-4956
▁bene	-4957
▁caía	-4958
▁raro	-4959
▁vais	-4960
edades	-4961
endido	-4962
▁Tengo	-4963
▁comis	-4964
▁conde	-4965
▁habló	-4966
▁mandí	-4967
▁mezcl	-4968
▁multi	-4969
▁organ	-4970
▁ponía	-4971
▁presa	-4972
▁sigue	-4973
▁socor	-4974
▁valle	-4975
▁golpes	-4976
▁origen	-4977
▁pabell	-4978
▁servía	-4979
▁costado	-4980
▁decidió	-4981
▁enviado	-4982
▁prosegu	-4983
▁querida	-4984
▁tiempos	-4985
▁vueltas	-4986
▁abertura	-4987
▁encontra	-4988
▁noticias	-4989
▁permitía	-4990
▁religión	-4991
▁aventuras	-4992
▁náufragos	-4993
▁recuerdos	-4994
▁Finalmente	-4995
▁conciencia	-4996
▁empalizada	-4997
▁prisionero	-4998
▁reflexiones	-4999
▁verdaderamente	-5000
ivo	-5001
lub	-5002
use	-5003
ánd	-5004
▁Ac	-5005
▁ja	-5006
aria	-5007
▁blo	-5008
▁bóv	-5009
▁jue	-5010
▁ron	-5011
▁tap	-5012
laron	-5013
queta	-5014
▁Ella	-5015
▁Kong	-5016
▁apla	-5017
▁enam	-5018
▁fero	-5019
▁furi	-5020
▁rayo	-5021
▁remo	-5022
▁repu	-5023
tantes	-5024
éndole	-5025
▁amist	-5026
▁enero	-5027
▁junio	-5028
▁podrá	-5029
▁suave	-5030
▁atacar	-5031
▁refugi	-5032
▁Abraham	-5033
▁clasifi	-5034
▁colegio	-5035
▁estudio	-5036
▁mandíbu	-5037
▁ocultar	-5038
▁olvidar	-5039
▁tendido	-5040
iblemente	-5041
▁gabinete	-5042
▁gustaría	-5043
▁pabellón	-5044
▁teniendo	-5045
▁trabajar	-5046
▁Atlántico	-5047
▁acercarse	-5048
▁diamantes	-5049
▁convertido	-5050
▁procuradora	-5051
▁dificultades	-5052
▁inteligencia	-5053
díg	-5054
ull	-5055
zco	-5056
amas	-5057
cens	-5058
fort	-5059
▁obe	-5060
▁sed	-5061
▁umb	-5062
arias	-5063
dónde	-5064
ienda	-5065
mites	-5066
rarme	-5067
rocar	-5068
▁Geor	-5069
▁Somb	-5070
▁carn	-5071
▁mást	-5072
▁seco	-5073
bresal	-5074
rerero	-5075
▁Estas	-5076
▁cargo	-5077
▁contó	-5078
▁cruel	-5079
▁delic	-5080
▁depos	-5081
▁dicha	-5082
▁escar	-5083
▁fison	-5084
▁indíg	-5085
▁infor	-5086
▁inver	-5087
▁modos	-5088
▁sabio	-5089
▁vestí	-5090
▁ascens	-5091
▁choque	-5092
▁cortes	-5093
▁espero	-5094
▁esplén	-5095
▁fiebre	-5096
▁percib	-5097
▁profes	-5098
▁rápido	-5099
▁serían	-5100
▁tercer	-5101
▁trozos	-5102
▁aceptar	-5103
▁anchura	-5104
▁cabezas	-5105
▁cochero	-5106
▁haberme	-5107
▁inexpli	-5108
▁marinos	-5109
▁podrían	-5110
▁sendero	-5111
▁antiguos	-5112
▁defender	-5113
▁ferrocar	-5114
▁mediante	-5115
▁muchacha	-5116
▁naturali	-5117
▁vuestras	-5118
▁admirable	-5119
▁distinguir	-5120
".	-5121
ak	-5122
Los	-5123
men	-5124
tim	-5125
vio	-5126
xto	-5127
adie	-5128
gres	-5129
pros	-5130
▁Ter	-5131
▁War	-5132
abaco	-5133
carme	-5134
rales	-5135
▁Luis	-5136
▁Polo	-5137
▁bajó	-5138
▁cita	-5139
▁cree	-5140
▁jesu	-5141
▁puro	-5142
▁zona	-5143
dentes	-5144
tieron	-5145
▁Helen	-5146
▁archi	-5147
▁impas	-5148
▁incre	-5149
▁sentó	-5150
▁sober	-5151
▁sufri	-5152
▁Mister	-5153
▁bondad	-5154
▁defini	-5155
▁equipa	-5156
▁fueran	-5157
▁hélice	-5158
▁tomaba	-5159
laciones	-5160
piración	-5161
▁actitud	-5162
▁cerrado	-5163
▁herrami	-5164
▁reempla	-5165
▁servido	-5166
▁tratado	-5167
▁agradeci	-5168
▁escopeta	-5169
▁llegamos	-5170
▁mejillas	-5171
▁teníamos	-5172
▁cazadores	-5173
▁condición	-5174
▁inspector	-5175
▁paciencia	-5176
▁Sombrerero	-5177
▁comprendía	-5178
▁comprendido	-5179
▁veinticinco	-5180
Par	-5181
hur	-5182
▁20	-5183
▁As	-5184
▁Te	-5185
erto	-5186
gica	-5187
ibur	-5188
ices	-5189
umen	-5190
vida	-5191
▁Esa	-5192
▁ali	-5193
▁fué	-5194
▁hac	-5195
▁hem	-5196
tudes	-5197
▁Poco	-5198
▁aloj	-5199
▁arre	-5200
▁cria	-5201
▁fing	-5202
▁hipó	-5203
▁jefe	-5204
▁mayo	-5205
▁miré	-5206
▁tiro	-5207
chelle	-5208
uestas	-5209
▁ancho	-5210
▁arpón	-5211
▁darme	-5212
▁disgu	-5213
▁espan	-5214
▁impre	-5215
▁oídos	-5216
▁patas	-5217
▁prove	-5218
▁cartas	-5219
▁docena	-5220
▁flores	-5221
▁ligero	-5222
▁saltar	-5223
▁triunf	-5224
▁útiles	-5225
cidental	-5226
▁inclinó	-5227
▁límites	-5228
▁ofrecer	-5229
▁remedio	-5230
▁sombras	-5231
▁soplaba	-5232
▁sufrido	-5233
▁suspiro	-5234
▁tomando	-5235
▁entraron	-5236
▁incorpor	-5237
▁indicaba	-5238
▁moluscos	-5239
▁sencillo	-5240
▁sobresal	-5241
▁escaleras	-5242
▁formidable	-5243
▁municiones	-5244
▁inteligente	-5245
▁cuidadosamente	-5246
▁investigaciones	-5247
—.	-5248
ite	-5249
lom	-5250
vin	-5251
▁ur	-5252
ilar	-5253
rico	-5254
tang	-5255
▁cie	-5256
Acaso	-5257
Tiene	-5258
cerdo	-5259
gaban	-5260
grama	-5261
orden	-5262
urope	-5263
▁Dent	-5264
▁Escu	-5265
▁Reed	-5266
▁alas	-5267
▁divi	-5268
▁duro	-5269
▁rama	-5270
▁reír	-5271
▁seca	-5272
▁tele	-5273
▁temo	-5274
▁tent	-5275
cuatro	-5276
vieran	-5277
▁acero	-5278
▁alber	-5279
▁arrep	-5280
▁batal	-5281
▁camar	-5282
▁diría	-5283
▁hallé	-5284
▁indis	-5285
▁sabes	-5286
▁saltó	-5287
▁ácido	-5288
estrade	-5289
tividad	-5290
▁europe	-5291
▁gascón	-5292
▁manten	-5293
▁misión	-5294
▁mortal	-5295
▁preven	-5296
▁ruidos	-5297
▁tabaco	-5298
▁tareas	-5299
dimiento	-5300
respondí	-5301
▁dirigía	-5302
▁huracán	-5303
▁levanté	-5304
▁pasaban	-5305
▁sacerdo	-5306
▁sentada	-5307
▁setenta	-5308
▁soldado	-5309
▁llevando	-5310
▁realizar	-5311
▁salieron	-5312
▁tuvieron	-5313
▁gentleman	-5314
▁obstáculo	-5315
▁pronunciar	-5316
▁Mediterráneo	-5317
He	-5318
In	-5319
▁Ed	-5320
▁Ly	-5321
▁Ra	-5322
▁cl	-5323
arte	-5324
▁Car	-5325
▁dra	-5326
▁etc	-5327
dirse	-5328
esper	-5329
fiero	-5330
guera	-5331
hurst	-5332
rador	-5333
uerzo	-5334
ísima	-5335
▁asom	-5336
▁deli	-5337
▁diga	-5338
▁enér	-5339
▁hago	-5340
▁patr	-5341
▁polí	-5342
▁relá	-5343
▁vive	-5344
landia	-5345
írculo	-5346
▁Brock	-5347
▁ascen	-5348
▁estás	-5349
▁meter	-5350
▁recha	-5351
▁remon	-5352
▁tonel	-5353
▁aconse	-5354
▁ataque	-5355
▁cristi	-5356
▁cuánto	-5357
▁empren	-5358
▁matrim	-5359
▁perlas	-5360
▁resign	-5361
▁utiliz	-5362
▁Blanche	-5363
▁Tortuga	-5364
▁antigua	-5365
▁cerebro	-5366
▁combate	-5367
▁fusiles	-5368
▁ordinar	-5369
▁Lestrade	-5370
▁acercaba	-5371
▁cabellos	-5372
▁muestras	-5373
▁caprichos	-5374
▁criaturas	-5375
▁eléctrica	-5376
▁prometido	-5377
▁submarino	-5378
▁apariencia	-5379
▁resolución	-5380
▁ciertamente	-5381
▁interrumpió	-5382
▁descubrimiento	-5383
▁aproximadamente	-5384
Era	-5385
mou	-5386
ris	-5387
apar	-5388
cida	-5389
ffel	-5390
▁Ver	-5391
▁azo	-5392
feras	-5393
ienen	-5394
ieras	-5395
▁acar	-5396
▁espi	-5397
▁flan	-5398
▁loca	-5399
▁reba	-5400
▁soci	-5401
▁tema	-5402
ésemos	-5403
▁aclar	-5404
▁auxil	-5405
▁envol	-5406
▁lados	-5407
▁lavas	-5408
▁plomo	-5409
▁serie	-5410
lehurst	-5411
▁Wardes	-5412
▁alfomb	-5413
▁comuni	-5414
▁cubría	-5415
▁ganado	-5416
▁indign	-5417
▁jurado	-5418
▁oficio	-5419
▁pasada	-5420
▁promon	-5421
▁reclam	-5422
▁riesgo	-5423
▁tienda	-5424
▁umbral	-5425
▁verdes	-5426
▁disgust	-5427
▁empresa	-5428
▁español	-5429
▁hiciera	-5430
▁introdu	-5431
▁jornada	-5432
▁máquina	-5433
▁notable	-5434
▁ocupaba	-5435
▁produci	-5436
▁relámpa	-5437
▁repitió	-5438
didamente	-5439
▁Rochelle	-5440
▁arrepent	-5441
▁disponía	-5442
▁doncella	-5443
▁dormitor	-5444
▁mostraba	-5445
▁comprendí	-5446
▁emprender	-5447
▁numerosos	-5448
▁reconocido	-5449
▁resistencia	-5450
▁trescientos	-5451
▁dirigiéndose	-5452
▁extraordinario	-5453
?»	-5454
Os	-5455
ais	-5456
bal	-5457
dea	-5458
ieb	-5459
como	-5460
mens	-5461
rías	-5462
tará	-5463
▁Ber	-5464
▁Del	-5465
▁edu	-5466
▁oje	-5467
▁sof	-5468
▁vid	-5469
arían	-5470
ffels	-5471
retes	-5472
tible	-5473
vimos	-5474
▁acto	-5475
▁ador	-5476
▁mens	-5477
▁trai	-5478
▁veis	-5479
▁Sobre	-5480
▁Usted	-5481
▁bendi	-5482
▁cocin	-5483
▁darse	-5484
▁deben	-5485
▁descu	-5486
▁escas	-5487
▁éstos	-5488
inación	-5489
neffels	-5490
▁Pronto	-5491
▁acceso	-5492
▁angust	-5493
▁domést	-5494
▁entero	-5495
▁lector	-5496
▁medias	-5497
▁morada	-5498
▁ocurre	-5499
▁probar	-5500
▁pájaro	-5501
▁Austria	-5502
▁carrera	-5503
▁contras	-5504
▁corteza	-5505
▁demonio	-5506
▁dormido	-5507
▁febrero	-5508
▁lámpara	-5509
▁nervios	-5510
▁pasaron	-5511
▁próximo	-5512
▁brillaba	-5513
▁diversos	-5514
▁estrecha	-5515
▁brillante	-5516
▁facilidad	-5517
▁naturales	-5518
▁establecer	-5519
▁sorprendió	-5520
▁atentamente	-5521
▁Brocklehurst	-5522
—;	-5523
Gra	-5524
tén	-5525
amin	-5526
bulo	-5527
güen	-5528
▁Les	-5529
▁Muy	-5530
▁Uno	-5531
▁far	-5532
▁hol	-5533
▁tej	-5534
▁tru	-5535
▁uso	-5536
chada	-5537
larse	-5538
piéla	-5539
quete	-5540
tuosa	-5541
veres	-5542
▁Tran	-5543
▁alco	-5544
▁glor	-5545
▁invi	-5546
▁juez	-5547
▁mozo	-5548
▁sean	-5549
ieblas	-5550
▁Grifo	-5551
▁Oeste	-5552
▁Roche	-5553
▁genio	-5554
▁hayan	-5555
▁indud	-5556
▁moral	-5557
▁pieza	-5558
▁reino	-5559
▁solem	-5560
▁tesor	-5561
▁vasto	-5562
▁Lowood	-5563
▁campan	-5564
▁desgar	-5565
▁huevos	-5566
▁piezas	-5567
▁prodig	-5568
▁sincer	-5569
▁anciano	-5570
▁cambiar	-5571
▁cañones	-5572
▁cerrada	-5573
▁condujo	-5574
▁dejaban	-5575
▁entraba	-5576
▁ofrecía	-5577
▁prolong	-5578
▁promesa	-5579
▁sospech	-5580
prosiguió	-5581
▁Sneffels	-5582
▁convento	-5583
▁empezaba	-5584
▁estatura	-5585
▁fabricar	-5586
▁gobierno	-5587
▁ignoraba	-5588
▁respland	-5589
▁comprendo	-5590
▁conseguir	-5591
▁impresion	-5592
▁tinieblas	-5593
▁admiración	-5594
▁archipiéla	-5595
▁matrimonio	-5596
▁occidental	-5597
▁pertenecía	-5598
▁sorprender	-5599
▁seguramente	-5600
▁habitaciones	-5601
▁herramientas	-5602
-:	-5603
mu	-5604
fía	-5605
hib	-5606
úju	-5607
alos	-5608
aste	-5609
cipe	-5610
maba	-5611
sula	-5612
▁dil	-5613
▁mus	-5614
▁rev	-5615
ciles	-5616
dimos	-5617
gosto	-5618
tecti	-5619
▁Suez	-5620
▁abur	-5621
▁conj	-5622
▁cura	-5623
▁eter	-5624
▁limp	-5625
▁perí	-5626
▁romp	-5627
▁sist	-5628
▁zapa	-5629
▁Stang	-5630
▁almor	-5631
▁aplas	-5632
▁brúju	-5633
▁carga	-5634
▁convi	-5635
▁disim	-5636
▁espar	-5637
▁espon	-5638
▁extin	-5639
▁furor	-5640
▁ganar	-5641
▁milag	-5642
▁retir	-5643
▁ruego	-5644
▁seguí	-5645
▁solía	-5646
▁cabras	-5647
▁consol	-5648
▁desple	-5649
▁efectu	-5650
▁mismas	-5651
▁sabios	-5652
▁sonido	-5653
tamiento	-5654
▁cabello	-5655
▁dirigir	-5656
▁enfermo	-5657
▁excepto	-5658
▁inesper	-5659
▁justifi	-5660
▁lacayos	-5661
▁motivos	-5662
▁pedazos	-5663
▁persecu	-5664
▁prepara	-5665
▁rodeado	-5666
▁soledad	-5667
▁Islandia	-5668
▁almuerzo	-5669
▁aparecía	-5670
▁ballenas	-5671
▁desayuno	-5672
▁frecuent	-5673
▁marchado	-5674
▁preparar	-5675
▁vivienda	-5676
▁Rochefort	-5677
▁contestar	-5678
▁exactitud	-5679
▁personaje	-5680
▁Stangerson	-5681
▁diferentes	-5682
▁equivocado	-5683
▁miserables	-5684
▁ligeramente	-5685
▁veinticuatro	-5686
ll	-5687
Ven	-5688
gen	-5689
gil	-5690
hal	-5691
sil	-5692
▁Je	-5693
▁Mo	-5694
guar	-5695
murm	-5696
▁Ana	-5697
▁Soy	-5698
ablos	-5699
rasil	-5700
tesis	-5701
tidas	-5702
▁duró	-5703
▁ejér	-5704
▁lanz	-5705
▁leyó	-5706
▁qual	-5707
▁suav	-5708
▁tela	-5709
ificio	-5710
viente	-5711
virtió	-5712
▁Bueno	-5713
▁Falsa	-5714
▁barón	-5715
▁cenar	-5716
▁decid	-5717
▁deton	-5718
▁dispu	-5719
▁escog	-5720
▁estal	-5721
▁labor	-5722
▁noble	-5723
▁reves	-5724
▁tenta	-5725
▁verse	-5726
murmuró	-5727
▁Brasil	-5728
▁acabar	-5729
▁galope	-5730
▁llamas	-5731
▁navíos	-5732
▁piloto	-5733
▁poseía	-5734
▁solici	-5735
▁sonrió	-5736
▁vivido	-5737
▁Duquesa	-5738
▁blancas	-5739
▁brújula	-5740
▁concent	-5741
▁coronel	-5742
▁dejaron	-5743
▁entrado	-5744
▁hallado	-5745
▁honrado	-5746
▁mostrar	-5747
▁sabemos	-5748
▁arrojado	-5749
▁botellas	-5750
▁buscando	-5751
▁erupción	-5752
▁habitada	-5753
▁mantenía	-5754
▁orificio	-5755
▁podíamos	-5756
▁problema	-5757
▁quedaban	-5758
▁respondí	-5759
▁continuar	-5760
▁describir	-5761
▁detenerse	-5762
▁esperaban	-5763
▁explosión	-5764
▁pendiente	-5765
▁significa	-5766
▁acompañado	-5767
▁esperanzas	-5768
▁maravillas	-5769
▁maravillos	-5770
▁meridional	-5771
▁precauciones	-5772
▁extraordinaria	-5773
▁acontecimientos	-5774
Ma	-5775
▁Á	-5776
Per	-5777
ben	-5778
ieu	-5779
izó	-5780
ance	-5781
asen	-5782
gáis	-5783
pito	-5784
roso	-5785
triz	-5786
▁fri	-5787
▁kil	-5788
▁mús	-5789
▁ése	-5790
canos	-5791
cillo	-5792
onios	-5793
pendi	-5794
untar	-5795
▁agar	-5796
▁maci	-5797
▁morm	-5798
▁poca	-5799
▁prín	-5800
▁quit	-5801
▁rico	-5802
▁trin	-5803
ciente	-5804
ientas	-5805
landés	-5806
quilla	-5807
▁arpon	-5808
▁corta	-5809
▁dicen	-5810
▁diver	-5811
▁estan	-5812
▁hacha	-5813
▁human	-5814
▁hábil	-5815
▁medía	-5816
▁resid	-5817
▁revel	-5818
▁simpa	-5819
▁tocar	-5820
▁Conejo	-5821
▁aparte	-5822
▁compli	-5823
▁conten	-5824
▁destac	-5825
▁dirigí	-5826
▁echado	-5827
▁formar	-5828
▁fresca	-5829
▁murmul	-5830
▁pedazo	-5831
▁piensa	-5832
▁rastro	-5833
▁apetito	-5834
▁calidad	-5835
▁debería	-5836
▁elevada	-5837
▁existía	-5838
▁institu	-5839
▁melancó	-5840
▁temores	-5841
▁Monseñor	-5842
▁asegurar	-5843
▁cambiado	-5844
▁contacto	-5845
▁despacho	-5846
▁entregar	-5847
▁equipaje	-5848
▁hallarse	-5849
▁herretes	-5850
▁llevaban	-5851
▁tratando	-5852
▁elementos	-5853
▁espantosa	-5854
▁inmediato	-5855
▁levantaba	-5856
▁muchachas	-5857
▁provisión	-5858
▁contemplar	-5859
▁oportunidad	-5860
▁súbitamente	-5861
▁volviéndose	-5862
▁desagradable	-5863
▁naturalmente	-5864
cén	-5865
edy	-5866
ial	-5867
lla	-5868
tré	-5869
▁10	-5870
▁11	-5871
▁Tu	-5872
Creo	-5873
abas	-5874
alló	-5875
edía	-5876
mbos	-5877
tria	-5878
vera	-5879
árse	-5880
▁Spe	-5881
▁diá	-5882
▁puñ	-5883
▁sáb	-5884
decía	-5885
itada	-5886
monos	-5887
rones	-5888
urado	-5889
▁dura	-5890
▁gana	-5891
▁insu	-5892
▁nieb	-5893
▁nube	-5894
▁term	-5895
ínsula	-5896
▁Globo	-5897
▁Grace	-5898
▁Hacía	-5899
▁Nadie	-5900
▁aldea	-5901
▁amaba	-5902
▁amado	-5903
▁cajón	-5904
▁catal	-5905
▁culpa	-5906
▁despo	-5907
▁estoc	-5908
▁humor	-5909
▁ropas	-5910
▁sever	-5911
▁sobra	-5912
▁sollo	-5913
▁trato	-5914
▁vasta	-5915
▁venga	-5916
▁verde	-5917
▁verla	-5918
▁vimos	-5919
oroeste	-5920
▁Speedy	-5921
▁bóveda	-5922
▁campos	-5923
▁confir	-5924
▁distra	-5925
▁ejerci	-5926
▁espesa	-5927
▁examin	-5928
▁extrañ	-5929
▁fondos	-5930
▁hospit	-5931
▁inflam	-5932
▁pienso	-5933
▁reanud	-5934
▁tendré	-5935
▁verano	-5936
▁verifi	-5937
▁Algunas	-5938
▁aseguro	-5939
▁batalla	-5940
▁blancos	-5941
▁buscaba	-5942
▁capital	-5943
▁electri	-5944
▁elevaba	-5945
▁heridas	-5946
▁manchas	-5947
▁querían	-5948
▁recibió	-5949
▁suceder	-5950
▁adivinar	-5951
▁confesar	-5952
▁decisión	-5953
▁diamante	-5954
▁formando	-5955
▁gratitud	-5956
▁potencia	-5957
▁suminist	-5958
▁uniforme	-5959
▁conservar	-5960
▁fisonomía	-5961
▁profundas	-5962
▁ferrocarril	-5963
▁promontorio	-5964
▁acostumbrado	-5965
▁tranquilidad	-5966
Po	-5967
So	-5968
cy	-5969
tú	-5970
ala	-5971
eos	-5972
tez	-5973
▁Li	-5974
▁To	-5975
...?	-5976
amar	-5977
todo	-5978
ulio	-5979
▁Mad	-5980
▁Pod	-5981
▁ase	-5982
▁doy	-5983
▁mín	-5984
▁nor	-5985
▁vía	-5986
adero	-5987
jeros	-5988
quist	-5989
▁Sois	-5990
▁band	-5991
▁inoc	-5992
▁irri	-5993
▁ondu	-5994
doeste	-5995
tentri	-5996
ándola	-5997
▁amiga	-5998
▁asist	-5999
▁barba	-6000
▁coral	-6001
▁hable	-6002
▁impro	-6003
▁mover	-6004
▁movía	-6005
▁quedé	-6006
▁seren	-6007
▁voces	-6008
eamente	-6009
ensible	-6010
▁comien	-6011
▁criada	-6012
▁fuesen	-6013
▁maniob	-6014
▁minuto	-6015
▁negras	-6016
▁países	-6017
▁retras	-6018
▁siglos	-6019
▁sufrir	-6020
▁apuesta	-6021
▁cintura	-6022
▁llamada	-6023
▁período	-6024
▁resulta	-6025
▁sombrío	-6026
▁supongo	-6027
▁administ	-6028
▁contento	-6029
▁cálculos	-6030
▁familiar	-6031
▁instinto	-6032
▁porvenir	-6033
▁posesión	-6034
▁quedaron	-6035
▁violenta	-6036
▁descender	-6037
▁encargado	-6038
▁arrastrado	-6039
▁brillantes	-6040
▁diferencia	-6041
▁necesidades	-6042
▁continuación	-6043
ph	-6044
▁í	-6045
ega	-6046
emm	-6047
koh	-6048
ung	-6049
urs	-6050
cípu	-6051
enci	-6052
idor	-6053
lujo	-6054
mino	-6055
tuve	-6056
umas	-6057
vían	-6058
▁Bur	-6059
▁gor	-6060
▁odi	-6061
▁ora	-6062
▁sar	-6063
▁»––	-6064
Estoy	-6065
endas	-6066
endía	-6067
tuoso	-6068
uncan	-6069
ígame	-6070
▁abor	-6071
▁ansi	-6072
▁diré	-6073
▁elef	-6074
▁excl	-6075
▁excu	-6076
▁fron	-6077
▁malo	-6078
▁mezc	-6079
▁priv	-6080
▁torn	-6081
chando	-6082
güenza	-6083
repuse	-6084
▁acabó	-6085
▁agita	-6086
▁debió	-6087
▁desdi	-6088
▁escru	-6089
▁furia	-6090
▁gener	-6091
▁llevé	-6092
▁máxim	-6093
▁rival	-6094
▁timón	-6095
chelieu	-6096
cidente	-6097
ímetros	-6098
▁Parece	-6099
▁agosto	-6100
▁agrade	-6101
▁despla	-6102
▁orejas	-6103
▁reapar	-6104
▁sillón	-6105
▁tendrá	-6106
▁columna	-6107
▁consist	-6108
▁contado	-6109
▁extingu	-6110
▁haremos	-6111
▁investi	-6112
▁jesuita	-6113
▁líquido	-6114
▁muestra	-6115
▁perdida	-6116
▁precipi	-6117
▁quieres	-6118
▁reserva	-6119
▁señoras	-6120
▁terminó	-6121
▁término	-6122
▁verdugo	-6123
▁vientos	-6124
▁aparatos	-6125
▁arponero	-6126
▁conducta	-6127
▁confieso	-6128
▁descubrí	-6129
▁escapado	-6130
▁espaldas	-6131
▁quedarse	-6132
▁segundos	-6133
▁torrente	-6134
▁Richelieu	-6135
▁hipótesis	-6136
▁sonriendo	-6137
▁vestíbulo	-6138
▁volviendo	-6139
▁contrafuer	-6140
▁doscientas	-6141
▁principios	-6142
▁prisionera	-6143
▁encontramos	-6144
▁consecuencias	-6145
lé	-6146
íf	-6147
üe	-6148
▁8	-6149
▁Z	-6150
mió	-6151
nto	-6152
óli	-6153
Aquí	-6154
Quer	-6155
anda	-6156
dado	-6157
iese	-6158
nuss	-6159
rida	-6160
▁bod	-6161
▁rar	-6162
cante	-6163
isfer	-6164
istas	-6165
pados	-6166
▁Hall	-6167
▁arco	-6168
▁cruz	-6169
▁dedu	-6170
▁fund	-6171
▁hoja	-6172
▁muel	-6173
▁quej	-6174
▁quie	-6175
▁sulf	-6176
atural	-6177
cionar	-6178
inados	-6179
regson	-6180
▁botas	-6181
▁desas	-6182
▁gruta	-6183
▁impru	-6184
▁irres	-6185
▁maese	-6186
▁manej	-6187
▁rubor	-6188
▁serán	-6189
nussemm	-6190
▁Veamos	-6191
▁avanzó	-6192
▁azules	-6193
▁brillo	-6194
▁contor	-6195
▁dimens	-6196
▁estuve	-6197
▁grupos	-6198
▁hierba	-6199
▁muerta	-6200
▁niebla	-6201
▁ojeada	-6202
▁pueblo	-6203
▁robust	-6204
▁salvar	-6205
▁sobren	-6206
▁Compren	-6207
▁admitir	-6208
▁contigo	-6209
▁fantást	-6210
▁pérdida	-6211
▁recinto	-6212
▁redonde	-6213
▁respeto	-6214
▁saberlo	-6215
▁tomaron	-6216
▁visible	-6217
eraciones	-6218
▁avanzaba	-6219
▁ejército	-6220
▁hallamos	-6221
▁materias	-6222
▁murmullo	-6223
▁precioso	-6224
▁sabiendo	-6225
▁secretos	-6226
▁comprobar	-6227
▁franceses	-6228
▁impasible	-6229
▁indígenas	-6230
▁levantado	-6231
▁península	-6232
▁reflexión	-6233
▁septentri	-6234
▁toneladas	-6235
▁centenares	-6236
▁conclusión	-6237
▁encuentran	-6238
▁estuvieron	-6239
▁obstáculos	-6240
▁preguntaba	-6241
▁quinientas	-6242
▁desaparecer	-6243
▁reflexionar	-6244
▁trescientas	-6245
▁inexplicable	-6246
▁sorprendente	-6247
).	-6248
com	-6249
anti	-6250
cara	-6251
ecio	-6252
liar	-6253
mano	-6254
medi	-6255
melo	-6256
omin	-6257
urgo	-6258
▁Col	-6259
▁Sak	-6260
▁buj	-6261
▁cha	-6262
▁crí	-6263
▁cón	-6264
▁dia	-6265
▁fas	-6266
▁ful	-6267
▁llo	-6268
▁pag	-6269
▁paz	-6270
▁reh	-6271
encio	-6272
estos	-6273
frica	-6274
lados	-6275
▁Crom	-6276
▁amon	-6277
▁argu	-6278
▁asal	-6279
▁carg	-6280
▁cong	-6281
▁cris	-6282
▁cómp	-6283
▁exca	-6284
▁much	-6285
▁palo	-6286
▁pasé	-6287
▁pele	-6288
▁queb	-6289
▁salí	-6290
▁surg	-6291
dición	-6292
itario	-6293
landes	-6294
▁Todas	-6295
▁Yokoh	-6296
▁casos	-6297
▁cesar	-6298
▁culti	-6299
▁despi	-6300
▁encog	-6301
▁hogar	-6302
▁limpi	-6303
▁llega	-6304
▁lobos	-6305
▁luces	-6306
▁majes	-6307
▁masas	-6308
▁muros	-6309
▁pensa	-6310
▁pesca	-6311
▁pidió	-6312
▁remos	-6313
▁senté	-6314
▁tibur	-6315
ómetros	-6316
▁Duncan	-6317
▁Perman	-6318
▁Street	-6319
▁convul	-6320
▁encarn	-6321
▁escapó	-6322
▁estilo	-6323
▁gargan	-6324
▁huella	-6325
▁lograr	-6326
▁saludó	-6327
▁vulgar	-6328
▁Señores	-6329
▁amistad	-6330
▁certeza	-6331
▁cuartos	-6332
▁cuentas	-6333
▁círculo	-6334
▁discípu	-6335
▁empezar	-6336
▁impulso	-6337
▁orgullo	-6338
▁pruebas	-6339
▁sucedió	-6340
▁víveres	-6341
▁consejos	-6342
▁culpable	-6343
▁devolver	-6344
▁disgusto	-6345
▁disponer	-6346
▁hermanas	-6347
▁marinero	-6348
▁práctica	-6349
▁temprano	-6350
▁americano	-6351
▁descubrió	-6352
▁preocupar	-6353
▁recordaba	-6354
▁atravesado	-6355
▁navegación	-6356
▁retroceder	-6357
▁satisfecho	-6358
▁alojamiento	-6359
▁encontraban	-6360
▁interesante	-6361
▁electricidad	-6362
▁instrucciones	-6363
be	-6364
bé	-6365
rú	-6366
ern	-6367
leb	-6368
lle	-6369
ude	-6370
▁30	-6371
Como	-6372
arty	-6373
erta	-6374
fico	-6375
pado	-6376
pool	-6377
quer	-6378
rosa	-6379
turb	-6380
áles	-6381
▁186	-6382
▁And	-6383
▁Far	-6384
▁Ser	-6385
▁cré	-6386
▁rab	-6387
▁tún	-6388
▁urg	-6389
cedió	-6390
fitos	-6391
giana	-6392
izaba	-6393
pción	-6394
riles	-6395
▁Hope	-6396
▁Miré	-6397
▁Sire	-6398
▁abad	-6399
▁cabe	-6400
▁juro	-6401
▁list	-6402
▁olor	-6403
▁solu	-6404
▁verá	-6405
Quiere	-6406
idores	-6407
tiende	-6408
▁Liver	-6409
▁Unión	-6410
▁ancla	-6411
▁barca	-6412
▁cient	-6413
▁clara	-6414
▁compa	-6415
▁daría	-6416
▁perju	-6417
▁prete	-6418
▁vivos	-6419
isferio	-6420
▁Edward	-6421
▁aletas	-6422
▁buques	-6423
▁calent	-6424
▁comido	-6425
▁design	-6426
▁destro	-6427
▁escala	-6428
▁fatiga	-6429
▁locomo	-6430
▁patria	-6431
▁plumas	-6432
▁protes	-6433
▁vienen	-6434
▁asesina	-6435
▁billete	-6436
▁cayeron	-6437
▁cetáceo	-6438
▁cosecha	-6439
▁cuerdas	-6440
▁cumplir	-6441
▁detecti	-6442
▁emplear	-6443
▁maestro	-6444
▁mercero	-6445
▁regresó	-6446
▁retrato	-6447
▁Yokohama	-6448
▁arrastra	-6449
▁bandidos	-6450
▁conducía	-6451
▁cumplido	-6452
▁estancia	-6453
▁extremos	-6454
▁facultad	-6455
▁perfecto	-6456
▁violento	-6457
▁volvería	-6458
▁Liverpool	-6459
▁escuchaba	-6460
▁Saknussemm	-6461
▁dormitorio	-6462
▁excelentes	-6463
▁experiencia	-6464
▁fuertemente	-6465
Bah	-6466
Tan	-6467
ach	-6468
dan	-6469
gut	-6470
nah	-6471
pro	-6472
ást	-6473
▁dó	-6474
▁it	-6475
agüe	-6476
capa	-6477
enso	-6478
mada	-6479
mite	-6480
ocho	-6481
quis	-6482
rist	-6483
umer	-6484
vino	-6485
▁Pue	-6486
dadas	-6487
ierra	-6488
stola	-6489
tones	-6490
uelos	-6491
▁Blan	-6492
▁Lord	-6493
▁alzó	-6494
▁aman	-6495
▁ater	-6496
▁creí	-6497
▁desf	-6498
▁exag	-6499
▁gruñ	-6500
▁insp	-6501
▁iría	-6502
▁jura	-6503
▁márm	-6504
Cuando	-6505
ficios	-6506
quinas	-6507
▁Farra	-6508
▁abate	-6509
▁cabía	-6510
▁civil	-6511
▁desea	-6512
▁duros	-6513
▁invis	-6514
▁julio	-6515
▁murió	-6516
▁redon	-6517
▁vacío	-6518
▁vagón	-6519
▁arrojó	-6520
▁cogido	-6521
▁consum	-6522
▁montón	-6523
▁partió	-6524
▁rebaño	-6525
▁reprim	-6526
▁silves	-6527
▁sueños	-6528
▁tocado	-6529
▁Gregson	-6530
▁aliento	-6531
▁apresur	-6532
▁bastaba	-6533
▁entregó	-6534
▁experim	-6535
▁hoguera	-6536
▁Cromarty	-6537
▁Farragut	-6538
▁descanso	-6539
▁disparar	-6540
▁ejecutar	-6541
▁islandés	-6542
▁personal	-6543
▁príncipe	-6544
▁resolver	-6545
▁tristeza	-6546
▁Georgiana	-6547
▁Imposible	-6548
▁abundante	-6549
▁diferente	-6550
▁estrellas	-6551
▁favorable	-6552
▁fríamente	-6553
▁observaba	-6554
▁oficiales	-6555
▁permitido	-6556
▁productos	-6557
▁servicios	-6558
▁siguieron	-6559
▁sospechas	-6560
▁vergüenza	-6561
recisamente	-6562
▁adversario	-6563
▁comenzaron	-6564
▁enfermedad	-6565
▁alrededores	-6566
▁continentes	-6567
▁encantadora	-6568
▁enteramente	-6569
▁permanecido	-6570
▁persecución	-6571
▁simplemente	-6572
▁preparativos	-6573
ts	-6574
▁9	-6575
Car	-6576
Sab	-6577
fru	-6578
ocí	-6579
ons	-6580
íst	-6581
▁13	-6582
▁Ne	-6583
Esta	-6584
aden	-6585
dita	-6586
irón	-6587
lase	-6588
üben	-6589
▁Aún	-6590
▁XXX	-6591
▁apa	-6592
▁ceb	-6593
▁ina	-6594
▁rod	-6595
▁rug	-6596
antas	-6597
rores	-6598
▁acre	-6599
▁alum	-6600
▁arte	-6601
▁aull	-6602
▁cogí	-6603
▁cres	-6604
▁desh	-6605
▁espu	-6606
▁pecu	-6607
▁reve	-6608
▁semi	-6609
ponían	-6610
tensil	-6611
▁Según	-6612
▁basti	-6613
▁emerg	-6614
▁estro	-6615
▁ilust	-6616
▁inces	-6617
▁leche	-6618
▁leído	-6619
▁limit	-6620
▁logré	-6621
▁oprim	-6622
▁palid	-6623
▁paral	-6624
▁subía	-6625
▁valía	-6626
ilencio	-6627
▁España	-6628
▁Hannah	-6629
▁Reform	-6630
▁adónde	-6631
▁arreba	-6632
▁cansan	-6633
▁desafi	-6634
▁discur	-6635
▁dudaba	-6636
▁esperó	-6637
▁estrib	-6638
▁estuvi	-6639
▁gritar	-6640
▁ladrón	-6641
▁llorar	-6642
▁mástil	-6643
▁querer	-6644
▁repito	-6645
▁retiró	-6646
▁tendió	-6647
teriores	-6648
▁acabado	-6649
▁acerqué	-6650
▁afirmar	-6651
▁amonton	-6652
▁arrodil	-6653
▁caminar	-6654
▁combust	-6655
▁corrían	-6656
▁espanto	-6657
▁haberle	-6658
▁lanzado	-6659
▁miraron	-6660
▁ocupado	-6661
▁opuesta	-6662
▁repetir	-6663
▁sistema	-6664
▁solitar	-6665
▁triunfo	-6666
▁zapatos	-6667
▁Aquellos	-6668
▁absoluta	-6669
▁calcular	-6670
▁capricho	-6671
▁colocado	-6672
▁conviene	-6673
▁desierta	-6674
▁edificio	-6675
▁estudios	-6676
▁poderoso	-6677
▁sentidos	-6678
▁separaba	-6679
▁separado	-6680
ciosamente	-6681
▁actividad	-6682
▁arrastrar	-6683
▁habríamos	-6684
▁humanidad	-6685
▁individuo	-6686
▁magnífica	-6687
▁señalando	-6688
▁sospechar	-6689
▁dirigieron	-6690
▁extremidad	-6691
▁magníficos	-6692
▁contemplaba	-6693
▁naturalista	-6694
▁archipiélago	-6695
Ni	-6696
Ve	-6697
Deb	-6698
iga	-6699
lex	-6700
mul	-6701
ury	-6702
zan	-6703
▁21	-6704
▁Ca	-6705
West	-6706
ajas	-6707
ervo	-6708
guna	-6709
▁Dej	-6710
▁cóm	-6711
▁fér	-6712
▁vér	-6713
Quizá	-6714
dicos	-6715
ismos	-6716
pitió	-6717
zamos	-6718
▁Club	-6719
▁XIII	-6720
▁pone	-6721
▁seña	-6722
▁sire	-6723
▁supo	-6724
mación	-6725
répito	-6726
▁Lirón	-6727
▁Porte	-6728
▁cable	-6729
▁cigar	-6730
▁cobre	-6731
▁cofre	-6732
▁decia	-6733
▁diera	-6734
▁encal	-6735
▁fatal	-6736
▁incen	-6737
▁metro	-6738
▁negar	-6739
▁remol	-6740
▁sazón	-6741
▁sepul	-6742
▁sirve	-6743
uestros	-6744
▁armado	-6745
▁cabina	-6746
▁cantar	-6747
▁conceb	-6748
▁descri	-6749
▁detuve	-6750
▁entera	-6751
▁exacta	-6752
▁habian	-6753
▁incomp	-6754
▁indios	-6755
▁invent	-6756
▁ordenó	-6757
▁orient	-6758
▁perdón	-6759
▁piedad	-6760
▁podéis	-6761
▁prohib	-6762
▁reduci	-6763
▁repent	-6764
▁ruedas	-6765
▁teoría	-6766
▁tronco	-6767
▁vuelve	-6768
▁Siempre	-6769
▁acarici	-6770
▁amenaza	-6771
▁bastión	-6772
▁cenizas	-6773
▁cerraba	-6774
▁conchas	-6775
▁dijeron	-6776
▁efectos	-6777
▁espesor	-6778
▁examinó	-6779
▁guardar	-6780
▁humanos	-6781
▁ingenio	-6782
▁insensa	-6783
▁lugares	-6784
▁oscuras	-6785
▁puestos	-6786
▁reinaba	-6787
▁sacando	-6788
▁tortuga	-6789
▁troncos	-6790
▁utensil	-6791
ticamente	-6792
▁ansiedad	-6793
▁ardiente	-6794
▁arreglar	-6795
▁desconfi	-6796
▁escapaba	-6797
▁respirar	-6798
▁riquezas	-6799
▁sencilla	-6800
▁sudoeste	-6801
▁volverse	-6802
▁Francisco	-6803
▁arrecifes	-6804
▁debilidad	-6805
▁meridiano	-6806
▁ordinario	-6807
▁parientes	-6808
▁recuperar	-6809
▁serpiente	-6810
▁cargamento	-6811
▁conseguido	-6812
▁costumbres	-6813
▁incidentes	-6814
▁misterioso	-6815
▁pendientes	-6816
▁silencioso	-6817
▁superiores	-6818
videntemente	-6819
▁bruscamente	-6820
▁consideraba	-6821
▁transportar	-6822
Mu	-6823
ip	-6824
ks	-6825
of	-6826
Las	-6827
Mis	-6828
Son	-6829
pez	-6830
seo	-6831
▁12	-6832
▁14	-6833
▁XV	-6834
bios	-6835
hech	-6836
rasa	-6837
unda	-6838
▁cav	-6839
▁fes	-6840
▁hid	-6841
▁hin	-6842
▁ole	-6843
Usted	-6844
camos	-6845
iosos	-6846
tente	-6847
▁crip	-6848
▁dudo	-6849
▁econ	-6850
▁fuga	-6851
▁nega	-6852
▁pido	-6853
▁supe	-6854
iremos	-6855
quilib	-6856
▁Calcu	-6857
▁Sentí	-6858
▁ancha	-6859
▁aprob	-6860
▁arres	-6861
▁cabra	-6862
▁cobar	-6863
▁derra	-6864
▁focas	-6865
▁ganas	-6866
▁halló	-6867
▁malos	-6868
▁pesad	-6869
▁preso	-6870
▁renov	-6871
▁supre	-6872
▁tardó	-6873
▁tenia	-6874
▁verle	-6875
▁viera	-6876
▁viuda	-6877
▁Cierto	-6878
▁añadir	-6879
▁corral	-6880
▁discre	-6881
▁disfru	-6882
▁insign	-6883
▁llenos	-6884
▁locura	-6885
▁mármol	-6886
▁pesado	-6887
▁recomp	-6888
▁reposo	-6889
▁sacado	-6890
▁Inmedia	-6891
▁alterna	-6892
▁atrevía	-6893
▁castigo	-6894
▁comesti	-6895
▁cortina	-6896
▁cuerpos	-6897
▁deciros	-6898
▁ocurría	-6899
▁paisaje	-6900
▁sonreír	-6901
▁temblar	-6902
▁tuviese	-6903
▁cortesía	-6904
▁criminal	-6905
▁entrañas	-6906
▁inútiles	-6907
▁ladridos	-6908
▁llevaron	-6909
▁nordeste	-6910
▁náufrago	-6911
▁obedecer	-6912
▁oriental	-6913
▁perfecta	-6914
▁proceder	-6915
▁subieron	-6916
▁vosotros	-6917
▁agitación	-6918
▁cansancio	-6919
▁contenido	-6920
▁convencer	-6921
▁dirigirse	-6922
▁dispuesta	-6923
▁estrépito	-6924
▁monstruos	-6925
▁necesaria	-6926
▁semblante	-6927
▁serenidad	-6928
▁subterrán	-6929
▁apoderarse	-6930
▁considerar	-6931
▁desgracias	-6932
▁detuvieron	-6933
▁gravemente	-6934
▁impaciente	-6935
▁plantación	-6936
▁desgraciada	-6937
▁dimensiones	-6938
▁respiración	-6939
▁acostumbrada	-6940
▁investigación	-6941
▁Afortunadamente	-6942
mí	-6943
úb	-6944
ins	-6945
ojo	-6946
ont	-6947
rés	-6948
▁Bo	-6949
▁Sé	-6950
elas	-6951
esas	-6952
laje	-6953
lica	-6954
ogía	-6955
pent	-6956
séis	-6957
tano	-6958
udos	-6959
uesa	-6960
urar	-6961
énos	-6962
▁...	-6963
▁Emp	-6964
▁dic	-6965
▁tol	-6966
▁zoó	-6967
acion	-6968
antil	-6969
asión	-6970
ocado	-6971
uelas	-6972
ógico	-6973
▁Chev	-6974
▁Tres	-6975
▁bore	-6976
▁comb	-6977
▁rica	-6978
▁risa	-6979
▁sepa	-6980
▁sopa	-6981
trando	-6982
▁ajust	-6983
▁apoyo	-6984
▁audaz	-6985
▁cejas	-6986
▁engañ	-6987
▁envió	-6988
▁guarn	-6989
▁legua	-6990
▁rebel	-6991
▁remor	-6992
▁revól	-6993
▁rumor	-6994
▁sabor	-6995
▁siglo	-6996
▁solos	-6997
▁vient	-6998
eciendo	-6999
fferson	-7000
ponerse	-7001
seguida	-7002
ándolos	-7003
▁bastón	-7004
▁cariño	-7005
▁cámara	-7006
▁diario	-7007
▁enérgi	-7008
▁estrem	-7009
▁forman	-7010
▁graves	-7011
▁gruesa	-7012
▁huesos	-7013
▁incapa	-7014
▁indust	-7015
▁letras	-7016
▁método	-7017
▁planes	-7018
▁provin	-7019
▁puedes	-7020
▁retiro	-7021
▁virtud	-7022
▁alturas	-7023
▁caminos	-7024
▁colinas	-7025
▁humedad	-7026
▁lluvias	-7027
▁ocurrir	-7028
▁antemano	-7029
▁circular	-7030
▁faltaban	-7031
▁podremos	-7032
▁poniendo	-7033
▁pretexto	-7034
▁producía	-7035
▁proteger	-7036
▁alimentos	-7037
▁comisario	-7038
▁peligroso	-7039
▁periódico	-7040
▁perteneci	-7041
▁propiedad	-7042
▁aprovechar	-7043
▁extranjero	-7044
▁gigantesco	-7045
▁inferiores	-7046
▁kilómetros	-7047
▁levantarse	-7048
▁parecieron	-7049
▁utensilios	-7050
▁verdaderos	-7051
▁intenciones	-7052
▁levantándose	-7053
▁transcurrido	-7054
▁Inmediatamente	-7055
UL	-7056
bí	-7057
él	-7058
Nos	-7059
col	-7060
grá	-7061
ruc	-7062
sul	-7063
éle	-7064
▁CA	-7065
▁Gl	-7066
▁ox	-7067
Mong	-7068
amer	-7069
dero	-7070
diez	-7071
erme	-7072
ezca	-7073
head	-7074
lina	-7075
orro	-7076
rios	-7077
émos	-7078
▁Hub	-7079
▁Van	-7080
▁Vos	-7081
▁fol	-7082
▁gem	-7083
▁inn	-7084
▁pár	-7085
▁tes	-7086
cales	-7087
erado	-7088
licer	-7089
menes	-7090
oresc	-7091
reuse	-7092
toria	-7093
▁Hace	-7094
▁artí	-7095
▁astu	-7096
▁cach	-7097
▁cerc	-7098
▁ergu	-7099
▁leía	-7100
▁pati	-7101
▁raza	-7102
▁redu	-7103
▁roja	-7104
▁sini	-7105
Mongol	-7106
entaba	-7107
▁apaci	-7108
▁autén	-7109
▁carca	-7110
▁desma	-7111
▁desol	-7112
▁dudas	-7113
▁famos	-7114
▁feroz	-7115
▁fijos	-7116
▁hered	-7117
▁indio	-7118
▁invol	-7119
▁letra	-7120
▁logró	-7121
▁ménos	-7122
▁plano	-7123
▁predi	-7124
▁septi	-7125
▁tumba	-7126
▁túnel	-7127
continu	-7128
enarvan	-7129
repitió	-7130
▁Pregun	-7131
▁Termin	-7132
▁alcoba	-7133
▁dulces	-7134
▁espeso	-7135
▁hacéis	-7136
▁llaves	-7137
▁luchar	-7138
▁padres	-7139
▁perdió	-7140
▁planta	-7141
▁puesta	-7142
▁recién	-7143
▁riendo	-7144
licerina	-7145
▁abrirse	-7146
▁corrido	-7147
▁desagüe	-7148
▁deseado	-7149
▁equilib	-7150
▁marinas	-7151
▁mayoría	-7152
▁propias	-7153
▁propuso	-7154
▁regresé	-7155
▁seguían	-7156
▁viajero	-7157
▁vientre	-7158
▁alfombra	-7159
▁cortinas	-7160
▁desorden	-7161
▁elemento	-7162
▁estudiar	-7163
▁hermosos	-7164
▁improvis	-7165
▁intentar	-7166
▁irresist	-7167
▁murallas	-7168
▁perderse	-7169
▁permitió	-7170
▁previsto	-7171
▁resuelto	-7172
▁sociedad	-7173
▁suspendi	-7174
▁transpar	-7175
▁utilidad	-7176
iertamente	-7177
tuosamente	-7178
▁Chevreuse	-7179
▁Glenarvan	-7180
▁Jefferson	-7181
▁carretera	-7182
▁descansar	-7183
▁irregular	-7184
▁población	-7185
▁solitario	-7186
▁acompañaba	-7187
▁sacrificio	-7188
▁septiembre	-7189
▁inclinación	-7190
▁preocupación	-7191
úp	-7192
Tam	-7193
amo	-7194
dul	-7195
fas	-7196
fos	-7197
ole	-7198
ulo	-7199
ure	-7200
▁Oc	-7201
▁rá	-7202
?...	-7203
dura	-7204
eres	-7205
fato	-7206
gase	-7207
inco	-7208
isco	-7209
tien	-7210
unas	-7211
▁Bob	-7212
▁Iba	-7213
▁Man	-7214
▁ari	-7215
▁ave	-7216
▁iré	-7217
▁oso	-7218
▁rig	-7219
▁roj	-7220
Claro	-7221
adado	-7222
aldad	-7223
asion	-7224
canes	-7225
guros	-7226
onado	-7227
tarle	-7228
timos	-7229
turón	-7230
▁Lucy	-7231
▁Prim	-7232
▁Qued	-7233
▁bomb	-7234
▁bord	-7235
▁dada	-7236
▁mudo	-7237
▁pipa	-7238
▁rara	-7239
▁ríos	-7240
▁subí	-7241
Cuánto	-7242
acidad	-7243
icanos	-7244
tástro	-7245
▁Encon	-7246
▁Garra	-7247
▁Ratón	-7248
▁Volví	-7249
▁algas	-7250
▁altos	-7251
▁antec	-7252
▁bruma	-7253
▁estad	-7254
▁estúp	-7255
▁fecha	-7256
▁infel	-7257
▁metal	-7258
▁obscu	-7259
▁podré	-7260
▁revol	-7261
▁sinti	-7262
▁suyos	-7263
▁tiros	-7264
▁tortu	-7265
▁trigo	-7266
▁tropa	-7267
▁vacía	-7268
▁volar	-7269
Gracias	-7270
cándose	-7271
teshead	-7272
ándonos	-7273
▁Blanco	-7274
▁Natura	-7275
▁bonita	-7276
▁cables	-7277
▁cuadrú	-7278
▁delici	-7279
▁empleo	-7280
▁exceso	-7281
▁frunci	-7282
▁fuegos	-7283
▁granos	-7284
▁ladril	-7285
▁límite	-7286
▁pedido	-7287
▁pesada	-7288
▁quanto	-7289
▁rompió	-7290
▁tropez	-7291
▁trueno	-7292
▁victor	-7293
Mongolia	-7294
osidades	-7295
▁Calcuta	-7296
▁Estados	-7297
▁austral	-7298
▁barones	-7299
▁colocar	-7300
▁detalle	-7301
▁disparo	-7302
▁gustaba	-7303
▁observé	-7304
▁papeles	-7305
▁progres	-7306
▁respons	-7307
▁vegetal	-7308
▁ventaja	-7309
▁volveré	-7310
▁volvían	-7311
▁Habíamos	-7312
▁albergue	-7313
▁aproximó	-7314
▁arrancar	-7315
▁catástro	-7316
▁cinturón	-7317
▁conjunto	-7318
▁contiene	-7319
▁convenía	-7320
▁distinto	-7321
▁garganta	-7322
▁hablaban	-7323
▁hablarle	-7324
▁inquieto	-7325
▁necesito	-7326
▁permitir	-7327
▁resolvió	-7328
▁sembrado	-7329
▁subiendo	-7330
▁temiendo	-7331
▁brillaban	-7332
▁comprende	-7333
▁cubiertas	-7334
▁desconcer	-7335
▁dieciséis	-7336
▁entregado	-7337
▁espantoso	-7338
▁excepción	-7339
▁huéspedes	-7340
▁insignifi	-7341
▁orgulloso	-7342
▁razonable	-7343
▁recomenda	-7344
▁amabilidad	-7345
▁conservado	-7346
▁convicción	-7347
▁pescadores	-7348
▁preocupado	-7349
▁protección	-7350
▁siguientes	-7351
▁silvestres	-7352
▁encontrarse	-7353
▁maravilloso	-7354
▁proposición	-7355
▁tempestades	-7356
▁agradecimiento	-7357
▁particularmente	-7358
ór	-7359
Pod	-7360
bia	-7361
cad	-7362
gón	-7363
ime	-7364
irá	-7365
roj	-7366
ími	-7367
▁ep	-7368
Jane	-7369
Será	-7370
ilas	-7371
inci	-7372
ires	-7373
mpas	-7374
onía	-7375
rase	-7376
rino	-7377
tame	-7378
tern	-7379
▁Bri	-7380
▁Cer	-7381
▁For	-7382
▁Sop	-7383
▁cob	-7384
▁muñ	-7385
▁raí	-7386
Tengo	-7387
cilla	-7388
diese	-7389
garme	-7390
sopor	-7391
▁Rich	-7392
▁brib	-7393
▁daño	-7394
▁deja	-7395
▁evit	-7396
▁frag	-7397
▁mapa	-7398
▁mate	-7399
▁metá	-7400
▁nota	-7401
▁onag	-7402
▁tomé	-7403
▁vehí	-7404
tables	-7405
▁Eliza	-7406
▁Podía	-7407
▁Trans	-7408
▁baile	-7409
▁borra	-7410
▁corto	-7411
▁debil	-7412
▁efica	-7413
▁ensan	-7414
▁flote	-7415
▁insul	-7416
▁movió	-7417
▁notas	-7418
▁pista	-7419
▁plena	-7420
▁prece	-7421
▁radio	-7422
▁trajo	-7423
▁veras	-7424
▁éstas	-7425
ización	-7426
▁Liebre	-7427
▁Observ	-7428
▁aparej	-7429
▁bajaba	-7430
▁bodega	-7431
▁cortés	-7432
▁cuándo	-7433
▁demasi	-7434
▁dormía	-7435
▁frases	-7436
▁injust	-7437
▁inquis	-7438
▁libres	-7439
▁llaman	-7440
▁lumbre	-7441
▁marina	-7442
▁proven	-7443
▁rasgos	-7444
▁ruinas	-7445
▁subido	-7446
▁tablas	-7447
▁tercio	-7448
▁viajar	-7449
▁íbamos	-7450
lamiento	-7451
paciones	-7452
▁Gracias	-7453
▁avanzar	-7454
▁conduci	-7455
▁cubrían	-7456
▁encanto	-7457
▁insopor	-7458
▁medidas	-7459
▁mencion	-7460
▁negocio	-7461
▁oscuros	-7462
▁pasando	-7463
▁pistola	-7464
▁postigo	-7465
▁resultó	-7466
▁sacrifi	-7467
▁sombría	-7468
▁sucesos	-7469
▁testigo	-7470
▁volverá	-7471
▁acababan	-7472
▁ciudades	-7473
▁conocéis	-7474
▁estocada	-7475
▁peculiar	-7476
▁perdidos	-7477
▁pintores	-7478
▁poderosa	-7479
▁recordar	-7480
▁recursos	-7481
▁sentarse	-7482
▁sostener	-7483
▁testimon	-7484
▁accidente	-7485
▁constante	-7486
▁despertar	-7487
▁españoles	-7488
▁estaremos	-7489
▁honorable	-7490
▁inmediata	-7491
▁numerosas	-7492
▁peligrosa	-7493
▁sumergido	-7494
▁antecámara	-7495
▁hemisferio	-7496
▁presentado	-7497
▁aparecieron	-7498
▁desconocida	-7499
▁principales	-7500
▁especialmente	-7501
▁violentamente	-7502
Eh	-7503
▁:	-7504
Ran	-7505
TUL	-7506
ché	-7507
ecé	-7508
ice	-7509
mag	-7510
tár	-7511
ual	-7512
▁23	-7513
▁Oí	-7514
▁eb	-7515
▁om	-7516
▁ás	-7517
Cree	-7518
case	-7519
enti	-7520
goon	-7521
gués	-7522
losa	-7523
rara	-7524
tigu	-7525
ueve	-7526
▁Bun	-7527
▁Sol	-7528
▁Voy	-7529
▁ced	-7530
▁equ	-7531
▁faz	-7532
▁fro	-7533
▁niñ	-7534
▁noc	-7535
Había	-7536
Hasta	-7537
Nunca	-7538
cería	-7539
iosas	-7540
iquil	-7541
letas	-7542
minos	-7543
raría	-7544
stima	-7545
terio	-7546
uesas	-7547
▁Apar	-7548
▁Gato	-7549
▁Pasé	-7550
▁ardi	-7551
▁buta	-7552
▁carp	-7553
▁chis	-7554
▁deso	-7555
▁enca	-7556
▁gros	-7557
▁héro	-7558
▁mono	-7559
▁saco	-7560
▁sano	-7561
▁tocó	-7562
izadas	-7563
▁adorn	-7564
▁aeros	-7565
▁agudo	-7566
▁alejó	-7567
▁ardor	-7568
▁casta	-7569
▁cerem	-7570
▁chico	-7571
▁conje	-7572
▁leyes	-7573
▁mando	-7574
▁mante	-7575
▁marca	-7576
▁monos	-7577
▁muger	-7578
▁niñas	-7579
▁plato	-7580
▁publi	-7581
▁recub	-7582
▁sudor	-7583
▁ángel	-7584
Rangoon	-7585
▁Austra	-7586
▁Espero	-7587
▁actual	-7588
▁colocó	-7589
▁cuento	-7590
▁desemp	-7591
▁examen	-7592
▁fieras	-7593
▁gestos	-7594
▁grises	-7595
▁gustan	-7596
▁habido	-7597
▁minist	-7598
▁obstru	-7599
▁oculto	-7600
▁pasear	-7601
▁perdía	-7602
▁propie	-7603
▁proxim	-7604
▁sabría	-7605
▁sereno	-7606
▁suceso	-7607
▁título	-7608
Silencio	-7609
▁afortun	-7610
▁alambre	-7611
▁anunció	-7612
▁apagado	-7613
▁auxilio	-7614
▁campaña	-7615
▁comunic	-7616
▁consent	-7617
▁detenía	-7618
▁estando	-7619
▁incompr	-7620
▁indicar	-7621
▁lectura	-7622
▁mananti	-7623
▁mantuvo	-7624
▁perspec	-7625
▁socorro	-7626
▁advertir	-7627
▁apresuró	-7628
▁atravesó	-7629
▁conocida	-7630
▁debíamos	-7631
▁descenso	-7632
▁despertó	-7633
▁destreza	-7634
▁dominaba	-7635
▁elefante	-7636
▁extraños	-7637
▁llegaban	-7638
▁luminoso	-7639
▁millares	-7640
▁navegaba	-7641
▁sentirme	-7642
▁servidor	-7643
▁solución	-7644
▁términos	-7645
▁vigoroso	-7646
▁Gateshead	-7647
▁alcanzado	-7648
▁bolsillos	-7649
▁dieciocho	-7650
▁enamorado	-7651
▁iluminado	-7652
▁podríamos	-7653
▁precisión	-7654
▁campanilla	-7655
▁entrevista	-7656
▁necesarias	-7657
▁reemplazar	-7658
▁resultados	-7659
▁seriamente	-7660
▁vegetación	-7661
▁centímetros	-7662
▁contestación	-7663
▁generalmente	-7664
▁sobrenatural	-7665
▁experimentaba	-7666
▁acontecimiento	-7667
PI	-7668
Tú	-7669
ñó	-7670
!»,	-7671
Mil	-7672
Vos	-7673
dob	-7674
ego	-7675
pen	-7676
pod	-7677
tic	-7678
▁há	-7679
TULO	-7680
arts	-7681
berg	-7682
dera	-7683
inte	-7684
lata	-7685
mond	-7686
puls	-7687
tato	-7688
▁Bus	-7689
▁Lea	-7690
▁Lis	-7691
▁alb	-7692
▁bul	-7693
▁eng	-7694
▁idi	-7695
▁leg	-7696
▁lit	-7697
▁pez	-7698
▁rob	-7699
▁trá	-7700
▁vom	-7701
▁»-¿	-7702
Puede	-7703
ester	-7704
iedad	-7705
pedos	-7706
tirse	-7707
ussac	-7708
viado	-7709
▁CAPI	-7710
▁Vene	-7711
▁char	-7712
▁cron	-7713
▁céle	-7714
▁evas	-7715
▁fija	-7716
▁hilo	-7717
▁radi	-7718
▁seda	-7719
▁vend	-7720
mático	-7721
siguió	-7722
vistos	-7723
▁Jamás	-7724
▁Llegó	-7725
▁Marzo	-7726
▁ambas	-7727
▁antor	-7728
▁atras	-7729
▁carru	-7730
▁cañón	-7731
▁celeb	-7732
▁fanal	-7733
▁gatos	-7734
▁lengu	-7735
▁licor	-7736
▁mamíf	-7737
▁metió	-7738
▁peñas	-7739
▁pleno	-7740
▁ruina	-7741
▁sonar	-7742
▁terri	-7743
▁traía	-7744
▁zonas	-7745
tración	-7746
▁Ningún	-7747
▁abrían	-7748
▁ademán	-7749
▁alivio	-7750
▁amenaz	-7751
▁arbust	-7752
▁brumas	-7753
▁canoas	-7754
▁coinci	-7755
▁cuarta	-7756
▁cónsul	-7757
▁desenc	-7758
▁destel	-7759
▁espaci	-7760
▁fuente	-7761
▁perfil	-7762
▁reanim	-7763
▁regalo	-7764
▁reunir	-7765
▁sirvió	-7766
▁sosten	-7767
▁trampa	-7768
▁trayec	-7769
▁África	-7770
▁Nuestra	-7771
▁Venecia	-7772
▁abadesa	-7773
▁agujero	-7774
▁apoyado	-7775
▁asesino	-7776
▁balance	-7777
▁bestias	-7778
▁bloques	-7779
▁carroza	-7780
▁dominio	-7781
▁entreab	-7782
▁extrema	-7783
▁gruesas	-7784
▁iguales	-7785
▁intensa	-7786
▁lástima	-7787
▁líquida	-7788
▁opuesto	-7789
▁retirar	-7790
▁suponía	-7791
▁Bastilla	-7792
▁CAPITULO	-7793
▁catalejo	-7794
▁columnas	-7795
▁crímenes	-7796
▁cómplice	-7797
▁espesura	-7798
▁expresar	-7799
▁frialdad	-7800
▁gravedad	-7801
▁hablemos	-7802
▁informes	-7803
▁interval	-7804
▁provisto	-7805
▁simpatía	-7806
▁traicion	-7807
▁zoófitos	-7808
táneamente	-7809
▁asombrado	-7810
▁comenzado	-7811
▁cubiertos	-7812
▁descendió	-7813
▁desprecio	-7814
▁invitados	-7815
▁queriendo	-7816
▁renunciar	-7817
▁terminaba	-7818
▁mandíbulas	-7819
▁residencia	-7820
▁suavemente	-7821
▁temblorosa	-7822
▁volveremos	-7823
▁combustible	-7824
▁indiferencia	-7825
▁insoportable	-7826
▁precipitaron	-7827
▁contrafuertes	-7828
▁definitivamente	-7829
boa	-7830
dac	-7831
ira	-7832
pol	-7833
rás	-7834
óma	-7835
▁19	-7836
▁XI	-7837
▁bi	-7838
!...	-7839
cáis	-7840
edas	-7841
gios	-7842
hire	-7843
hton	-7844
ivas	-7845
tino	-7846
usto	-7847
▁Ess	-7848
▁Gre	-7849
▁Mal	-7850
▁Stu	-7851
▁Val	-7852
▁arb	-7853
▁caí	-7854
▁fib	-7855
▁hur	-7856
▁pág	-7857
▁sec	-7858
Esper	-7859
enetr	-7860
firió	-7861
gongo	-7862
ienta	-7863
leses	-7864
mones	-7865
rique	-7866
tanos	-7867
torce	-7868
▁Casi	-7869
▁abst	-7870
▁atur	-7871
▁cate	-7872
▁cién	-7873
▁gota	-7874
▁mamá	-7875
▁oper	-7876
▁puri	-7877
▁tumb	-7878
grafía	-7879
izados	-7880
riente	-7881
árselo	-7882
ímetro	-7883
▁absur	-7884
▁acome	-7885
▁atorm	-7886
▁comar	-7887
▁dices	-7888
▁dormí	-7889
▁esfor	-7890
▁espol	-7891
▁estra	-7892
▁haces	-7893
▁horno	-7894
▁huida	-7895
▁incom	-7896
▁insol	-7897
▁morib	-7898
▁patio	-7899
▁picos	-7900
▁quími	-7901
▁rayas	-7902
▁secas	-7903
▁solas	-7904
▁sordo	-7905
▁taber	-7906
▁trece	-7907
▁tropi	-7908
▁vuelo	-7909
▁Stuart	-7910
▁adonde	-7911
▁avisar	-7912
▁cargar	-7913
▁condes	-7914
▁confid	-7915
▁cruzar	-7916
▁cuáles	-7917
▁devuel	-7918
▁enviar	-7919
▁espuma	-7920
▁estóma	-7921
▁ignoro	-7922
▁llegue	-7923
▁macizo	-7924
▁mensaj	-7925
▁mezcla	-7926
▁muelle	-7927
▁mínimo	-7928
▁narval	-7929
▁noctur	-7930
▁pasión	-7931
▁patrón	-7932
▁precis	-7933
▁recodo	-7934
▁respec	-7935
▁sabían	-7936
▁siente	-7937
▁Essarts	-7938
▁Tampoco	-7939
▁advertí	-7940
▁atrever	-7941
▁bajando	-7942
▁cargado	-7943
▁casarse	-7944
▁coloqué	-7945
▁desempe	-7946
▁escuchó	-7947
▁escudos	-7948
▁espesas	-7949
▁explica	-7950
▁formada	-7951
▁funcion	-7952
▁gruesos	-7953
▁haberlo	-7954
▁miraban	-7955
▁reparar	-7956
▁seguros	-7957
▁vencido	-7958
▁almorzar	-7959
▁apreciar	-7960
▁creyendo	-7961
▁demonios	-7962
▁derechos	-7963
▁destruir	-7964
▁estrella	-7965
▁excesiva	-7966
▁explorar	-7967
▁expuesto	-7968
▁extendió	-7969
▁extrañas	-7970
▁guardado	-7971
▁hermanos	-7972
▁impenetr	-7973
▁lanzando	-7974
▁menester	-7975
▁máquinas	-7976
uradamente	-7977
▁Australia	-7978
▁aparecían	-7979
▁arriesgar	-7980
▁asesinato	-7981
▁autoridad	-7982
▁averiguar	-7983
▁eléctrico	-7984
▁enseguida	-7985
▁habilidad	-7986
▁invisible	-7987
▁manómetro	-7988
▁pronunció	-7989
▁proseguir	-7990
▁submarina	-7991
▁cualidades	-7992
▁invitación	-7993
▁procurador	-7994
▁tranquilos	-7995
▁aventurarse	-7996
▁comestibles	-7997
▁desesperada	-7998
▁inútilmente	-7999
▁sólidamente	-8000
▁Precisamente	-8001
▁desconocidos	-8002
▁desembarcado	-8003
▁experimentar	-8004
▁conocimientos	-8005
▁experimentado	-8006
▁sucesivamente	-8007
Ca	-8008
Vi	-8009
pá	-8010
up	-8011
000	-8012
Soy	-8013
aga	-8014
ali	-8015
alá	-8016
ari	-8017
len	-8018
umo	-8019
zca	-8020
▁Sh	-8021
alla	-8022
entó	-8023
erio	-8024
gura	-8025
ruga	-8026
tear	-8027
ñada	-8028
▁Ros	-8029
▁cil	-8030
▁dex	-8031
▁dió	-8032
▁jub	-8033
▁mug	-8034
▁zar	-8035
andes	-8036
ladas	-8037
migos	-8038
reros	-8039
tador	-8040
árbar	-8041
▁Hubo	-8042
▁Incl	-8043
▁abal	-8044
▁anun	-8045
▁beso	-8046
▁bota	-8047
▁cump	-8048
▁gall	-8049
▁inac	-8050
▁inta	-8051
▁lati	-8052
▁mati	-8053
▁méri	-8054
▁nomb	-8055
▁quem	-8056
▁rada	-8057
▁reac	-8058
▁rosa	-8059
▁seré	-8060
▁seto	-8061
▁sofá	-8062
▁tern	-8063
▁titu	-8064
Estaba	-8065
grados	-8066
ología	-8067
rision	-8068
▁aglom	-8069
▁alumb	-8070
▁arroz	-8071
▁captu	-8072
▁celos	-8073
▁empuj	-8074
▁enfri	-8075
▁excav	-8076
▁expan	-8077
▁graní	-8078
▁ident	-8079
▁inspi	-8080
▁latín	-8081
▁naveg	-8082
▁obten	-8083
▁pausa	-8084
▁primi	-8085
▁primo	-8086
▁suced	-8087
▁tinta	-8088
▁veros	-8089
▁vería	-8090
Diablos	-8091
delante	-8092
▁Eshton	-8093
▁Jussac	-8094
▁Lisboa	-8095
▁Quiero	-8096
▁alemán	-8097
▁andado	-8098
▁butaca	-8099
▁cabell	-8100
▁cadena	-8101
▁cercan	-8102
▁concha	-8103
▁dijera	-8104
▁echaba	-8105
▁faltar	-8106
▁fiesta	-8107
▁impedi	-8108
▁intrig	-8109
▁lanzar	-8110
▁lejano	-8111
▁máximo	-8112
▁nacido	-8113
▁nación	-8114
▁notado	-8115
▁portez	-8116
▁quitar	-8117
▁resbal	-8118
▁vencer	-8119
▁viejos	-8120
▁Graüben	-8121
▁agitaba	-8122
▁apasion	-8123
▁campana	-8124
▁catorce	-8125
▁diestro	-8126
▁dugongo	-8127
▁elevado	-8128
▁furioso	-8129
▁perjudi	-8130
▁produce	-8131
▁pudimos	-8132
▁público	-8133
▁satisfa	-8134
▁sembrar	-8135
▁Transcur	-8136
▁abandonó	-8137
▁abiertos	-8138
▁amarillo	-8139
▁aprision	-8140
▁encender	-8141
▁escollos	-8142
▁escribió	-8143
▁francesa	-8144
▁gritando	-8145
▁hermosas	-8146
▁infierno	-8147
▁maniobra	-8148
▁multitud	-8149
▁obtenido	-8150
▁política	-8151
▁sabremos	-8152
▁vehículo	-8153
posiciones	-8154
▁Comprendí	-8155
▁aerostato	-8156
▁conductor	-8157
▁convenido	-8158
▁destinado	-8159
▁fijamente	-8160
▁inclinado	-8161
▁misericor	-8162
▁narración	-8163
▁obligados	-8164
▁pertenece	-8165
▁primavera	-8166
▁telegrama	-8167
▁tentativa	-8168
▁terminada	-8169
▁trabajaba	-8170
▁visitante	-8171
▁construido	-8172
▁estuvieran	-8173
▁mantenerse	-8174
▁relaciones	-8175
▁satisfecha	-8176
▁transporte	-8177
untariamente	-8178
▁pertenecían	-8179
▁desaparición	-8180
▁anteriormente	-8181
▁septentrional	-8182
▁constantemente	-8183
▁reconocimiento	-8184
fé	-8185
oo	-8186
Ese	-8187
ear	-8188
fin	-8189
gia	-8190
lco	-8191
uad	-8192
ueb	-8193
vey	-8194
▁25	-8195
▁av	-8196
Sólo	-8197
acto	-8198
crib	-8199
cula	-8200
logo	-8201
reas	-8202
riag	-8203
vist	-8204
▁Bib	-8205
▁Cog	-8206
▁Rep	-8207
▁Zel	-8208
▁aho	-8209
▁ans	-8210
▁cem	-8211
▁flu	-8212
▁fós	-8213
▁jar	-8214
▁jug	-8215
▁vay	-8216
Desde	-8217
Pobre	-8218
genes	-8219
ienes	-8220
ieres	-8221
ierre	-8222
lcote	-8223
áceas	-8224
ígeno	-8225
▁Debo	-8226
▁Quer	-8227
▁bran	-8228
▁brig	-8229
▁cero	-8230
▁ceño	-8231
▁dios	-8232
▁enig	-8233
▁ensa	-8234
▁flex	-8235
▁grab	-8236
▁hube	-8237
▁pedi	-8238
edores	-8239
onales	-8240
rantes	-8241
tarios	-8242
trante	-8243
viendo	-8244
ásemos	-8245
▁China	-8246
▁Claro	-8247
▁Neces	-8248
▁Oruga	-8249
▁Sabía	-8250
▁Tiene	-8251
▁basal	-8252
▁damas	-8253
▁grasa	-8254
▁hones	-8255
▁listo	-8256
▁mendi	-8257
▁mosta	-8258
▁pedía	-8259
▁plaza	-8260
▁regal	-8261
▁serio	-8262
▁signo	-8263
▁supon	-8264
▁trage	-8265
▁yacía	-8266
hombres	-8267
radores	-8268
vención	-8269
▁Dentro	-8270
▁Harvey	-8271
▁Mañana	-8272
▁afirma	-8273
▁cripta	-8274
▁cubrir	-8275
▁desear	-8276
▁física	-8277
▁goleta	-8278
▁increí	-8279
▁maquin	-8280
▁paraje	-8281
▁planos	-8282
▁quinta	-8283
▁rochel	-8284
▁señaló	-8285
▁sólida	-8286
▁vender	-8287
▁visión	-8288
▁éramos	-8289
diéndose	-8290
▁Nuestro	-8291
▁bajaron	-8292
▁cobarde	-8293
▁cuantos	-8294
▁embriag	-8295
▁estacas	-8296
▁fatigas	-8297
▁flotaba	-8298
▁fortifi	-8299
▁hayamos	-8300
▁humilde	-8301
▁ilustre	-8302
▁logrado	-8303
▁mediano	-8304
▁oxígeno	-8305
▁parecen	-8306
▁reflujo	-8307
▁retener	-8308
▁vestida	-8309
iosamente	-8310
▁Millcote	-8311
▁Nuestros	-8312
▁adelantó	-8313
▁angustia	-8314
▁aprender	-8315
▁billetes	-8316
▁contribu	-8317
▁curiosos	-8318
▁despreci	-8319
▁dirigido	-8320
▁elegante	-8321
▁empleado	-8322
▁engañado	-8323
▁gentiles	-8324
▁inconven	-8325
▁infinito	-8326
▁lenguaje	-8327
▁marchaba	-8328
▁proponía	-8329
▁provocar	-8330
▁restable	-8331
▁retirada	-8332
▁reunidos	-8333
▁revólver	-8334
▁sostenía	-8335
▁terrenos	-8336
▁victoria	-8337
▁arrojados	-8338
▁aumentaba	-8339
▁barquilla	-8340
▁chimeneas	-8341
▁corrieron	-8342
▁difíciles	-8343
▁encendida	-8344
▁escuchado	-8345
▁importaba	-8346
▁lecciones	-8347
▁mandíbula	-8348
▁relámpago	-8349
▁reservado	-8350
▁respondía	-8351
▁vegetales	-8352
▁caracteres	-8353
▁corredores	-8354
▁desembarco	-8355
▁felizmente	-8356
▁horizontal	-8357
▁misteriosa	-8358
▁serpientes	-8359
▁territorio	-8360
▁vigilancia	-8361
▁desembarcar	-8362
▁destrucción	-8363
▁encontraría	-8364
▁estupefacto	-8365
▁información	-8366
▁institutriz	-8367
▁presentarse	-8368
▁efectivamente	-8369
▁encontraremos	-8370
▁recomendación	-8371
▁necesariamente	-8372
▁probabilidades	-8373
▁estremecimiento	-8374
by	-8375
Pre	-8376
abu	-8377
flu	-8378
hie	-8379
hum	-8380
ise	-8381
lon	-8382
tua	-8383
éro	-8384
▁1.	-8385
▁22	-8386
▁Bé	-8387
▁Us	-8388
Todo	-8389
ames	-8390
bell	-8391
dase	-8392
domo	-8393
edme	-8394
empo	-8395
erse	-8396
evit	-8397
hist	-8398
repe	-8399
tese	-8400
usos	-8401
vero	-8402
▁Sco	-8403
▁adh	-8404
▁bús	-8405
▁dur	-8406
▁frá	-8407
▁fum	-8408
▁irá	-8409
▁már	-8410
▁tea	-8411
Adiós	-8412
ambri	-8413
arlas	-8414
cidas	-8415
crito	-8416
ctivo	-8417
deció	-8418
ecida	-8419
mouth	-8420
pitán	-8421
umont	-8422
áceos	-8423
▁crey	-8424
▁deba	-8425
▁empa	-8426
▁hoci	-8427
▁lana	-8428
▁leal	-8429
▁mina	-8430
▁mira	-8431
▁puño	-8432
▁rele	-8433
▁sale	-8434
▁seno	-8435
▁uvas	-8436
emanes	-8437
radera	-8438
ventud	-8439
áramos	-8440
▁Comen	-8441
▁Hemos	-8442
▁abrum	-8443
▁apell	-8444
▁bajas	-8445
▁cerro	-8446
▁defec	-8447
▁delan	-8448
▁dique	-8449
▁escen	-8450
▁falso	-8451
▁gotas	-8452
▁impon	-8453
▁muñec	-8454
▁negru	-8455
▁obrar	-8456
▁ocupó	-8457
▁plazo	-8458
▁podia	-8459
▁puñal	-8460
▁redes	-8461
lamente	-8462
▁Andrés	-8463
▁Estado	-8464
▁Habían	-8465
▁Océano	-8466
▁alquil	-8467
▁atener	-8468
▁atribu	-8469
▁bestia	-8470
▁bloque	-8471
▁búsque	-8472
▁compor	-8473
▁darles	-8474
▁dotado	-8475
▁enamor	-8476
▁exager	-8477
▁fijado	-8478
▁hechas	-8479
▁indeci	-8480
▁indicó	-8481
▁inevit	-8482
▁infame	-8483
▁intern	-8484
▁linter	-8485
▁merced	-8486
▁oblicu	-8487
▁parale	-8488
▁perple	-8489
▁platos	-8490
▁puntas	-8491
▁sitios	-8492
▁suelen	-8493
▁sólido	-8494
▁tejido	-8495
▁trecho	-8496
▁viajes	-8497
▁vuelva	-8498
continuó	-8499
▁Continu	-8500
▁adoptar	-8501
▁almacen	-8502
▁anteojo	-8503
▁arrastr	-8504
▁arrojar	-8505
▁aumento	-8506
▁captura	-8507
▁ciénaga	-8508
▁creerse	-8509
▁decirse	-8510
▁deslumb	-8511
▁domesti	-8512
▁dominar	-8513
▁duquesa	-8514
▁espadas	-8515
▁espolón	-8516
▁esquina	-8517
▁existir	-8518
▁flancos	-8519
▁heridos	-8520
▁incapaz	-8521
▁indicio	-8522
▁innumer	-8523
▁maldito	-8524
▁ponerme	-8525
▁quitado	-8526
▁renovar	-8527
▁repetía	-8528
▁rodeaba	-8529
▁secreta	-8530
▁silbido	-8531
▁supremo	-8532
▁sustitu	-8533
▁tercero	-8534
▁torbell	-8535
▁trazado	-8536
▁vecinos	-8537
▁Richmond	-8538
▁adquirir	-8539
▁amanecer	-8540
▁arbustos	-8541
▁asustado	-8542
▁cetáceos	-8543
▁combatir	-8544
▁continuo	-8545
▁descarga	-8546
▁juventud	-8547
▁llevarla	-8548
▁llevarme	-8549
▁mezclado	-8550
▁ministro	-8551
▁portillo	-8552
▁pudiesen	-8553
▁reconocí	-8554
▁sollozos	-8555
▁amenazaba	-8556
▁cabellera	-8557
▁capacidad	-8558
▁carcajada	-8559
▁conocidos	-8560
▁encantado	-8561
▁encendido	-8562
▁horribles	-8563
▁iluminaba	-8564
▁indispens	-8565
▁maravilla	-8566
▁marcharse	-8567
▁mayordomo	-8568
▁mosquetes	-8569
▁permaneci	-8570
▁rescatado	-8571
▁retirarse	-8572
▁sacerdote	-8573
▁catástrofe	-8574
▁hubiéramos	-8575
▁levantaron	-8576
▁preguntado	-8577
▁preocupaba	-8578
▁prodigiosa	-8579
▁respondido	-8580
▁termómetro	-8581
▁importantes	-8582
▁pronunciado	-8583
▁recomendado	-8584
▁rochelleses	-8585
▁irresistible	-8586
▁Evidentemente	-8587
▁afortunadamente	-8588
Ad	-8589
An	-8590
cá	-8591
ik	-8592
ni	-8593
óp	-8594
?»,	-8595
Mal	-8596
cop	-8597
del	-8598
gne	-8599
ili	-8600
mal	-8601
ose	-8602
uti	-8603
▁Ce	-8604
▁Da	-8605
agas	-8606
apón	-8607
dios	-8608
fand	-8609
igas	-8610
jalá	-8611
jese	-8612
lace	-8613
onel	-8614
pedo	-8615
remo	-8616
ríos	-8617
usas	-8618
úcar	-8619
▁Arm	-8620
▁Dak	-8621
▁Reg	-8622
▁Ves	-8623
▁alg	-8624
▁eva	-8625
▁fos	-8626
▁fáb	-8627
▁hir	-8628
▁júb	-8629
▁lav	-8630
▁muf	-8631
▁nit	-8632
▁orn	-8633
▁tím	-8634
▁ésa	-8635
Puedo	-8636
adier	-8637
cones	-8638
liver	-8639
tarla	-8640
ático	-8641
▁Asia	-8642
▁Estu	-8643
▁Grim	-8644
▁Imag	-8645
▁Xury	-8646
▁dejo	-8647
▁durm	-8648
▁exal	-8649
▁idén	-8650
▁irme	-8651
▁irra	-8652
▁norm	-8653
▁oran	-8654
▁robo	-8655
▁tall	-8656
▁tapi	-8657
Amigos	-8658
ancias	-8659
cencia	-8660
ciosos	-8661
▁Cinco	-8662
▁Marta	-8663
▁Mirad	-8664
▁Patri	-8665
▁Puede	-8666
▁acabo	-8667
▁aguan	-8668
▁aguja	-8669
▁aviso	-8670
▁barra	-8671
▁bello	-8672
▁bolso	-8673
▁ciego	-8674
▁cordi	-8675
▁cortó	-8676
▁deuda	-8677
▁encom	-8678
▁enroj	-8679
▁enven	-8680
▁filas	-8681
▁hulla	-8682
▁llevo	-8683
▁notar	-8684
▁palos	-8685
▁pique	-8686
▁plate	-8687
▁rabia	-8688
▁raras	-8689
▁ricos	-8690
▁secos	-8691
▁sensa	-8692
▁susci	-8693
▁suyas	-8694
▁tumul	-8695
▁venas	-8696
▁vivas	-8697
Queréis	-8698
iéndole	-8699
mouille	-8700
▁Siguió	-8701
▁Sophie	-8702
▁Unidos	-8703
▁abalan	-8704
▁acudió	-8705
▁anchas	-8706
▁ayudar	-8707
▁azúcar	-8708
▁calcul	-8709
▁cangre	-8710
▁casado	-8711
▁cement	-8712
▁clases	-8713
▁cuñado	-8714
▁espejo	-8715
▁extenu	-8716
▁faltan	-8717
▁fracas	-8718
▁guarda	-8719
▁guardó	-8720
▁hundió	-8721
▁ingenu	-8722
▁inmedi	-8723
▁júbilo	-8724
▁llenar	-8725
▁llevan	-8726
▁molino	-8727
▁ocurri	-8728
▁ordené	-8729
▁perfum	-8730
▁pesaba	-8731
▁salían	-8732
▁versos	-8733
▁Aquello	-8734
▁apoderó	-8735
▁audacia	-8736
▁bastado	-8737
▁cachalo	-8738
▁carecía	-8739
▁causado	-8740
▁cortado	-8741
▁crédito	-8742
▁cuantas	-8743
▁domingo	-8744
▁flechas	-8745
▁francos	-8746
▁hacerla	-8747
▁intenso	-8748
▁muebles	-8749
▁pantano	-8750
▁partici	-8751
▁penetró	-8752
▁podamos	-8753
▁pradera	-8754
▁recogió	-8755
▁resumen	-8756
▁rápidos	-8757
▁sobrevi	-8758
▁someter	-8759
▁sucedía	-8760
▁terremo	-8761
▁tristes	-8762
▁volumen	-8763
▁abriendo	-8764
▁barriles	-8765
▁carneros	-8766
▁desperté	-8767
▁disparos	-8768
▁elevaban	-8769
▁generoso	-8770
▁hospital	-8771
▁infinita	-8772
▁llamaban	-8773
▁mosquete	-8774
▁multipli	-8775
▁pescador	-8776
▁praderas	-8777
▁recorrió	-8778
▁rodeaban	-8779
▁señalaba	-8780
▁sometido	-8781
▁teniente	-8782
▁tortugas	-8783
▁trayecto	-8784
▁acercaron	-8785
▁anunciaba	-8786
▁aparecido	-8787
▁cadáveres	-8788
▁compañera	-8789
▁confusión	-8790
▁corazones	-8791
▁derribado	-8792
▁detective	-8793
▁educación	-8794
▁ejecución	-8795
▁elevación	-8796
▁encerrado	-8797
▁examinado	-8798
▁increíble	-8799
▁inmóviles	-8800
▁necesitar	-8801
▁ocupación	-8802
▁solitaria	-8803
▁tiburones	-8804
▁Trémouille	-8805
▁abandonada	-8806
▁agradecido	-8807
▁americanos	-8808
▁desarrollo	-8809
▁detonación	-8810
▁facultades	-8811
▁igualmente	-8812
▁inesperado	-8813
▁locomotora	-8814
▁maquinista	-8815
▁medianoche	-8816
▁pertenecer	-8817
▁portezuela	-8818
▁sacerdotes	-8819
▁silenciosa	-8820
▁desesperado	-8821
▁formidables	-8822
▁propietario	-8823
▁contemplando	-8824
▁razonamiento	-8825
▁Decididamente	-8826
▁continuamente	-8827
▁inclinaciones	-8828
▁inmediaciones	-8829
▁posibilidades	-8830
▁vigorosamente	-8831
▁indudablemente	-8832
Mr	-8833
Re	-8834
uj	-8835
wn	-8836
”,	-8837
Has	-8838
Voy	-8839
bot	-8840
elo	-8841
ges	-8842
icé	-8843
kar	-8844
moh	-8845
neg	-8846
reo	-8847
óso	-8848
▁aj	-8849
.000	-8850
chad	-8851
deos	-8852
dosa	-8853
ella	-8854
iens	-8855
iete	-8856
igue	-8857
ipos	-8858
locu	-8859
pelo	-8860
regó	-8861
torn	-8862
trio	-8863
▁Ban	-8864
▁Nau	-8865
▁Pol	-8866
▁alu	-8867
▁anc	-8868
▁ego	-8869
▁esb	-8870
▁fla	-8871
▁húm	-8872
▁jab	-8873
▁jur	-8874
▁sim	-8875
abozo	-8876
antre	-8877
donos	-8878
inela	-8879
inson	-8880
tismo	-8881
▁Llam	-8882
▁Mand	-8883
▁Pude	-8884
▁abrí	-8885
▁acel	-8886
▁bron	-8887
▁caba	-8888
▁chel	-8889
▁crep	-8890
▁dirá	-8891
▁dulz	-8892
▁endu	-8893
▁fina	-8894
▁peti	-8895
▁polo	-8896
▁sinu	-8897
▁subl	-8898
▁toca	-8899
▁trae	-8900
Mañana	-8901
cables	-8902
cional	-8903
ficial	-8904
gramos	-8905
inadas	-8906
mítame	-8907
áculos	-8908
émonos	-8909
▁Pensé	-8910
▁Poole	-8911
▁Sería	-8912
▁admit	-8913
▁aires	-8914
▁asper	-8915
▁cabri	-8916
▁cente	-8917
▁duras	-8918
▁embos	-8919
▁manus	-8920
▁museo	-8921
▁parsi	-8922
▁pizar	-8923
▁portu	-8924
▁redob	-8925
▁regla	-8926
▁riach	-8927
▁saben	-8928
▁salpi	-8929
▁saque	-8930
▁seria	-8931
amentos	-8932
gamente	-8933
iencias	-8934
iéndome	-8935
tándome	-8936
▁Biblia	-8937
▁Dakkar	-8938
▁Dumont	-8939
▁Record	-8940
▁Tenéis	-8941
▁Tierra	-8942
▁acumul	-8943
▁alzaba	-8944
▁convir	-8945
▁debéis	-8946
▁despro	-8947
▁disper	-8948
▁divina	-8949
▁escasa	-8950
▁estaré	-8951
▁fascin	-8952
▁filóso	-8953
▁hielos	-8954
▁idioma	-8955
▁imagen	-8956
▁manifi	-8957
▁metido	-8958
▁moment	-8959
▁montar	-8960
▁música	-8961
▁obtuvo	-8962
▁orangu	-8963
▁ostras	-8964
▁pareja	-8965
▁pasaje	-8966
▁peores	-8967
▁previs	-8968
▁refres	-8969
▁sirven	-8970
▁tendía	-8971
▁velada	-8972
▁vidrio	-8973
▁vivían	-8974
Adelante	-8975
endencia	-8976
▁Hubiera	-8977
▁Primero	-8978
▁Zelanda	-8979
▁cigarro	-8980
▁comerci	-8981
▁cruzado	-8982
▁delgada	-8983
▁despren	-8984
▁disipar	-8985
▁escrita	-8986
▁escrupu	-8987
▁estrope	-8988
▁impedía	-8989
▁indifer	-8990
▁infeliz	-8991
▁paseaba	-8992
▁perecer	-8993
▁permite	-8994
▁persist	-8995
▁prestar	-8996
▁quedará	-8997
▁retraso	-8998
▁servían	-8999
▁solemne	-9000
▁sudeste	-9001
▁taberna	-9002
▁timonel	-9003
▁urgente	-9004
▁ventura	-9005
▁Aquellas	-9006
▁acercado	-9007
▁apartado	-9008
▁aposento	-9009
▁bienhech	-9010
▁buscarme	-9011
▁calabozo	-9012
▁cerrados	-9013
▁científi	-9014
▁comercio	-9015
▁comienzo	-9016
▁confiado	-9017
▁despensa	-9018
▁despidió	-9019
▁dirigida	-9020
▁distribu	-9021
▁envuelto	-9022
▁escafand	-9023
▁estómago	-9024
▁fantasma	-9025
▁habitado	-9026
▁indicado	-9027
▁insistió	-9028
▁insufici	-9029
▁pregunto	-9030
▁pudiendo	-9031
▁quedaría	-9032
▁recobrar	-9033
▁recogido	-9034
▁retirado	-9035
▁sospecha	-9036
▁apoderado	-9037
▁brigadier	-9038
▁camaradas	-9039
▁caminando	-9040
▁centinela	-9041
▁colección	-9042
▁conducido	-9043
▁destinada	-9044
▁escenario	-9045
▁indudable	-9046
▁pensativo	-9047
▁reconozco	-9048
▁separaban	-9049
▁separarse	-9050
▁abundancia	-9051
▁abundantes	-9052
▁adelantado	-9053
▁cementerio	-9054
▁ejemplares	-9055
▁interrogar	-9056
▁penetrante	-9057
▁reputación	-9058
▁sospechoso	-9059
▁descripción	-9060
▁ochocientos	-9061
▁preguntarle	-9062
▁interrumpido	-9063
▁misericordia	-9064
▁permanecieron	-9065
▁relativamente	-9066
▁singularmente	-9067
▁incomprensible	-9068
▁principalmente	-9069
▁gentileshombres	-9070
Ur	-9071
ij	-9072
fal	-9073
idu	-9074
rea	-9075
ula	-9076
▁Ba	-9077
▁Ol	-9078
▁cá	-9079
▁eu	-9080
▁lú	-9081
▁ul	-9082
cher	-9083
crip	-9084
cumb	-9085
ecil	-9086
ique	-9087
irlo	-9088
pues	-9089
rent	-9090
ster	-9091
tena	-9092
tidi	-9093
tona	-9094
tron	-9095
ucos	-9096
ángu	-9097
▁Bou	-9098
▁Fri	-9099
▁Gul	-9100
▁anf	-9101
▁lev	-9102
▁ray	-9103
▁ríg	-9104
▁sex	-9105
▁tez	-9106
Venga	-9107
adera	-9108
chera	-9109
cible	-9110
colía	-9111
endió	-9112
grada	-9113
metro	-9114
pensé	-9115
quero	-9116
quita	-9117
resas	-9118
▁Acab	-9119
▁Hice	-9120
▁Recu	-9121
▁aban	-9122
▁atar	-9123
▁café	-9124
▁caña	-9125
▁devo	-9126
▁déci	-9127
▁enre	-9128
▁fugi	-9129
▁inmo	-9130
▁irse	-9131
▁maes	-9132
▁pedí	-9133
▁rema	-9134
▁vaga	-9135
Adónde	-9136
erales	-9137
foresc	-9138
itados	-9139
pectos	-9140
quiere	-9141
éndolo	-9142
ógicas	-9143
úsculo	-9144
▁Abbot	-9145
▁Ambos	-9146
▁Japón	-9147
▁Usher	-9148
▁adher	-9149
▁algod	-9150
▁arcos	-9151
▁atado	-9152
▁cajas	-9153
▁consa	-9154
▁custo	-9155
▁derro	-9156
▁digna	-9157
▁dilig	-9158
▁dunas	-9159
▁ensen	-9160
▁estri	-9161
▁excus	-9162
▁fiera	-9163
▁girar	-9164
▁indes	-9165
▁intri	-9166
▁linda	-9167
▁llenó	-9168
▁parar	-9169
▁recta	-9170
▁redac	-9171
▁vehem	-9172
▁yendo	-9173
Después	-9174
También	-9175
cepción	-9176
dulidad	-9177
ándoles	-9178
▁Muchas	-9179
▁Puesto	-9180
▁Volvió	-9181
▁acomod	-9182
▁actuar	-9183
▁amplia	-9184
▁atraer	-9185
▁cambió	-9186
▁cancil	-9187
▁casaca	-9188
▁charla	-9189
▁crecer	-9190
▁crecía	-9191
▁desmay	-9192
▁eficaz	-9193
▁empecé	-9194
▁exclus	-9195
▁expuls	-9196
▁exquis	-9197
▁famoso	-9198
▁fresco	-9199
▁gastos	-9200
▁hachas	-9201
▁lógico	-9202
▁ofrece	-9203
▁pagoda	-9204
▁quedan	-9205
▁saltos	-9206
▁sillas	-9207
▁tardar	-9208
▁veamos	-9209
▁vendrá	-9210
▁únicos	-9211
▁Proctor	-9212
▁Supongo	-9213
▁alejaba	-9214
▁anciana	-9215
▁apoyaba	-9216
▁cadenas	-9217
▁capaces	-9218
▁cascada	-9219
▁comprar	-9220
▁comprim	-9221
▁confiar	-9222
▁crecían	-9223
▁célebre	-9224
▁deberes	-9225
▁decidir	-9226
▁dejarme	-9227
▁deprisa	-9228
▁docenas	-9229
▁encargo	-9230
▁equival	-9231
▁escollo	-9232
▁espesos	-9233
▁evasión	-9234
▁explicó	-9235
▁llegara	-9236
▁militar	-9237
▁modales	-9238
▁navegar	-9239
▁ocasion	-9240
▁palidez	-9241
▁palomas	-9242
▁perturb	-9243
▁resolví	-9244
▁riqueza	-9245
▁sentaba	-9246
▁suplico	-9247
▁tensión	-9248
▁teorías	-9249
▁tesoros	-9250
▁vacilar	-9251
▁abiertas	-9252
▁componía	-9253
▁conforme	-9254
▁consuelo	-9255
▁depósito	-9256
▁devorado	-9257
▁dirigían	-9258
▁estallar	-9259
▁incendio	-9260
▁infernal	-9261
▁momentán	-9262
▁noroeste	-9263
▁ocultaba	-9264
▁paralelo	-9265
▁particip	-9266
▁preciosa	-9267
▁procedía	-9268
▁sentados	-9269
▁traición	-9270
▁volcanes	-9271
▁ascensión	-9272
▁cercanías	-9273
▁consiguió	-9274
▁cristiano	-9275
▁desayunar	-9276
▁destruido	-9277
▁escotilla	-9278
▁franqueza	-9279
▁imaginaba	-9280
▁interlocu	-9281
▁mamíferos	-9282
▁orangután	-9283
▁penetraba	-9284
▁posterior	-9285
▁producían	-9286
▁realizado	-9287
▁severidad	-9288
▁admirables	-9289
▁argumentos	-9290
▁atmósferas	-9291
▁conservaba	-9292
▁entretanto	-9293
▁equivocaba	-9294
▁estuviesen	-9295
▁melancolía	-9296
▁periódicos	-9297
▁preparados	-9298
▁propósitos	-9299
▁proximidad	-9300
▁relámpagos	-9301
▁satisfacer	-9302
▁submarinos	-9303
▁característ	-9304
▁comprometer	-9305
▁desaparecía	-9306
▁exclamación	-9307
▁necesitamos	-9308
▁impenetrable	-9309
▁innumerables	-9310
▁sufrimientos	-9311
▁cuatrocientos	-9312
▁maquinalmente	-9313
▁frecuentemente	-9314
."	-9315
ho	-9316
Más	-9317
dar	-9318
fix	-9319
lus	-9320
tte	-9321
úme	-9322
––;	-9323
Enri	-9324
Sabe	-9325
Sois	-9326
Tend	-9327
ablo	-9328
bito	-9329
erma	-9330
guno	-9331
iaba	-9332
jeme	-9333
rust	-9334
tana	-9335
tina	-9336
udío	-9337
ulas	-9338
ídos	-9339
▁Dev	-9340
▁Lan	-9341
▁Pen	-9342
▁Rob	-9343
▁Sam	-9344
▁emi	-9345
▁ice	-9346
▁ola	-9347
▁vea	-9348
choso	-9349
driks	-9350
duras	-9351
eroso	-9352
jadas	-9353
neses	-9354
orias	-9355
pañía	-9356
ribuy	-9357
rilla	-9358
tarlo	-9359
uerto	-9360
vento	-9361
úmedo	-9362
▁Avan	-9363
▁Comp	-9364
▁Hamb	-9365
▁Leah	-9366
▁Scar	-9367
▁Unos	-9368
▁abre	-9369
▁cala	-9370
▁cató	-9371
▁clav	-9372
▁deri	-9373
▁dias	-9374
▁gato	-9375
▁imbé	-9376
▁jade	-9377
▁pata	-9378
▁pond	-9379
▁reca	-9380
▁toma	-9381
▁trom	-9382
▁tubo	-9383
Cuándo	-9384
Estáis	-9385
cieron	-9386
eridad	-9387
estión	-9388
inales	-9389
ington	-9390
intero	-9391
itadas	-9392
▁Lyons	-9393
▁Media	-9394
▁Tours	-9395
▁asfix	-9396
▁astro	-9397
▁ciruj	-9398
▁clave	-9399
▁convo	-9400
▁desvi	-9401
▁disco	-9402
▁finas	-9403
▁fríos	-9404
▁haced	-9405
▁impos	-9406
▁inago	-9407
▁later	-9408
▁lento	-9409
▁madru	-9410
▁malas	-9411
▁mandó	-9412
▁mantu	-9413
▁mirad	-9414
▁nadar	-9415
▁pelea	-9416
▁pinos	-9417
▁rojas	-9418
▁selva	-9419
▁sirvi	-9420
▁traté	-9421
Urville	-9422
aríamos	-9423
diencia	-9424
namente	-9425
▁Cuatro	-9426
▁Miller	-9427
▁Señora	-9428
▁agudos	-9429
▁ballen	-9430
▁bancos	-9431
▁bebido	-9432
▁bellas	-9433
▁cañona	-9434
▁cebada	-9435
▁durmió	-9436
▁dígame	-9437
▁econom	-9438
▁fieles	-9439
▁flecha	-9440
▁gloria	-9441
▁habrán	-9442
▁hallan	-9443
▁harina	-9444
▁hocico	-9445
▁montes	-9446
▁palpit	-9447
▁pantal	-9448
▁perros	-9449
▁plegar	-9450
▁separa	-9451
▁siervo	-9452
▁tocaba	-9453
▁vecino	-9454
▁verdor	-9455
▁vernos	-9456
driksson	-9457
▁Grimpen	-9458
▁Llevaba	-9459
▁abismos	-9460
▁acusado	-9461
▁alcanzó	-9462
▁almacén	-9463
▁aparejo	-9464
▁armario	-9465
▁arrancó	-9466
▁bandera	-9467
▁cansado	-9468
▁condado	-9469
▁conocen	-9470
▁cuántas	-9471
▁dejarlo	-9472
▁dejarse	-9473
▁denunci	-9474
▁dulzura	-9475
▁débiles	-9476
▁enferma	-9477
▁fachada	-9478
▁fuentes	-9479
▁gritaba	-9480
▁guantes	-9481
▁indefin	-9482
▁inmovil	-9483
▁intentó	-9484
▁lección	-9485
▁maestra	-9486
▁miseria	-9487
▁noventa	-9488
▁ocupada	-9489
▁pasados	-9490
▁pesadas	-9491
▁porción	-9492
▁privado	-9493
▁redonda	-9494
▁refiere	-9495
▁reprodu	-9496
▁sulfato	-9497
▁transmi	-9498
Enriqueta	-9499
actamente	-9500
dimientos	-9501
▁Compañía	-9502
▁Hamburgo	-9503
▁abrieron	-9504
▁acciones	-9505
▁antiguas	-9506
▁apacible	-9507
▁aprovech	-9508
▁artículo	-9509
▁carruaje	-9510
▁centelle	-9511
▁comenzar	-9512
▁contenta	-9513
▁contentó	-9514
▁defectos	-9515
▁discutir	-9516
▁embarcar	-9517
▁equivoco	-9518
▁europeos	-9519
▁extender	-9520
▁extiende	-9521
▁familias	-9522
▁graciosa	-9523
▁hicieran	-9524
▁interpre	-9525
▁islandes	-9526
▁lanzaron	-9527
▁linterna	-9528
▁llevarlo	-9529
▁ofrecían	-9530
▁pasiones	-9531
▁perpendi	-9532
▁posibles	-9533
▁presenta	-9534
▁presteza	-9535
▁producen	-9536
▁pulgadas	-9537
▁quedarme	-9538
▁sensible	-9539
▁sobrepas	-9540
▁tragedia	-9541
▁vertical	-9542
▁viviente	-9543
▁barómetro	-9544
▁canciller	-9545
▁compatrio	-9546
▁conocidas	-9547
▁convirtió	-9548
▁disimular	-9549
▁encallado	-9550
▁inclinaba	-9551
▁indicaban	-9552
▁instalado	-9553
▁intereses	-9554
▁ladrillos	-9555
▁manifestó	-9556
▁marchaban	-9557
▁mensajero	-9558
▁provistos	-9559
▁registrar	-9560
▁abandonaba	-9561
▁agradables	-9562
▁carpintero	-9563
▁crepúsculo	-9564
▁distinguía	-9565
▁equilibrio	-9566
▁escotillas	-9567
▁estremeció	-9568
▁hubiésemos	-9569
▁lamentable	-9570
▁observando	-9571
▁peligrosos	-9572
▁sinceridad	-9573
▁terrestres	-9574
▁Fridriksson	-9575
▁corresponde	-9576
▁gigantescos	-9577
▁perspectiva	-9578
▁resplandeci	-9579
▁exploradores	-9580
▁considerables	-9581
▁encontrábamos	-9582
▁inconveniente	-9583
▁perpendicular	-9584
▁presentimientos	-9585
ke	-9586
nt	-9587
▁!	-9588
▁w	-9589
Nin	-9590
ack	-9591
dez	-9592
gip	-9593
iay	-9594
ijo	-9595
one	-9596
tch	-9597
teo	-9598
yen	-9599
érf	-9600
úes	-9601
▁28	-9602
▁Ir	-9603
▁ré	-9604
dice	-9605
déis	-9606
ermo	-9607
into	-9608
iros	-9609
izos	-9610
onor	-9611
pada	-9612
udal	-9613
yera	-9614
ámos	-9615
ñadí	-9616
▁Fui	-9617
▁Tur	-9618
▁aga	-9619
▁asp	-9620
▁ben	-9621
▁boc	-9622
▁cli	-9623
▁ecu	-9624
▁fea	-9625
▁haz	-9626
▁lis	-9627
▁láp	-9628
▁zan	-9629
Amigo	-9630
Carna	-9631
Jamás	-9632
amond	-9633
ardas	-9634
dilla	-9635
ereza	-9636
idado	-9637
illon	-9638
inosa	-9639
ional	-9640
jaban	-9641
onias	-9642
selas	-9643
ógica	-9644
▁Char	-9645
▁Cons	-9646
▁Reyk	-9647
▁Vaya	-9648
▁barb	-9649
▁boda	-9650
▁dará	-9651
▁elig	-9652
▁empi	-9653
▁foco	-9654
▁hipo	-9655
▁impi	-9656
▁lomo	-9657
▁meta	-9658
▁sete	-9659
▁taza	-9660
▁tuvi	-9661
▁vini	-9662
▁yate	-9663
Parece	-9664
cantes	-9665
cillos	-9666
céntri	-9667
ecerse	-9668
illado	-9669
ársela	-9670
áticas	-9671
írselo	-9672
▁Acaso	-9673
▁abrig	-9674
▁adiós	-9675
▁amáis	-9676
▁arsen	-9677
▁avist	-9678
▁broma	-9679
▁bujía	-9680
▁carab	-9681
▁causó	-9682
▁colmo	-9683
▁costó	-9684
▁emper	-9685
▁exhal	-9686
▁fijar	-9687
▁huido	-9688
▁ingra	-9689
▁intim	-9690
▁inund	-9691
▁jubón	-9692
▁llamé	-9693
▁males	-9694
▁mator	-9695
▁medir	-9696
▁necio	-9697
▁palan	-9698
▁pereg	-9699
▁perla	-9700
▁pesqu	-9701
▁place	-9702
▁puntu	-9703
▁quitó	-9704
▁sorda	-9705
▁tesis	-9706
▁tromb	-9707
▁verja	-9708
▁vidas	-9709
Compren	-9710
Supongo	-9711
rupción	-9712
usiones	-9713
▁Indias	-9714
▁Podría	-9715
▁Quería	-9716
▁abaste	-9717
▁apagar	-9718
▁atrajo	-9719
▁bastar	-9720
▁bronce	-9721
▁cabiay	-9722
▁claras	-9723
▁cresta	-9724
▁creéis	-9725
▁deshab	-9726
▁dibujo	-9727
▁equipo	-9728
▁estall	-9729
▁hallaz	-9730
▁hambri	-9731
▁helado	-9732
▁huerto	-9733
▁húmedo	-9734
▁juntas	-9735
▁limpio	-9736
▁marchó	-9737
▁mostré	-9738
▁mérito	-9739
▁oculta	-9740
▁pagado	-9741
▁penosa	-9742
▁pescar	-9743
▁pirata	-9744
▁playas	-9745
▁posada	-9746
▁puedan	-9747
▁raíces	-9748
▁severo	-9749
▁sucede	-9750
▁sufría	-9751
▁tender	-9752
▁vengar	-9753
▁Creador	-9754
▁adentro	-9755
▁admirar	-9756
▁amarill	-9757
▁anuncio	-9758
▁barrera	-9759
▁buscado	-9760
▁cambios	-9761
▁defecto	-9762
▁despues	-9763
▁dificul	-9764
▁envenen	-9765
▁estatua	-9766
▁felices	-9767
▁galante	-9768
▁inacces	-9769
▁incrust	-9770
▁llenaba	-9771
▁novedad	-9772
▁novicia	-9773
▁pasillo	-9774
▁prescin	-9775
▁queráis	-9776
▁quieren	-9777
▁recurso	-9778
▁refiero	-9779
▁tortura	-9780
▁tuvimos	-9781
▁veintis	-9782
losamente	-9783
pendencia	-9784
▁adecuada	-9785
▁adecuado	-9786
▁agujeros	-9787
▁asesinar	-9788
▁aspectos	-9789
▁búsqueda	-9790
▁castigar	-9791
▁cocinera	-9792
▁diámetro	-9793
▁flotante	-9794
▁heredero	-9795
▁inocente	-9796
▁ligereza	-9797
▁llanuras	-9798
▁ocupaban	-9799
▁original	-9800
▁pariente	-9801
▁percibir	-9802
▁recorría	-9803
▁relacion	-9804
▁reunirse	-9805
▁saltando	-9806
▁viviendo	-9807
▁voluntar	-9808
▁aprovechó	-9809
▁atractivo	-9810
▁compasión	-9811
▁complacer	-9812
▁completar	-9813
▁comunicar	-9814
▁contraste	-9815
▁discusión	-9816
▁extendían	-9817
▁fenómenos	-9818
▁fosforesc	-9819
▁independi	-9820
▁insensato	-9821
▁introdujo	-9822
▁marchando	-9823
▁moribundo	-9824
▁prevenido	-9825
▁profesión	-9826
▁profesora	-9827
▁riachuelo	-9828
▁suponerse	-9829
▁terremoto	-9830
▁deslizarse	-9831
▁despertado	-9832
▁determinar	-9833
▁eléctricos	-9834
▁encantador	-9835
▁frecuentes	-9836
▁indicación	-9837
▁magníficas	-9838
▁mencionado	-9839
▁prolongaba	-9840
▁terciopelo	-9841
▁testimonio	-9842
▁aislamiento	-9843
▁generosidad	-9844
▁impresiones	-9845
▁melancólico	-9846
▁regularidad	-9847
▁determinación	-9848
▁explicaciones	-9849
▁procedimiento	-9850
▁remordimiento	-9851
▁sencillamente	-9852
▁sensiblemente	-9853
▁incesantemente	-9854
Ch	-9855
gs	-9856
hm	-9857
ns	-9858
pl	-9859
”.	-9860
Ahí	-9861
Sal	-9862
cab	-9863
dme	-9864
eco	-9865
fío	-9866
leo	-9867
oce	-9868
rin	-9869
via	-9870
vik	-9871
íbu	-9872
▁24	-9873
▁27	-9874
▁Pe	-9875
▁fé	-9876
▁mú	-9877
anim	-9878
cita	-9879
emej	-9880
erar	-9881
ezco	-9882
flex	-9883
ides	-9884
iner	-9885
mica	-9886
rias	-9887
rima	-9888
uces	-9889
▁Baj	-9890
▁Ben	-9891
▁Fos	-9892
▁XXV	-9893
▁bañ	-9894
▁coj	-9895
▁dev	-9896
▁fur	-9897
▁ide	-9898
▁ira	-9899
▁opa	-9900
▁oto	-9901
▁pil	-9902
▁tel	-9903
Estás	-9904
Mucho	-9905
biese	-9906
cador	-9907
copio	-9908
culas	-9909
ensas	-9910
erías	-9911
estas	-9912
gante	-9913
iavik	-9914
intió	-9915
nidad	-9916
orios	-9917
plica	-9918
quito	-9919
recer	-9920
teles	-9921
tento	-9922
umbra	-9923
vidos	-9924
▁Bajo	-9925
▁Brig	-9926
▁Cual	-9927
▁Dese	-9928
▁Digo	-9929
▁Hugo	-9930
▁Shan	-9931
▁aflu	-9932
▁amos	-9933
▁anto	-9934
▁aren	-9935
▁atro	-9936
▁atón	-9937
▁besó	-9938
▁crán	-9939
▁eché	-9940
▁firm	-9941
▁fray	-9942
▁geol	-9943
▁inju	-9944
▁intr	-9945
▁lúgu	-9946
▁negó	-9947
▁ofer	-9948
▁paró	-9949
▁plen	-9950
▁sínt	-9951
▁trep	-9952
▁uñas	-9953
▁vasi	-9954
▁ágil	-9955
acamar	-9956
apones	-9957
ermain	-9958
ersión	-9959
formes	-9960
isiera	-9961
mática	-9962
torios	-9963
verdad	-9964
ándalo	-9965
ésimas	-9966
ísimas	-9967
▁Banco	-9968
▁Camin	-9969
▁Debía	-9970
▁James	-9971
▁Meung	-9972
▁Mucho	-9973
▁Tanto	-9974
▁accid	-9975
▁afici	-9976
▁apoyó	-9977
▁banca	-9978
▁batía	-9979
▁calam	-9980
▁calce	-9981
▁clima	-9982
▁compe	-9983
▁conté	-9984
▁cuero	-9985
▁datos	-9986
▁dislo	-9987
▁durar	-9988
▁explo	-9989
▁faltó	-9990
▁hablo	-9991
▁hendi	-9992
▁honra	-9993
▁hueso	-9994
▁huérf	-9995
▁huían	-9996
▁joyas	-9997
▁justa	-9998
▁lista	-9999
▁móvil	-10000
▁nudos	-10001
▁penas	-10002
▁rehus	-10003
▁rendi	-10004
▁soplo	-10005
▁unión	-10006
ciación	-10007
▁Buenos	-10008
▁Carlos	-10009
▁Cuanto	-10010
▁Gracia	-10011
▁Morton	-10012
▁Oliver	-10013
▁Robert	-10014
▁aceite	-10015
▁aconte	-10016
▁acordó	-10017
▁bajado	-10018
▁bordes	-10019
▁bujías	-10020
▁cachar	-10021
▁califi	-10022
▁camisa	-10023
▁causas	-10024
▁coment	-10025
▁confor	-10026
▁contro	-10027
▁cuader	-10028
▁cuadra	-10029
▁darnos	-10030
▁decían	-10031
▁desfil	-10032
▁desigu	-10033
▁elegir	-10034
▁exacto	-10035
▁frutos	-10036
▁granja	-10037
▁gustos	-10038
▁hábito	-10039
▁ignora	-10040
▁invari	-10041
▁irradi	-10042
▁llegan	-10043
▁llenas	-10044
▁marrón	-10045
▁mercad	-10046
▁mirado	-10047
▁moneda	-10048
▁moreno	-10049
▁oleaje	-10050
▁pecado	-10051
▁poseer	-10052
▁quatro	-10053
▁requer	-10054
▁resonó	-10055
▁serena	-10056
▁sábado	-10057
▁temper	-10058
▁tirado	-10059
▁toesas	-10060
▁trajes	-10061
▁unidos	-10062
▁vengan	-10063
▁vuelvo	-10064
▁épocas	-10065
Carnatic	-10066
timiento	-10067
▁Constan	-10068
▁Incluso	-10069
▁Mandíbu	-10070
▁Ninguna	-10071
▁alumnas	-10072
▁aplicar	-10073
▁arcilla	-10074
▁arreglo	-10075
▁aseguró	-10076
▁aullido	-10077
▁causaba	-10078
▁confuso	-10079
▁continú	-10080
▁cuántos	-10081
▁cálculo	-10082
▁declaró	-10083
▁depende	-10084
▁esclavo	-10085
▁finales	-10086
▁follaje	-10087
▁hiciese	-10088
▁informe	-10089
▁intriga	-10090
▁lanzaba	-10091
▁leyenda	-10092
▁llegase	-10093
▁milagro	-10094
▁pescado	-10095
▁prosper	-10096
▁reconci	-10097
▁recordó	-10098
▁retorno	-10099
▁rostros	-10100
▁solares	-10101
▁talento	-10102
▁Mistress	-10103
▁Nosotros	-10104
▁adhesión	-10105
▁aguardar	-10106
▁alejarse	-10107
▁aumentar	-10108
▁avanzada	-10109
▁ayudarme	-10110
▁concluir	-10111
▁constern	-10112
▁contradi	-10113
▁delicado	-10114
▁densidad	-10115
▁director	-10116
▁duración	-10117
▁elección	-10118
▁entendía	-10119
▁estarían	-10120
▁estrechó	-10121
▁incandes	-10122
▁industri	-10123
▁infortun	-10124
▁inmensas	-10125
▁intermin	-10126
▁ladrones	-10127
▁luminosa	-10128
▁molestia	-10129
▁mormones	-10130
▁nervioso	-10131
▁ordenado	-10132
▁pulmones	-10133
▁párpados	-10134
▁radiante	-10135
▁repuesto	-10136
▁respondo	-10137
▁resultar	-10138
▁tardanza	-10139
▁tendidos	-10140
▁vinieron	-10141
▁Reykiavik	-10142
▁adquirido	-10143
▁alcanzaba	-10144
▁asegurado	-10145
▁asesinado	-10146
▁avanzando	-10147
▁celeridad	-10148
▁condenado	-10149
▁disparado	-10150
▁ejercicio	-10151
▁empezaron	-10152
▁encerraba	-10153
▁escaparse	-10154
▁frecuente	-10155
▁izquierdo	-10156
▁latitudes	-10157
▁norteamer	-10158
▁ordinaria	-10159
▁permitían	-10160
▁preciosas	-10161
▁preparaba	-10162
▁recobrado	-10163
▁reverendo	-10164
▁salientes	-10165
▁aproximaba	-10166
▁desdichado	-10167
▁imprudente	-10168
▁interiores	-10169
▁producirse	-10170
▁prolongado	-10171
▁retrocedió	-10172
▁tentáculos	-10173
▁verdaderas	-10174
▁acercándose	-10175
▁comprenderá	-10176
▁continuaron	-10177
▁convertirse	-10178
▁desvanecido	-10179
▁encontrarlo	-10180
▁establecido	-10181
▁experimento	-10182
▁francamente	-10183
▁introducido	-10184
▁manifestaba	-10185
▁manifestado	-10186
▁transcurrió	-10187
▁desconfianza	-10188
▁detonaciones	-10189
▁inclinándose	-10190
▁incredulidad	-10191
▁insuficiente	-10192
▁interrumpida	-10193
▁resplandores	-10194
▁sinceramente	-10195
▁independencia	-10196
▁exclusivamente	-10197
▁establecimiento	-10198
▁responsabilidad	-10199
nn	-10200
ban	-10201
cir	-10202
diz	-10203
lem	-10204
nia	-10205
teó	-10206
íso	-10207
íti	-10208
▁Or	-10209
Mire	-10210
aker	-10211
anía	-10212
arda	-10213
cior	-10214
elle	-10215
emia	-10216
gues	-10217
iche	-10218
imes	-10219
izás	-10220
moso	-10221
ombe	-10222
plio	-10223
▁182	-10224
▁Bro	-10225
▁Cab	-10226
▁Cru	-10227
▁Dis	-10228
▁Hou	-10229
▁Ign	-10230
▁Mag	-10231
▁Nue	-10232
▁ber	-10233
▁eco	-10234
▁esf	-10235
▁gua	-10236
▁mañ	-10237
▁raj	-10238
▁sag	-10239
▁tun	-10240
▁ved	-10241
▁vil	-10242
▁zor	-10243
adosa	-10244
bales	-10245
edían	-10246
graci	-10247
ienzo	-10248
illar	-10249
iques	-10250
jados	-10251
litas	-10252
padas	-10253
paron	-10254
piado	-10255
quite	-10256
ridas	-10257
siete	-10258
sieur	-10259
temos	-10260
teras	-10261
tines	-10262
tílus	-10263
zarse	-10264
ñando	-10265
úrico	-10266
▁Béth	-10267
▁Cabo	-10268
▁Esos	-10269
▁Gulf	-10270
▁Lynn	-10271
▁Pasó	-10272
▁Tomó	-10273
▁acor	-10274
▁bati	-10275
▁bras	-10276
▁caní	-10277
▁celo	-10278
▁cerv	-10279
▁cica	-10280
▁dele	-10281
▁egoí	-10282
▁entu	-10283
▁fijó	-10284
▁flam	-10285
▁hero	-10286
▁herv	-10287
▁huía	-10288
▁irón	-10289
▁lady	-10290
▁límp	-10291
▁pala	-10292
▁rami	-10293
▁rega	-10294
▁tamb	-10295
▁tapa	-10296
ecidos	-10297
inosos	-10298
queros	-10299
recido	-10300
rentes	-10301
traron	-10302
venido	-10303
▁Baker	-10304
▁Burns	-10305
▁Ports	-10306
▁Recon	-10307
▁Tomad	-10308
▁aguda	-10309
▁aguij	-10310
▁apete	-10311
▁brome	-10312
▁cabos	-10313
▁caute	-10314
▁caían	-10315
▁cerra	-10316
▁curva	-10317
▁derru	-10318
▁desal	-10319
▁desci	-10320
▁duelo	-10321
▁espía	-10322
▁ester	-10323
▁fonde	-10324
▁fucos	-10325
▁hirió	-10326
▁itali	-10327
▁jugue	-10328
▁laber	-10329
▁lazos	-10330
▁llamo	-10331
▁locos	-10332
▁manda	-10333
▁mozos	-10334
▁nidos	-10335
▁oreja	-10336
▁pasad	-10337
▁pasta	-10338
▁pelda	-10339
▁posee	-10340
▁propa	-10341
▁pulso	-10342
▁rapto	-10343
▁resta	-10344
▁reten	-10345
▁rizos	-10346
▁rogar	-10347
▁sello	-10348
▁soltó	-10349
▁tetra	-10350
▁verte	-10351
▁villa	-10352
▁ámbos	-10353
Capitán	-10354
Estamos	-10355
Pardiez	-10356
culados	-10357
demente	-10358
lección	-10359
tadores	-10360
ándolas	-10361
▁Amiens	-10362
▁Aparte	-10363
▁Bulgar	-10364
▁Descen	-10365
▁Piloto	-10366
▁Stream	-10367
▁alerta	-10368
▁amplio	-10369
▁boreal	-10370
▁bribón	-10371
▁cabaña	-10372
▁consag	-10373
▁delito	-10374
▁descol	-10375
▁desmes	-10376
▁discip	-10377
▁disfra	-10378
▁doblar	-10379
▁empeño	-10380
▁ensang	-10381
▁esfera	-10382
▁esposo	-10383
▁exigía	-10384
▁frágil	-10385
▁fulmin	-10386
▁físico	-10387
▁hundía	-10388
▁mision	-10389
▁movido	-10390
▁oyeron	-10391
▁partid	-10392
▁quieto	-10393
▁quilla	-10394
▁robado	-10395
▁signos	-10396
▁simpli	-10397
▁soltar	-10398
▁tallos	-10399
▁tesoro	-10400
▁tigres	-10401
▁vacíos	-10402
▁veneno	-10403
▁viveza	-10404
▁yardas	-10405
▁Estaban	-10406
▁Estamos	-10407
▁Vuestro	-10408
▁absorto	-10409
▁acercar	-10410
▁agotado	-10411
▁alejado	-10412
▁algodón	-10413
▁alzando	-10414
▁aniquil	-10415
▁apoyada	-10416
▁aquélla	-10417
▁arsenal	-10418
▁ausente	-10419
▁brillar	-10420
▁caluros	-10421
▁caridad	-10422
▁cercior	-10423
▁comidas	-10424
▁conform	-10425
▁cuadros	-10426
▁debiera	-10427
▁desnudo	-10428
▁desvent	-10429
▁difunto	-10430
▁dolores	-10431
▁entendi	-10432
▁existen	-10433
▁feroces	-10434
▁hicimos	-10435
▁ilusión	-10436
▁imperio	-10437
▁informó	-10438
▁japones	-10439
▁leyendo	-10440
▁lograba	-10441
▁maldita	-10442
▁maneras	-10443
▁marcada	-10444
▁mañanas	-10445
▁menores	-10446
▁merecía	-10447
▁montado	-10448
▁paraíso	-10449
▁probaba	-10450
▁pusiera	-10451
▁quemado	-10452
▁querría	-10453
▁recobró	-10454
▁refería	-10455
▁retroce	-10456
▁reunido	-10457
▁rodeada	-10458
▁ternura	-10459
▁trampas	-10460
formación	-10461
intervino	-10462
oluciones	-10463
▁Artagnan	-10464
▁Escuchad	-10465
▁Nautílus	-10466
▁Noroeste	-10467
▁Robinson	-10468
▁Rosamond	-10469
▁abalanzó	-10470
▁abandono	-10471
▁acostado	-10472
▁adentros	-10473
▁asesinos	-10474
▁borracho	-10475
▁camarada	-10476
▁canguros	-10477
▁capturar	-10478
▁cargados	-10479
▁cirujano	-10480
▁cogiendo	-10481
▁conducto	-10482
▁ensenada	-10483
▁entrever	-10484
▁escualos	-10485
▁estanque	-10486
▁expliqué	-10487
▁figuraba	-10488
▁hostería	-10489
▁indicios	-10490
▁invadido	-10491
▁material	-10492
▁muflones	-10493
▁nerviosa	-10494
▁obedeció	-10495
▁objetivo	-10496
▁ofrecido	-10497
▁paciente	-10498
▁parecida	-10499
▁procurar	-10500
▁práctico	-10501
▁reanudar	-10502
▁rincones	-10503
▁soberbio	-10504
▁tardaron	-10505
▁volvamos	-10506
▁antorchas	-10507
▁anunciado	-10508
▁arrancado	-10509
▁comodidad	-10510
▁componían	-10511
▁compuesto	-10512
▁concluido	-10513
▁conocemos	-10514
▁considera	-10515
▁creciente	-10516
▁distintas	-10517
▁emperador	-10518
▁encuentre	-10519
▁escritura	-10520
▁escándalo	-10521
▁examinaba	-10522
▁explicaba	-10523
▁facilitar	-10524
▁habitante	-10525
▁historias	-10526
▁informado	-10527
▁juramento	-10528
▁mantenido	-10529
▁minerales	-10530
▁misterios	-10531
▁navegando	-10532
▁necesitan	-10533
▁obstinado	-10534
▁pasaporte	-10535
▁perseguir	-10536
▁pesquisas	-10537
▁preparada	-10538
▁sentencia	-10539
▁separados	-10540
▁Naturaleza	-10541
▁cruelmente	-10542
▁desencaden	-10543
▁equivocáis	-10544
▁escuchando	-10545
▁espantosos	-10546
▁espléndido	-10547
▁examinando	-10548
▁inagotable	-10549
▁inclinados	-10550
▁individuos	-10551
▁justamente	-10552
▁levantando	-10553
▁mantenerme	-10554
▁manuscrito	-10555
▁secretario	-10556
▁volcánicas	-10557
▁Ciertamente	-10558
▁abandonaron	-10559
▁adversarios	-10560
▁considerado	-10561
▁descubierta	-10562
▁direcciones	-10563
▁fabricación	-10564
▁indiferente	-10565
▁permanecían	-10566
▁preocuparse	-10567
▁seiscientos	-10568
▁suficientes	-10569
▁desgraciados	-10570
▁respondieron	-10571
▁estupefacción	-10572
▁desaparecieron	-10573
▁ordinariamente	-10574
▁pertenecientes	-10575
Dé	-10576
Or	-10577
ly	-10578
Pro	-10579
Tal	-10580
hor	-10581
rue	-10582
tab	-10583
túa	-10584
ère	-10585
▁26	-10586
▁Au	-10587
▁DE	-10588
▁Id	-10589
▁LA	-10590
▁Mé	-10591
▁Ru	-10592
▁pí	-10593
Debe	-10594
Escu	-10595
Magn	-10596
Mira	-10597
Pens	-10598
amen	-10599
asia	-10600
bord	-10601
date	-10602
esca	-10603
gono	-10604
idel	-10605
igan	-10606
inoc	-10607
ivos	-10608
joux	-10609
lieg	-10610
mico	-10611
odas	-10612
pira	-10613
táis	-10614
tías	-10615
íase	-10616
▁Bre	-10617
▁Hoy	-10618
▁Llo	-10619
▁Rou	-10620
▁Row	-10621
▁agi	-10622
▁aná	-10623
▁ara	-10624
▁aul	-10625
▁ceñ	-10626
▁chu	-10627
▁jau	-10628
▁lic	-10629
▁rin	-10630
▁top	-10631
▁óse	-10632
Hemos	-10633
Ojalá	-10634
añadí	-10635
elden	-10636
erras	-10637
fieso	-10638
gazos	-10639
giles	-10640
ikoro	-10641
itana	-10642
itiva	-10643
landa	-10644
loque	-10645
racti	-10646
ribun	-10647
rosos	-10648
talia	-10649
tidós	-10650
titos	-10651
viesa	-10652
▁Moor	-10653
▁Pese	-10654
▁Salí	-10655
▁acha	-10656
▁ates	-10657
▁aven	-10658
▁bata	-10659
▁bond	-10660
▁cesó	-10661
▁codo	-10662
▁coro	-10663
▁deje	-10664
▁echa	-10665
▁eman	-10666
▁emin	-10667
▁enju	-10668
▁fila	-10669
▁impo	-10670
▁incó	-10671
▁kilo	-10672
▁legu	-10673
▁monó	-10674
▁muda	-10675
▁pide	-10676
▁sarg	-10677
▁tiró	-10678
Sabéis	-10679
Tenéis	-10680
ensión	-10681
erable	-10682
inaban	-10683
misión	-10684
najoux	-10685
quetas	-10686
terías	-10687
éndola	-10688
íferas	-10689
▁Creía	-10690
▁Estad	-10691
▁House	-10692
▁abord	-10693
▁actos	-10694
▁aflig	-10695
▁ardía	-10696
▁asign	-10697
▁babor	-10698
▁calcá	-10699
▁celda	-10700
▁cenit	-10701
▁cimas	-10702
▁circu	-10703
▁comió	-10704
▁crust	-10705
▁debes	-10706
▁derre	-10707
▁detes	-10708
▁dorso	-10709
▁dudar	-10710
▁elocu	-10711
▁entab	-10712
▁entré	-10713
▁falsa	-10714
▁gozar	-10715
▁hermé	-10716
▁hueco	-10717
▁impla	-10718
▁lenta	-10719
▁local	-10720
▁mesas	-10721
▁ostra	-10722
▁otoño	-10723
▁patos	-10724
▁perdí	-10725
▁pesta	-10726
▁recos	-10727
▁resum	-10728
▁rueda	-10729
▁sales	-10730
▁silue	-10731
▁solar	-10732
▁suele	-10733
▁susto	-10734
▁venid	-10735
pentina	-10736
repetía	-10737
rándose	-10738
usieron	-10739
▁Aleman	-10740
▁Respon	-10741
▁Verdad	-10742
▁andaba	-10743
▁asedio	-10744
▁atados	-10745
▁bebida	-10746
▁callar	-10747
▁cantos	-10748
▁casita	-10749
▁compos	-10750
▁concre	-10751
▁concur	-10752
▁cráneo	-10753
▁césped	-10754
▁dureza	-10755
▁enseñó	-10756
▁escudo	-10757
▁festín	-10758
▁fibras	-10759
▁golpeó	-10760
▁helada	-10761
▁indica	-10762
▁infini	-10763
▁inscri	-10764
▁instan	-10765
▁jugaba	-10766
▁jugado	-10767
▁merece	-10768
▁mormón	-10769
▁murmur	-10770
▁nieves	-10771
▁oferta	-10772
▁pantan	-10773
▁pasara	-10774
▁pastor	-10775
▁pensad	-10776
▁presum	-10777
▁página	-10778
▁ramifi	-10779
▁reales	-10780
▁reunió	-10781
▁suaves	-10782
▁supone	-10783
▁templo	-10784
zamiento	-10785
▁Irlanda	-10786
▁Patrick	-10787
▁agitado	-10788
▁amantes	-10789
▁andando	-10790
▁arneses	-10791
▁ayudado	-10792
▁capitan	-10793
▁cavidad	-10794
▁cercana	-10795
▁comarca	-10796
▁consign	-10797
▁cuentos	-10798
▁delirio	-10799
▁dispara	-10800
▁dispuso	-10801
▁dólares	-10802
▁echaron	-10803
▁encaden	-10804
▁equinoc	-10805
▁escucho	-10806
▁escudri	-10807
▁espigas	-10808
▁haberla	-10809
▁llegará	-10810
▁lágrima	-10811
▁marcado	-10812
▁mensaje	-10813
▁narices	-10814
▁paquete	-10815
▁pesados	-10816
▁robusto	-10817
▁saltaba	-10818
▁sobrino	-10819
▁sonreía	-10820
▁tetraos	-10821
▁tratara	-10822
▁viniera	-10823
ariamente	-10824
criptible	-10825
▁Monsieur	-10826
▁Preguntó	-10827
▁acrecent	-10828
▁advirtió	-10829
▁aturdido	-10830
▁aullidos	-10831
▁buscarlo	-10832
▁cerradas	-10833
▁cerrarse	-10834
▁conocían	-10835
▁conquist	-10836
▁cruzados	-10837
▁distante	-10838
▁dominios	-10839
▁entraban	-10840
▁esperado	-10841
▁estribor	-10842
▁expuesta	-10843
▁filósofo	-10844
▁hacernos	-10845
▁llamaron	-10846
▁milagros	-10847
▁miserias	-10848
▁moviendo	-10849
▁mástiles	-10850
▁negocios	-10851
▁nosotras	-10852
▁oportuno	-10853
▁petición	-10854
▁prometió	-10855
▁propongo	-10856
▁reacción	-10857
▁reducido	-10858
▁rescatar	-10859
▁resuelta	-10860
▁reunirme	-10861
▁romperse	-10862
▁saliente	-10863
▁seguirle	-10864
▁sentirse	-10865
▁sobrecog	-10866
▁socorrer	-10867
▁sucesión	-10868
▁sumergió	-10869
▁temblaba	-10870
▁tendréis	-10871
▁testigos	-10872
▁veintena	-10873
▁vigilaba	-10874
▁víctimas	-10875
▁Bernajoux	-10876
▁acudieron	-10877
▁americana	-10878
▁apretando	-10879
▁contornos	-10880
▁demostrar	-10881
▁descubría	-10882
▁despejado	-10883
▁distintos	-10884
▁elegantes	-10885
▁improviso	-10886
▁incandesc	-10887
▁ingenioso	-10888
▁inmersión	-10889
▁laberinto	-10890
▁maniobras	-10891
▁pareciese	-10892
▁penetrado	-10893
▁permanecí	-10894
▁preciosos	-10895
▁protector	-10896
▁reconcili	-10897
▁resonaron	-10898
▁saludaron	-10899
▁sostenido	-10900
▁valientes	-10901
▁veintidós	-10902
▁comenzaban	-10903
▁cronómetro	-10904
▁desventura	-10905
▁diecisiete	-10906
▁habiéndose	-10907
▁inmensidad	-10908
▁libremente	-10909
▁necesarios	-10910
▁pudiéramos	-10911
▁recuperado	-10912
▁submarinas	-10913
▁variedades	-10914
▁vehemencia	-10915
▁alegremente	-10916
▁cuadrúpedos	-10917
▁excursiones	-10918
▁interrumpir	-10919
▁ocupaciones	-10920
▁practicable	-10921
▁precipitado	-10922
▁propiedades	-10923
▁responderle	-10924
▁subterráneo	-10925
▁hospitalidad	-10926
▁naturalistas	-10927
▁representaba	-10928
▁comprendiendo	-10929
▁indispensable	-10930
▁indescriptible	-10931
▁silenciosamente	-10932
íe	-10933
Señ	-10934
Soc	-10935
Ver	-10936
ctu	-10937
fil	-10938
gor	-10939
ich	-10940
ity	-10941
món	-10942
old	-10943
rog	-10944
ume	-10945
▁29	-10946
▁Af	-10947
▁Cr	-10948
▁Ho	-10949
▁ár	-10950
Tank	-10951
amba	-10952
bran	-10953
chon	-10954
cros	-10955
ctas	-10956
cuál	-10957
exci	-10958
faga	-10959
halí	-10960
ider	-10961
inea	-10962
maha	-10963
pido	-10964
rópi	-10965
uega	-10966
ulli	-10967
álti	-10968
ères	-10969
▁Ahí	-10970
▁Gas	-10971
▁Tem	-10972
▁Was	-10973
▁Wil	-10974
▁aca	-10975
▁ale	-10976
▁arg	-10977
▁bej	-10978
▁cár	-10979
▁gim	-10980
▁leí	-10981
▁pap	-10982
▁plá	-10983
▁saí	-10984
▁sug	-10985
▁vms	-10986
▁vál	-10987
amino	-10988
aréis	-10989
chosa	-10990
entan	-10991
estre	-10992
evada	-10993
fagas	-10994
geles	-10995
habad	-10996
legio	-10997
stitu	-10998
tasis	-10999
testé	-11000
tiera	-11001
uemos	-11002
▁apor	-11003
▁cebo	-11004
▁comí	-11005
▁cond	-11006
▁daré	-11007
▁fren	-11008
▁impu	-11009
▁leve	-11010
▁mero	-11011
▁mord	-11012
▁mías	-11013
▁recl	-11014
▁subs	-11015
▁visl	-11016
▁zumb	-11017
▁ínti	-11018
Habéis	-11019
chaban	-11020
chados	-11021
inaria	-11022
quemos	-11023
teaban	-11024
tiempo	-11025
traban	-11026
undían	-11027
ímenes	-11028
▁Dirig	-11029
▁North	-11030
▁Omaha	-11031
▁Pecio	-11032
▁Pocos	-11033
▁almoh	-11034
▁amada	-11035
▁amueb	-11036
▁anfib	-11037
▁anoch	-11038
▁asent	-11039
▁asilo	-11040
▁banda	-11041
▁cabec	-11042
▁canto	-11043
▁citar	-11044
▁cocer	-11045
▁cruzó	-11046
▁eleva	-11047
▁elevó	-11048
▁estup	-11049
▁falda	-11050
▁farol	-11051
▁flora	-11052
▁foras	-11053
▁habér	-11054
▁herir	-11055
▁hidró	-11056
▁hijas	-11057
▁incur	-11058
▁inexp	-11059
▁lápiz	-11060
▁minas	-11061
▁muero	-11062
▁nutri	-11063
▁pasan	-11064
▁poeta	-11065
▁ponga	-11066
▁prado	-11067
▁queja	-11068
▁queso	-11069
▁raros	-11070
▁refra	-11071
▁reyes	-11072
▁rosas	-11073
▁rotos	-11074
▁senda	-11075
▁serle	-11076
▁suger	-11077
▁tomad	-11078
▁trópi	-11079
▁vagab	-11080
▁vasos	-11081
▁vesti	-11082
▁viven	-11083
Cuántos	-11084
Socorro	-11085
entales	-11086
versión	-11087
▁Dorado	-11088
▁Guinea	-11089
▁Italia	-11090
▁Sentía	-11091
▁Varias	-11092
▁agujas	-11093
▁alboro	-11094
▁apretó	-11095
▁apuros	-11096
▁barril	-11097
▁bombas	-11098
▁bárbar	-11099
▁campes	-11100
▁colgar	-11101
▁conval	-11102
▁cotidi	-11103
▁creado	-11104
▁cuidar	-11105
▁cómodo	-11106
▁dueños	-11107
▁estran	-11108
▁flamen	-11109
▁flanco	-11110
▁fuimos	-11111
▁hugono	-11112
▁insinu	-11113
▁itiner	-11114
▁lejana	-11115
▁paloma	-11116
▁parado	-11117
▁perfor	-11118
▁preced	-11119
▁puñado	-11120
▁quizás	-11121
▁revuel	-11122
▁rojizo	-11123
▁ráfaga	-11124
▁seréis	-11125
▁tahalí	-11126
▁tempor	-11127
▁trenes	-11128
▁trineo	-11129
▁valles	-11130
▁verlos	-11131
▁yacían	-11132
▁zorras	-11133
ceptible	-11134
iguiendo	-11135
ompierre	-11136
▁Burdeos	-11137
▁Béthune	-11138
▁Cascada	-11139
▁Comencé	-11140
▁Paquita	-11141
▁Pensaba	-11142
▁Sudeste	-11143
▁abatido	-11144
▁atender	-11145
▁atrapar	-11146
▁atrevió	-11147
▁basalto	-11148
▁bejucos	-11149
▁cargada	-11150
▁cariños	-11151
▁cayendo	-11152
▁colgado	-11153
▁compone	-11154
▁decidme	-11155
▁dediqué	-11156
▁defensa	-11157
▁echando	-11158
▁egoísta	-11159
▁escalof	-11160
▁estalló	-11161
▁extrava	-11162
▁gigante	-11163
▁hábitos	-11164
▁jugando	-11165
▁lejanos	-11166
▁librado	-11167
▁mandado	-11168
▁marcaba	-11169
▁observa	-11170
▁parezca	-11171
▁pasamos	-11172
▁pensáis	-11173
▁persuad	-11174
▁preserv	-11175
▁prometo	-11176
▁puertos	-11177
▁reunión	-11178
▁rodilla	-11179
▁sentían	-11180
▁servida	-11181
▁superst	-11182
▁tengáis	-11183
▁vigilar	-11184
▁visitas	-11185
▁éxtasis	-11186
▁Bulgaros	-11187
▁Habiendo	-11188
▁Recuerdo	-11189
▁Vanikoro	-11190
▁acabamos	-11191
▁ademanes	-11192
▁agilidad	-11193
▁ascensor	-11194
▁asustada	-11195
▁avanzado	-11196
▁chaqueta	-11197
▁comiendo	-11198
▁concluyó	-11199
▁cuchiche	-11200
▁desnudos	-11201
▁despecho	-11202
▁deterior	-11203
▁distinta	-11204
▁encendió	-11205
▁envuelta	-11206
▁enérgica	-11207
▁esclavos	-11208
▁escogido	-11209
▁golpeaba	-11210
▁naciones	-11211
▁ocupados	-11212
▁placeres	-11213
▁planchas	-11214
▁preocupa	-11215
▁prestado	-11216
▁prevenir	-11217
▁procedió	-11218
▁producto	-11219
▁programa	-11220
▁provecho	-11221
▁reprimir	-11222
▁reservas	-11223
▁respecta	-11224
▁salvador	-11225
▁sentaron	-11226
▁sombrías	-11227
▁sombríos	-11228
▁síntomas	-11229
▁tablones	-11230
▁trataban	-11231
▁volviese	-11232
▁Frankland	-11233
▁Mandíbula	-11234
▁Permanecí	-11235
▁aberturas	-11236
▁adivinado	-11237
▁aprendido	-11238
▁beneficio	-11239
▁ceremonia	-11240
▁delicioso	-11241
▁demasiada	-11242
▁entendido	-11243
▁escalones	-11244
▁escapaban	-11245
▁estrechas	-11246
▁flemático	-11247
▁formación	-11248
▁identidad	-11249
▁inspiraba	-11250
▁madrugada	-11251
▁manantial	-11252
▁mantenían	-11253
▁modificar	-11254
▁muchachos	-11255
▁producida	-11256
▁profundos	-11257
▁reservaba	-11258
▁resonaban	-11259
▁sulfúrico	-11260
▁torrentes	-11261
▁Serpentina	-11262
▁amenazador	-11263
▁cuestiones	-11264
▁diligencia	-11265
▁discreción	-11266
▁dispuestas	-11267
▁domésticas	-11268
▁embriaguez	-11269
▁emocionado	-11270
▁fantástico	-11271
▁habituales	-11272
▁implacable	-11273
▁intervalos	-11274
▁itinerario	-11275
▁manifiesto	-11276
▁matorrales	-11277
▁nacimiento	-11278
▁peligrosas	-11279
▁perseguido	-11280
▁personales	-11281
▁pertenecen	-11282
▁preferible	-11283
▁recompensa	-11284
▁regimiento	-11285
▁respetable	-11286
▁separación	-11287
▁sumergirse	-11288
▁tentativas	-11289
▁vacilación	-11290
▁especímenes	-11291
▁extranjeros	-11292
▁mandamiento	-11293
▁ochocientas	-11294
▁sensaciones	-11295
▁servidumbre	-11296
▁significaba	-11297
▁aglomeración	-11298
▁confidencias	-11299
▁desconocidas	-11300
▁proporciones	-11301
▁temperamento	-11302
▁trabajadores	-11303
▁comprenderéis	-11304
▁disposiciones	-11305
▁excesivamente	-11306
▁infinitamente	-11307
▁personalmente	-11308
▁proporcionado	-11309
▁circunferencia	-11310
▁caprichosamente	-11311
7,	-11312
jé	-11313
°.	-11314
úd	-11315
úz	-11316
Hum	-11317
Vol	-11318
alí	-11319
cey	-11320
cro	-11321
dud	-11322
ere	-11323
gai	-11324
ick	-11325
sab	-11326
sby	-11327
ved	-11328
▁37	-11329
▁Tú	-11330
▁XL	-11331
-...	-11332
Este	-11333
John	-11334
Vive	-11335
ahus	-11336
alle	-11337
alph	-11338
arto	-11339
arán	-11340
cesa	-11341
cuán	-11342
dian	-11343
eado	-11344
ford	-11345
idme	-11346
ises	-11347
oria	-11348
quía	-11349
tral	-11350
trés	-11351
téis	-11352
uera	-11353
unes	-11354
urra	-11355
usse	-11356
vada	-11357
ímil	-11358
▁Acu	-11359
▁Ast	-11360
▁Bis	-11361
▁Veo	-11362
▁adu	-11363
▁anh	-11364
▁anz	-11365
▁azó	-11366
▁mag	-11367
▁oli	-11368
▁pac	-11369
▁paj	-11370
▁pom	-11371
▁rol	-11372
▁sau	-11373
▁vit	-11374
Sería	-11375
Todos	-11376
calip	-11377
ganos	-11378
guese	-11379
iales	-11380
icios	-11381
idifi	-11382
jeras	-11383
lices	-11384
licos	-11385
lotes	-11386
nueve	-11387
reste	-11388
ricas	-11389
rimos	-11390
sever	-11391
teaba	-11392
toler	-11393
trifi	-11394
ulada	-11395
viene	-11396
ético	-11397
▁Acep	-11398
▁Ches	-11399
▁Cres	-11400
▁Esas	-11401
▁Fern	-11402
▁Mont	-11403
▁Pres	-11404
▁Ruhm	-11405
▁Subí	-11406
▁Wash	-11407
▁abar	-11408
▁abus	-11409
▁almi	-11410
▁anda	-11411
▁bigo	-11412
▁chas	-11413
▁colm	-11414
▁corn	-11415
▁domi	-11416
▁elog	-11417
▁enla	-11418
▁esti	-11419
▁fino	-11420
▁hume	-11421
▁lobo	-11422
▁melo	-11423
▁muri	-11424
▁oigo	-11425
▁osam	-11426
▁otor	-11427
▁oían	-11428
▁papa	-11429
▁pila	-11430
▁prem	-11431
▁sedu	-11432
▁sota	-11433
▁sumo	-11434
▁vivi	-11435
▁válv	-11436
▁yaci	-11437
Habría	-11438
ahusac	-11439
endían	-11440
izaban	-11441
tentes	-11442
trinas	-11443
átiles	-11444
ísimos	-11445
▁Dicho	-11446
▁Junto	-11447
▁Ralph	-11448
▁Venid	-11449
▁aleta	-11450
▁aline	-11451
▁antár	-11452
▁apagó	-11453
▁arroy	-11454
▁batir	-11455
▁brind	-11456
▁calcu	-11457
▁crees	-11458
▁curar	-11459
▁dados	-11460
▁divid	-11461
▁encam	-11462
▁envía	-11463
▁esque	-11464
▁fatig	-11465
▁firma	-11466
▁flota	-11467
▁flujo	-11468
▁fuere	-11469
▁infun	-11470
▁lancé	-11471
▁linde	-11472
▁lleve	-11473
▁mapas	-11474
▁mecán	-11475
▁pelos	-11476
▁perdi	-11477
▁piano	-11478
▁poste	-11479
▁potas	-11480
▁privi	-11481
▁quise	-11482
▁santo	-11483
▁serlo	-11484
▁sodio	-11485
▁suizo	-11486
▁tardé	-11487
▁unido	-11488
▁veloz	-11489
Quieres	-11490
curante	-11491
gráfico	-11492
iéndolo	-11493
parazón	-11494
ricoche	-11495
▁Coombe	-11496
▁Perdón	-11497
▁Reptil	-11498
▁Tracey	-11499
▁aburri	-11500
▁bailar	-11501
▁barrio	-11502
▁bellos	-11503
▁britán	-11504
▁busqué	-11505
▁carnos	-11506
▁caudal	-11507
▁cilind	-11508
▁claros	-11509
▁clavos	-11510
▁coches	-11511
▁collar	-11512
▁compad	-11513
▁conejo	-11514
▁confec	-11515
▁congén	-11516
▁convid	-11517
▁corona	-11518
▁correo	-11519
▁cumbre	-11520
▁cárcel	-11521
▁dejara	-11522
▁dejase	-11523
▁divisa	-11524
▁enseña	-11525
▁febril	-11526
▁franca	-11527
▁grueso	-11528
▁guijar	-11529
▁héroes	-11530
▁infruc	-11531
▁jaguar	-11532
▁jueves	-11533
▁langos	-11534
▁lienzo	-11535
▁limitó	-11536
▁limpia	-11537
▁marcas	-11538
▁matemá	-11539
▁niñera	-11540
▁olvidé	-11541
▁pieles	-11542
▁ponían	-11543
▁pulpos	-11544
▁pureza	-11545
▁repugn	-11546
▁saludo	-11547
▁separó	-11548
▁sucumb	-11549
▁sujeto	-11550
▁sumido	-11551
▁súbita	-11552
▁ventaj	-11553
▁viejas	-11554
▁Cahusac	-11555
▁Germain	-11556
▁Jacamar	-11557
▁Observé	-11558
▁Pareció	-11559
▁Shangai	-11560
▁abanico	-11561
▁absurdo	-11562
▁acantil	-11563
▁agitada	-11564
▁aterror	-11565
▁aumentó	-11566
▁avisado	-11567
▁azótico	-11568
▁basálti	-11569
▁burgués	-11570
▁cansada	-11571
▁castaño	-11572
▁cercano	-11573
▁colegas	-11574
▁cometer	-11575
▁compens	-11576
▁comprom	-11577
▁comunes	-11578
▁condesa	-11579
▁convino	-11580
▁decimos	-11581
▁deducir	-11582
▁delgado	-11583
▁desbord	-11584
▁dibujos	-11585
▁diestra	-11586
▁disparó	-11587
▁dispers	-11588
▁dorados	-11589
▁dándole	-11590
▁décimas	-11591
▁enloque	-11592
▁escamas	-11593
▁escenas	-11594
▁estrech	-11595
▁experto	-11596
▁extraer	-11597
▁extrang	-11598
▁extravi	-11599
▁faltado	-11600
▁habláis	-11601
▁honrada	-11602
▁humanas	-11603
▁iluminó	-11604
▁imbécil	-11605
▁impregn	-11606
▁intoler	-11607
▁islotes	-11608
▁lenguas	-11609
▁ligeros	-11610
▁matices	-11611
▁moderna	-11612
▁ocultos	-11613
▁paneles	-11614
▁pasaría	-11615
▁petrifi	-11616
▁preparé	-11617
▁preparó	-11618
▁pusimos	-11619
▁quieras	-11620
▁raptado	-11621
▁ráfagas	-11622
▁seguiré	-11623
▁servirá	-11624
▁sincera	-11625
▁sonidos	-11626
▁sublime	-11627
▁superar	-11628
▁tiburón	-11629
▁turbado	-11630
Tankadera	-11631
▁Confieso	-11632
▁Nordeste	-11633
▁amarilla	-11634
▁ambición	-11635
▁ascendía	-11636
▁barbilla	-11637
▁barrotes	-11638
▁boreales	-11639
▁cerraban	-11640
▁chelines	-11641
▁comprado	-11642
▁cuadrado	-11643
▁decirles	-11644
▁demostró	-11645
▁descrito	-11646
▁despojos	-11647
▁ejemplar	-11648
▁empezado	-11649
▁encomend	-11650
▁energías	-11651
▁entiendo	-11652
▁entrando	-11653
▁espiritu	-11654
▁favorito	-11655
▁formular	-11656
▁guardaba	-11657
▁herencia	-11658
▁hubieron	-11659
▁impracti	-11660
▁incompar	-11661
▁indicada	-11662
▁indiscre	-11663
▁inquieta	-11664
▁interesa	-11665
▁lanzarse	-11666
▁llevamos	-11667
▁líquidas	-11668
▁molestar	-11669
▁murmurar	-11670
▁ofendido	-11671
▁prefiero	-11672
▁presenci	-11673
▁provenía	-11674
▁reducida	-11675
▁reptiles	-11676
▁revelado	-11677
▁sargento	-11678
▁seguidos	-11679
▁sentarme	-11680
▁serviría	-11681
▁señalado	-11682
▁situadas	-11683
▁solidifi	-11684
▁sulfuros	-11685
▁sustento	-11686
▁temibles	-11687
▁tendrían	-11688
▁tengamos	-11689
▁vigorosa	-11690
▁volviera	-11691
▁Estábamos	-11692
▁abastecer	-11693
▁acostarse	-11694
▁aguardaba	-11695
▁ardientes	-11696
▁arreglado	-11697
▁atracción	-11698
▁caparazón	-11699
▁cerradura	-11700
▁descendía	-11701
▁deslizaba	-11702
▁despierto	-11703
▁destellos	-11704
▁devorados	-11705
▁emociones	-11706
▁encerrada	-11707
▁escondido	-11708
▁granítica	-11709
▁iluminada	-11710
▁instintos	-11711
▁intentado	-11712
▁legumbres	-11713
▁mirándome	-11714
▁misionero	-11715
▁mostrarse	-11716
▁olvidando	-11717
▁oraciones	-11718
▁partieron	-11719
▁perseguía	-11720
▁poderosas	-11721
▁preferido	-11722
▁problemas	-11723
▁prohibido	-11724
▁regresaba	-11725
▁siniestro	-11726
▁sobreexci	-11727
▁turbación	-11728
▁vigorosos	-11729
Exactamente	-11730
▁Portsmouth	-11731
▁Washington	-11732
▁anteriores	-11733
▁asegurarse	-11734
▁aumentando	-11735
▁cachalotes	-11736
▁carricoche	-11737
▁científico	-11738
▁constituye	-11739
▁constituía	-11740
▁criminales	-11741
▁crustáceos	-11742
▁desembaraz	-11743
▁disciplina	-11744
▁eléctricas	-11745
▁encerrados	-11746
▁especiales	-11747
▁excitación	-11748
▁inquisidor	-11749
▁levantaban	-11750
▁obscuridad	-11751
▁perfeccion	-11752
▁poniéndose	-11753
▁profesoras	-11754
▁proyectaba	-11755
▁reverencia	-11756
▁trabajando	-11757
▁tranquilas	-11758
▁visitantes	-11759
▁Pococurante	-11760
▁arrastrados	-11761
▁cortésmente	-11762
▁encontrarla	-11763
▁encontrarme	-11764
▁imprudencia	-11765
▁inaccesible	-11766
▁indignación	-11767
▁irradiación	-11768
▁obstinación	-11769
▁preferencia	-11770
▁preguntarme	-11771
▁recorriendo	-11772
▁severamente	-11773
▁significado	-11774
▁aprovechando	-11775
▁inteligentes	-11776
▁interlocutor	-11777
▁intervención	-11778
▁ondulaciones	-11779
▁particulares	-11780
▁resplandecía	-11781
▁desconcertado	-11782
▁recientemente	-11783
▁admirablemente	-11784
▁insignificante	-11785
3,	-11786
9,	-11787
Ab	-11788
Ap	-11789
dy	-11790
ka	-11791
ok	-11792
pé	-11793
vé	-11794
Dej	-11795
Esa	-11796
Han	-11797
Lle	-11798
gir	-11799
hag	-11800
kor	-11801
ney	-11802
oux	-11803
pla	-11804
san	-11805
tah	-11806
uci	-11807
▁Br	-11808
▁Dé	-11809
▁Ré	-11810
▁cú	-11811
...!	-11812
Axel	-11813
Hace	-11814
abel	-11815
cles	-11816
cord	-11817
gara	-11818
guen	-11819
ites	-11820
izca	-11821
late	-11822
lera	-11823
mpor	-11824
oler	-11825
pica	-11826
sion	-11827
sivo	-11828
till	-11829
tuno	-11830
xton	-11831
▁Cél	-11832
▁Gib	-11833
▁XIV	-11834
▁XXI	-11835
▁abo	-11836
▁aci	-11837
▁ala	-11838
▁cop	-11839
▁det	-11840
▁din	-11841
▁fec	-11842
▁feo	-11843
▁med	-11844
▁ove	-11845
▁ran	-11846
asper	-11847
añola	-11848
carat	-11849
cetas	-11850
cilio	-11851
enden	-11852
entar	-11853
grité	-11854
idada	-11855
ribar	-11856
roslo	-11857
steis	-11858
vados	-11859
éanos	-11860
ésima	-11861
ólogo	-11862
▁Abrí	-11863
▁Otra	-11864
▁Péro	-11865
▁Unas	-11866
▁XXXV	-11867
▁afer	-11868
▁afil	-11869
▁afli	-11870
▁aper	-11871
▁bamb	-11872
▁call	-11873
▁casó	-11874
▁chir	-11875
▁choc	-11876
▁codi	-11877
▁cruj	-11878
▁dila	-11879
▁evap	-11880
▁huyó	-11881
▁irgu	-11882
▁jorn	-11883
▁lazo	-11884
▁mién	-11885
▁perd	-11886
▁póli	-11887
▁rajá	-11888
▁raya	-11889
▁rech	-11890
▁sosa	-11891
▁teme	-11892
▁usar	-11893
▁vist	-11894
Buenas	-11895
Conque	-11896
aduras	-11897
ciosas	-11898
decido	-11899
ificar	-11900
isteis	-11901
mporán	-11902
murmur	-11903
tienen	-11904
tillos	-11905
tuosos	-11906
érselo	-11907
▁Donde	-11908
▁Maese	-11909
▁Otras	-11910
▁acumu	-11911
▁afirm	-11912
▁afron	-11913
▁agitó	-11914
▁agrup	-11915
▁antro	-11916
▁armar	-11917
▁bande	-11918
▁camas	-11919
▁corrí	-11920
▁cubre	-11921
▁daros	-11922
▁decli	-11923
▁dejan	-11924
▁densa	-11925
▁diese	-11926
▁empar	-11927
▁engan	-11928
▁envié	-11929
▁estru	-11930
▁exige	-11931
▁forro	-11932
▁gradu	-11933
▁hayas	-11934
▁héroe	-11935
▁maldi	-11936
▁miles	-11937
▁molde	-11938
▁mudos	-11939
▁pares	-11940
▁pasas	-11941
▁poema	-11942
▁sable	-11943
▁sesos	-11944
▁sioux	-11945
▁suici	-11946
▁tazas	-11947
▁tened	-11948
▁tirar	-11949
▁tonos	-11950
▁trago	-11951
▁trote	-11952
▁vidri	-11953
▁vigas	-11954
edumbre	-11955
flexion	-11956
onshire	-11957
pirando	-11958
▁Caball	-11959
▁Céline	-11960
▁Habéis	-11961
▁abomin	-11962
▁absorb	-11963
▁agrado	-11964
▁alucin	-11965
▁apartó	-11966
▁atento	-11967
▁atrevo	-11968
▁barran	-11969
▁borras	-11970
▁brazas	-11971
▁brutal	-11972
▁cartil	-11973
▁cascos	-11974
▁concer	-11975
▁cuadro	-11976
▁culata	-11977
▁curado	-11978
▁defens	-11979
▁despos	-11980
▁dispon	-11981
▁dragón	-11982
▁entreg	-11983
▁esperé	-11984
▁espina	-11985
▁esplen	-11986
▁estima	-11987
▁eterna	-11988
▁fijaba	-11989
▁flotar	-11990
▁frutas	-11991
▁futura	-11992
▁gemido	-11993
▁griego	-11994
▁grieta	-11995
▁hayáis	-11996
▁holand	-11997
▁invitó	-11998
▁jueces	-11999
▁lastre	-12000
▁librar	-12001
▁lívido	-12002
▁manejo	-12003
▁modelo	-12004
▁nitrog	-12005
▁obrado	-12006
▁ostent	-12007
▁potasa	-12008
▁procur	-12009
▁reglam	-12010
▁reglas	-12011
▁rompía	-12012
▁sentar	-12013
▁sienta	-12014
▁soplar	-12015
▁tromba	-12016
▁vaciló	-12017
▁ventan	-12018
▁vestir	-12019
inamente	-12020
tidumbre	-12021
▁Brixton	-12022
▁Esperad	-12023
▁Llegado	-12024
▁Noruega	-12025
▁Querido	-12026
▁Ruhmkor	-12027
▁Saville	-12028
▁Todavía	-12029
▁aconsej	-12030
▁adornos	-12031
▁ahogado	-12032
▁apartar	-12033
▁avergon	-12034
▁calmado	-12035
▁camisas	-12036
▁chaleco	-12037
▁chispas	-12038
▁cortejo	-12039
▁deposit	-12040
▁desnuda	-12041
▁dividir	-12042
▁dormían	-12043
▁ecuador	-12044
▁encamin	-12045
▁encoler	-12046
▁enrique	-12047
▁escolta	-12048
▁escribí	-12049
▁escuché	-12050
▁figurar	-12051
▁hileras	-12052
▁imagino	-12053
▁intento	-12054
▁luchaba	-12055
▁malayos	-12056
▁matarlo	-12057
▁modesto	-12058
▁molesta	-12059
▁montura	-12060
▁muñecas	-12061
▁pedirle	-12062
▁perdone	-12063
▁perdono	-12064
▁pondría	-12065
▁postura	-12066
▁prender	-12067
▁puentes	-12068
▁pálidos	-12069
▁quebran	-12070
▁recibía	-12071
▁recordé	-12072
▁refirió	-12073
▁relatos	-12074
▁rugidos	-12075
▁rápidas	-12076
▁sacudió	-12077
▁salimos	-12078
▁sincero	-12079
▁terminé	-12080
▁tomaban	-12081
▁tomaría	-12082
▁tumulto	-12083
▁viniese	-12084
▁vislumb	-12085
▁ángulos	-12086
Magnífico	-12087
▁Pérousse	-12088
▁acertado	-12089
▁agitaban	-12090
▁aguantar	-12091
▁ambiente	-12092
▁apellido	-12093
▁bandadas	-12094
▁ciencias	-12095
▁conceder	-12096
▁contesté	-12097
▁contrama	-12098
▁convenir	-12099
▁cortadas	-12100
▁cortante	-12101
▁cuadrada	-12102
▁delicada	-12103
▁derribar	-12104
▁desafiar	-12105
▁desastre	-12106
▁desolado	-12107
▁devolvió	-12108
▁devoraba	-12109
▁discurso	-12110
▁dividido	-12111
▁elevadas	-12112
▁enfadado	-12113
▁entiende	-12114
▁enérgico	-12115
▁española	-12116
▁excesivo	-12117
▁hallaron	-12118
▁hundirse	-12119
▁imperfec	-12120
▁inglesas	-12121
▁invitado	-12122
▁llamarlo	-12123
▁llegando	-12124
▁majestad	-12125
▁martillo	-12126
▁miéntras	-12127
▁moidores	-12128
▁mostacho	-12129
▁músculos	-12130
▁negativa	-12131
▁notables	-12132
▁obligada	-12133
▁ocultado	-12134
▁pasajero	-12135
▁peldaños	-12136
▁persever	-12137
▁plegaria	-12138
▁portador	-12139
▁propicio	-12140
▁quedamos	-12141
▁quejarse	-12142
▁recurrir	-12143
▁sacudida	-12144
▁servirme	-12145
▁trastorn	-12146
untamiento	-12147
▁Terminada	-12148
▁advertido	-12149
▁agradezco	-12150
▁alimentar	-12151
▁arrojarse	-12152
▁auténtica	-12153
▁auténtico	-12154
▁castigado	-12155
▁colocados	-12156
▁colocando	-12157
▁delantera	-12158
▁discípula	-12159
▁domicilio	-12160
▁durmiendo	-12161
▁elegancia	-12162
▁envueltos	-12163
▁esperarse	-12164
▁estudiado	-12165
▁flotantes	-12166
▁horroroso	-12167
▁imperturb	-12168
▁imponente	-12169
▁inclinada	-12170
▁incorporó	-12171
▁industria	-12172
▁palideció	-12173
▁pesadilla	-12174
▁presentes	-12175
▁provincia	-12176
▁provocado	-12177
▁recompens	-12178
▁recordará	-12179
▁refugiado	-12180
▁sotavento	-12181
▁utilizado	-12182
▁Cualquiera	-12183
▁Devonshire	-12184
▁baronesita	-12185
▁conjeturas	-12186
▁definitiva	-12187
▁descendido	-12188
▁destacaban	-12189
▁destinados	-12190
▁detectives	-12191
▁disminuido	-12192
▁encontrará	-12193
▁equinoccio	-12194
▁explicarme	-12195
▁introducir	-12196
▁kilogramos	-12197
▁levantarme	-12198
▁procurando	-12199
▁reapareció	-12200
▁renunciado	-12201
▁resultaban	-12202
▁veintitrés	-12203
▁atravesaron	-12204
▁caprichosos	-12205
▁constituían	-12206
▁mantequilla	-12207
▁maravillosa	-12208
▁mentalmente	-12209
▁muchedumbre	-12210
▁operaciones	-12211
▁precipitaba	-12212
▁procedentes	-12213
▁propiamente	-12214
▁seiscientas	-12215
graciadamente	-12216
▁considerarse	-12217
▁correspondía	-12218
▁descendiendo	-12219
▁entusiasmado	-12220
▁extrañamente	-12221
▁humildemente	-12222
▁precipitarse	-12223
▁reflexionado	-12224
▁sorprendidos	-12225
▁subterráneos	-12226
▁herméticamente	-12227
▁nitroglicerina	-12228
▁apresuradamente	-12229
▁inevitablemente	-12230
-;	-12231
8,	-12232
ER	-12233
Ho	-12234
bó	-12235
ji	-12236
uz	-12237
xa	-12238
ñé	-12239
Res	-12240
cam	-12241
iel	-12242
liz	-12243
tha	-12244
tol	-12245
tom	-12246
uni	-12247
óst	-12248
▁Oh	-12249
▁bú	-12250
▁ní	-12251
...»	-12252
Eres	-12253
amia	-12254
ardo	-12255
bajo	-12256
cejo	-12257
cifi	-12258
cuña	-12259
dilu	-12260
dulo	-12261
emas	-12262
erda	-12263
eses	-12264
gano	-12265
gosa	-12266
iber	-12267
iego	-12268
illó	-12269
iora	-12270
mbar	-12271
mosa	-12272
peos	-12273
piña	-12274
siva	-12275
tate	-12276
taño	-12277
udas	-12278
urre	-12279
xico	-12280
zara	-12281
▁Cam	-12282
▁Her	-12283
▁Hor	-12284
▁Sub	-12285
▁Tun	-12286
▁abe	-12287
▁bos	-12288
▁cif	-12289
▁fog	-12290
▁gir	-12291
▁glo	-12292
▁jal	-12293
▁oye	-12294
▁pav	-12295
▁pim	-12296
▁rif	-12297
▁roc	-12298
▁ste	-12299
▁sun	-12300
▁vib	-12301
Ayres	-12302
Entre	-12303
Habrá	-12304
Sobre	-12305
dosas	-12306
dosos	-12307
había	-12308
iares	-12309
ieros	-12310
iscos	-12311
istir	-12312
izaos	-12313
logne	-12314
meras	-12315
oseph	-12316
plicó	-12317
quias	-12318
quios	-12319
reras	-12320
ricos	-12321
ripit	-12322
rosas	-12323
tched	-12324
tland	-12325
trina	-12326
táron	-12327
umber	-12328
yeurs	-12329
zaría	-12330
ñones	-12331
▁City	-12332
▁Desa	-12333
▁Dina	-12334
▁Evan	-12335
▁Hici	-12336
▁Luna	-12337
▁Otro	-12338
▁Tomé	-12339
▁Tuve	-12340
▁Utah	-12341
▁Veía	-12342
▁acal	-12343
▁anon	-12344
▁apén	-12345
▁arra	-12346
▁bajé	-12347
▁bebé	-12348
▁buce	-12349
▁cali	-12350
▁calm	-12351
▁caro	-12352
▁cera	-12353
▁decl	-12354
▁delf	-12355
▁deno	-12356
▁enar	-12357
▁foso	-12358
▁foto	-12359
▁horn	-12360
▁león	-12361
▁manu	-12362
▁mete	-12363
▁nado	-12364
▁nido	-12365
▁obse	-12366
▁paja	-12367
▁ridí	-12368
▁roda	-12369
▁sald	-12370
▁siga	-12371
▁sonó	-12372
▁unió	-12373
▁unán	-12374
▁veré	-12375
▁vete	-12376
▁zafi	-12377
▁»––¿	-12378
Cierto	-12379
Perdón	-12380
Veamos	-12381
diluvi	-12382
eciera	-12383
encial	-12384
gueses	-12385
iernos	-12386
ordenó	-12387
porque	-12388
ranque	-12389
teando	-12390
tigios	-12391
ulaban	-12392
urando	-12393
versal	-12394
ármelo	-12395
áticos	-12396
ítulos	-12397
▁Carme	-12398
▁Hecho	-12399
▁Honor	-12400
▁Justo	-12401
▁Olvid	-12402
▁Padre	-12403
▁Resol	-12404
▁Tales	-12405
▁anhel	-12406
▁asido	-12407
▁buscó	-12408
▁caras	-12409
▁ceder	-12410
▁corro	-12411
▁denom	-12412
▁disec	-12413
▁diván	-12414
▁embru	-12415
▁encor	-12416
▁exclu	-12417
▁expon	-12418
▁gasta	-12419
▁humar	-12420
▁incóm	-12421
▁insec	-12422
▁mecha	-12423
▁panor	-12424
▁perca	-12425
▁perpe	-12426
▁poses	-12427
▁posta	-12428
▁quede	-12429
▁risco	-12430
▁robar	-12431
▁roble	-12432
▁rodea	-12433
▁sabrá	-12434
▁santa	-12435
▁susur	-12436
▁telas	-12437
▁vemos	-12438
▁vende	-12439
▁venia	-12440
Caramba	-12441
Cuántas	-12442
Diantre	-12443
culares	-12444
dientes	-12445
iéndola	-12446
ramente	-12447
tificar	-12448
▁Briggs	-12449
▁Bunsby	-12450
▁Decidí	-12451
▁Joseph	-12452
▁Louisa	-12453
▁Milord	-12454
▁Puerto	-12455
▁Sabido	-12456
▁Scotia	-12457
▁Selden	-12458
▁Torres	-12459
▁aceptó	-12460
▁acudir	-12461
▁adivin	-12462
▁agujer	-12463
▁alarma	-12464
▁alegró	-12465
▁amores	-12466
▁anclas	-12467
▁anotar	-12468
▁artill	-12469
▁atraso	-12470
▁bonito	-12471
▁breves	-12472
▁brotar	-12473
▁brusco	-12474
▁cesaba	-12475
▁compon	-12476
▁corten	-12477
▁cortin	-12478
▁crisis	-12479
▁cómoda	-12480
▁dejará	-12481
▁descom	-12482
▁descor	-12483
▁enigma	-12484
▁fértil	-12485
▁ganaba	-12486
▁guardé	-12487
▁hablad	-12488
▁harían	-12489
▁hurras	-12490
▁húmeda	-12491
▁inflex	-12492
▁mancha	-12493
▁manjar	-12494
▁mentir	-12495
▁millón	-12496
▁morena	-12497
▁notaba	-12498
▁obstin	-12499
▁obtuve	-12500
▁ocultó	-12501
▁olvido	-12502
▁oyendo	-12503
▁pastel	-12504
▁peregr	-12505
▁pierna	-12506
▁podrán	-12507
▁quemar	-12508
▁recibí	-12509
▁recogí	-12510
▁selvas	-12511
▁sonaba	-12512
▁soñaba	-12513
▁suelta	-12514
▁teatro	-12515
▁tejado	-12516
▁tengan	-12517
▁tribun	-12518
▁vastos	-12519
▁volved	-12520
▁ánimos	-12521
▁órgano	-12522
negación	-12523
protestó	-12524
▁Armenti	-12525
▁Gascuña	-12526
▁Natural	-12527
▁Tenemos	-12528
▁abundan	-12529
▁acogida	-12530
▁aislado	-12531
▁amplias	-12532
▁aplazar	-12533
▁apretón	-12534
▁arcones	-12535
▁arquite	-12536
▁asegura	-12537
▁atacado	-12538
▁canalla	-12539
▁casarme	-12540
▁celeste	-12541
▁colgaba	-12542
▁conduce	-12543
▁consumo	-12544
▁dejaría	-12545
▁derrumb	-12546
▁deslizó	-12547
▁devasta	-12548
▁directa	-12549
▁dispens	-12550
▁encargó	-12551
▁enfrent	-12552
▁enteras	-12553
▁entrela	-12554
▁esquele	-12555
▁exasper	-12556
▁expreso	-12557
▁fieltro	-12558
▁figuras	-12559
▁firmeza	-12560
▁forzado	-12561
▁frunció	-12562
▁furiosa	-12563
▁gruñido	-12564
▁géneros	-12565
▁hallase	-12566
▁honesto	-12567
▁hundido	-12568
▁impidió	-12569
▁impreso	-12570
▁lúgubre	-12571
▁moverse	-12572
▁mugeres	-12573
▁mugidos	-12574
▁obligar	-12575
▁océanos	-12576
▁oficina	-12577
▁oyentes	-12578
▁parejas	-12579
▁potente	-12580
▁prendas	-12581
▁provocó	-12582
▁pública	-12583
▁quiénes	-12584
▁simples	-12585
▁temible	-12586
▁tocador	-12587
▁tratase	-12588
▁vagones	-12589
▁volaban	-12590
umberland	-12591
▁Alemania	-12592
▁Biscarat	-12593
▁Boulogne	-12594
▁Merripit	-12595
▁adornada	-12596
▁ahorcado	-12597
▁alquiler	-12598
▁amargura	-12599
▁apostado	-12600
▁aproximé	-12601
▁atrevido	-12602
▁caliente	-12603
▁cartilag	-12604
▁católico	-12605
▁cañonazo	-12606
▁comieron	-12607
▁conseguí	-12608
▁consiste	-12609
▁coronada	-12610
▁cortados	-12611
▁cruzaban	-12612
▁cruzando	-12613
▁doloroso	-12614
▁elevarse	-12615
▁encargar	-12616
▁enfrente	-12617
▁ensombre	-12618
▁excéntri	-12619
▁existían	-12620
▁fantasía	-12621
▁formaron	-12622
▁golpeado	-12623
▁hacerles	-12624
▁hallazgo	-12625
▁indígena	-12626
▁infancia	-12627
▁inmensos	-12628
▁llamados	-12629
▁llamarse	-12630
▁maestras	-12631
▁marquesa	-12632
▁merecido	-12633
▁ocuparse	-12634
▁palmeras	-12635
▁pensarlo	-12636
▁peñascos	-12637
▁pidiendo	-12638
▁pimienta	-12639
▁plantado	-12640
▁prevengo	-12641
▁prometía	-12642
▁relativa	-12643
▁reproche	-12644
▁retratos	-12645
▁senderos	-12646
▁seriedad	-12647
▁servirle	-12648
▁silbidos	-12649
▁sirviera	-12650
▁tratarse	-12651
▁ventajas	-12652
▁vestigio	-12653
▁visibles	-12654
▁Ruhmkorff	-12655
▁Scartched	-12656
▁acompañar	-12657
▁acostarme	-12658
▁almirante	-12659
▁bondadosa	-12660
▁concierto	-12661
▁conmovido	-12662
▁conversar	-12663
▁coníferas	-12664
▁cristiana	-12665
▁delicados	-12666
▁desenlace	-12667
▁despejada	-12668
▁despierta	-12669
▁despreocu	-12670
▁disminuir	-12671
▁distinguí	-12672
▁edificios	-12673
▁emparrado	-12674
▁emprendió	-12675
▁entrecejo	-12676
▁envoltura	-12677
▁escaparon	-12678
▁escopetas	-12679
▁escribano	-12680
▁esplendor	-12681
▁estrechos	-12682
▁evidentes	-12683
▁exponerse	-12684
▁expresaba	-12685
▁extendido	-12686
▁extremada	-12687
▁guijarros	-12688
▁habituado	-12689
▁interroga	-12690
▁maniobrar	-12691
▁muchísimo	-12692
▁osamentas	-12693
▁pensativa	-12694
▁perímetro	-12695
▁presentar	-12696
▁progresos	-12697
▁propuesto	-12698
▁recomendó	-12699
▁reconocía	-12700
▁remolinos	-12701
▁retiraron	-12702
▁separaron	-12703
▁señoritas	-12704
▁sirviente	-12705
▁temblando	-12706
▁vacilante	-12707
▁vestigios	-12708
▁volcánica	-12709
▁Carmelitas	-12710
▁afortunado	-12711
▁aguardando	-12712
▁alcanzarlo	-12713
▁antediluvi	-12714
▁aventurado	-12715
▁beneficios	-12716
▁campanario	-12717
▁cautividad	-12718
▁demostrado	-12719
▁desvaneció	-12720
▁diciéndole	-12721
▁diecinueve	-12722
▁domésticos	-12723
▁espléndida	-12724
▁extraviado	-12725
▁haciéndole	-12726
▁imaginarse	-12727
▁inspectora	-12728
▁intentarlo	-12729
▁interesado	-12730
▁islandeses	-12731
▁liberación	-12732
▁naufragado	-12733
▁navegantes	-12734
▁participar	-12735
▁permitiera	-12736
▁personajes	-12737
▁plenamente	-12738
▁prolongada	-12739
▁recibieron	-12740
▁sucedieron	-12741
▁suposición	-12742
▁torbellino	-12743
▁veintiséis	-12744
dudablemente	-12745
▁Seguramente	-12746
▁acompañarme	-12747
▁atravesando	-12748
▁aventurarme	-12749
▁comparación	-12750
▁compatriota	-12751
▁espléndidos	-12752
▁gigantescas	-12753
▁intolerable	-12754
▁manantiales	-12755
▁norteameric	-12756
▁preparación	-12757
▁presentaban	-12758
▁recolección	-12759
▁resignación	-12760
▁sufrimiento	-12761
▁tiernamente	-12762
▁Ayuntamiento	-12763
▁comunicativo	-12764
▁conclusiones	-12765
▁desarrollaba	-12766
▁difícilmente	-12767
▁encogiéndose	-12768
▁interesantes	-12769
▁oblicuamente	-12770
▁plantaciones	-12771
▁pronunciadas	-12772
▁reflexionaba	-12773
▁regularmente	-12774
▁consideración	-12775
▁contemplación	-12776
▁milagrosamente	-12777
▁precipitándose	-12778
▁remordimientos	-12779
▁transcurrieron	-12780
▁extraordinarias	-12781
▁septentrionales	-12782
▁voluntariamente	-12783
.)	-12784
?,	-12785
Gu	-12786
Ne	-12787
Va	-12788
af	-12789
cú	-12790
fu	-12791
ky	-12792
ut	-12793
yd	-12794
úl	-12795
--:	-12796
Her	-12797
Pas	-12798
Veo	-12799
amu	-12800
arn	-12801
cod	-12802
ezo	-12803
ezó	-12804
gía	-12805
lís	-12806
olé	-12807
omn	-12808
orp	-12809
pan	-12810
pue	-12811
ser	-12812
uey	-12813
érc	-12814
▁IV	-12815
▁ef	-12816
▁gi	-12817
Miss	-12818
ages	-12819
atig	-12820
buce	-12821
dula	-12822
ebra	-12823
etes	-12824
gico	-12825
goci	-12826
goso	-12827
igno	-12828
ilán	-12829
jeci	-12830
lema	-12831
mbas	-12832
mosf	-12833
ográ	-12834
omen	-12835
open	-12836
opor	-12837
oros	-12838
paba	-12839
rate	-12840
reos	-12841
taré	-12842
teme	-12843
urce	-12844
vana	-12845
▁185	-12846
▁Agu	-12847
▁Aun	-12848
▁Cos	-12849
▁Don	-12850
▁III	-12851
▁Lux	-12852
▁Nep	-12853
▁New	-12854
▁Sac	-12855
▁anu	-12856
▁ató	-12857
▁cro	-12858
▁enm	-12859
▁fún	-12860
▁omi	-12861
▁pup	-12862
▁píl	-12863
▁rib	-12864
▁teñ	-12865
▁vaj	-12866
Hurra	-12867
ccion	-12868
cepti	-12869
citos	-12870
enten	-12871
erald	-12872
estim	-12873
gelio	-12874
gipto	-12875
guila	-12876
iensa	-12877
meral	-12878
naval	-12879
oraba	-12880
ornio	-12881
quese	-12882
tiagu	-12883
tiguo	-12884
tuber	-12885
venía	-12886
verso	-12887
vidad	-12888
zarme	-12889
ática	-12890
▁Bass	-12891
▁Bill	-12892
▁Bois	-12893
▁Creí	-12894
▁Debe	-12895
▁Diez	-12896
▁Dijo	-12897
▁Ello	-12898
▁Gual	-12899
▁Paci	-12900
▁Prob	-12901
▁Vigo	-12902
▁amas	-12903
▁andu	-12904
▁buey	-12905
▁cens	-12906
▁club	-12907
▁cofi	-12908
▁crea	-12909
▁decí	-12910
▁desd	-12911
▁emba	-12912
▁emis	-12913
▁eval	-12914
▁giró	-12915
▁inau	-12916
▁lisa	-12917
▁moda	-12918
▁mutu	-12919
▁opio	-12920
▁opon	-12921
▁perg	-12922
▁pica	-12923
▁posi	-12924
▁quim	-12925
▁reli	-12926
▁renc	-12927
▁revi	-12928
▁rigu	-12929
▁rota	-12930
▁sana	-12931
▁taci	-12932
▁torp	-12933
▁trem	-12934
▁unía	-12935
▁venc	-12936
▁zozo	-12937
Espero	-12938
Quiero	-12939
adoras	-12940
brados	-12941
charse	-12942
cristo	-12943
fractu	-12944
güedad	-12945
igamos	-12946
iposas	-12947
ombier	-12948
puesto	-12949
quedad	-12950
tadura	-12951
tuario	-12952
tuosas	-12953
ámoslo	-12954
ólogos	-12955
▁Decid	-12956
▁Fosso	-12957
▁Fuera	-12958
▁Guard	-12959
▁Judío	-12960
▁Lloyd	-12961
▁Nuevo	-12962
▁Portu	-12963
▁Quise	-12964
▁Resul	-12965
▁Tened	-12966
▁agutí	-12967
▁almas	-12968
▁apuro	-12969
▁aroma	-12970
▁artes	-12971
▁besar	-12972
▁bocas	-12973
▁burla	-12974
▁calló	-12975
▁cartu	-12976
▁cerdo	-12977
▁cojín	-12978
▁decre	-12979
▁defin	-12980
▁dócil	-12981
▁ender	-12982
▁enfad	-12983
▁enneg	-12984
▁estén	-12985
▁falle	-12986
▁fines	-12987
▁gases	-12988
▁gasto	-12989
▁guisa	-12990
▁guste	-12991
▁hagan	-12992
▁halle	-12993
▁hilos	-12994
▁hormi	-12995
▁incré	-12996
▁india	-12997
▁infus	-12998
▁latía	-12999
▁lenti	-13000
▁llano	-13001
▁madri	-13002
▁ocupa	-13003
▁pater	-13004
▁pulpo	-13005
▁quinc	-13006
▁raton	-13007
▁remar	-13008
▁reper	-13009
▁repli	-13010
▁rezar	-13011
▁rigor	-13012
▁rojos	-13013
▁rubia	-13014
▁simul	-13015
▁sofoc	-13016
▁sonde	-13017
▁tabla	-13018
▁talla	-13019
▁teles	-13020
▁teneb	-13021
▁terra	-13022
▁tipos	-13023
▁toman	-13024
▁tonto	-13025
▁tribu	-13026
▁verás	-13027
▁whist	-13028
▁yesca	-13029
Vuestro	-13030
ecencia	-13031
emburgo	-13032
entados	-13033
iéntese	-13034
openhag	-13035
tinopla	-13036
tándole	-13037
zándose	-13038
éndolas	-13039
éndoles	-13040
ércoles	-13041
úzguese	-13042
▁Ceilán	-13043
▁Crespo	-13044
▁Egipto	-13045
▁Habría	-13046
▁Herald	-13047
▁México	-13048
▁Perdon	-13049
▁Santos	-13050
▁abrazo	-13051
▁acecho	-13052
▁acostó	-13053
▁adicto	-13054
▁agonía	-13055
▁alegro	-13056
▁atmosf	-13057
▁atreví	-13058
▁azufre	-13059
▁ceniza	-13060
▁cerdos	-13061
▁concep	-13062
▁convoy	-13063
▁debida	-13064
▁destil	-13065
▁disipó	-13066
▁divisé	-13067
▁duerme	-13068
▁engaño	-13069
▁envidi	-13070
▁fijada	-13071
▁formal	-13072
▁hablas	-13073
▁haréis	-13074
▁hembra	-13075
▁inopor	-13076
▁insóli	-13077
▁iremos	-13078
▁jinete	-13079
▁juegos	-13080
▁labora	-13081
▁ladera	-13082
▁lavado	-13083
▁lechos	-13084
▁luises	-13085
▁lámina	-13086
▁magist	-13087
▁maleza	-13088
▁mantas	-13089
▁mental	-13090
▁mercan	-13091
▁mundos	-13092
▁nacion	-13093
▁nadaba	-13094
▁pegado	-13095
▁pendía	-13096
▁pequeñ	-13097
▁prenda	-13098
▁prever	-13099
▁proces	-13100
▁quejas	-13101
▁quinto	-13102
▁rampas	-13103
▁retiré	-13104
▁retuvo	-13105
▁revent	-13106
▁revolo	-13107
▁sacaba	-13108
▁sangri	-13109
▁satura	-13110
▁severa	-13111
▁sierra	-13112
▁súbito	-13113
▁tambor	-13114
▁valido	-13115
▁veréis	-13116
▁vistos	-13117
▁zafiro	-13118
Pencroff	-13119
idelidad	-13120
tiéndose	-13121
viéndose	-13122
▁Comenzó	-13123
▁agentes	-13124
▁armazón	-13125
▁ataques	-13126
▁atraído	-13127
▁ayudaba	-13128
▁bajaban	-13129
▁bandeja	-13130
▁bandido	-13131
▁bordado	-13132
▁canción	-13133
▁cercado	-13134
▁cerrojo	-13135
▁cerveza	-13136
▁concier	-13137
▁contuvo	-13138
▁crecido	-13139
▁creerlo	-13140
▁crestas	-13141
▁cruzaba	-13142
▁curiosa	-13143
▁custodi	-13144
▁dedicar	-13145
▁defendi	-13146
▁dejamos	-13147
▁dejarle	-13148
▁descomp	-13149
▁diarias	-13150
▁directo	-13151
▁dispuse	-13152
▁diálogo	-13153
▁elegido	-13154
▁enteros	-13155
▁entrist	-13156
▁enviaba	-13157
▁enviada	-13158
▁escocés	-13159
▁esponja	-13160
▁esquist	-13161
▁estarán	-13162
▁estupor	-13163
▁europeo	-13164
▁exponer	-13165
▁funesto	-13166
▁hacemos	-13167
▁haceros	-13168
▁heladas	-13169
▁hubimos	-13170
▁inestim	-13171
▁infatig	-13172
▁inicial	-13173
▁insuper	-13174
▁invadió	-13175
▁inveros	-13176
▁labores	-13177
▁laderas	-13178
▁latidos	-13179
▁llevara	-13180
▁lloraba	-13181
▁mención	-13182
▁meterse	-13183
▁molesto	-13184
▁muelles	-13185
▁onagros	-13186
▁oración	-13187
▁ordenar	-13188
▁penetra	-13189
▁plumaje	-13190
▁privada	-13191
▁probado	-13192
▁pólipos	-13193
▁regalos	-13194
▁riguros	-13195
▁ruboriz	-13196
▁separar	-13197
▁silueta	-13198
▁solidez	-13199
▁sonaron	-13200
▁steward	-13201
▁supiera	-13202
▁tacitur	-13203
▁talones	-13204
▁teníais	-13205
▁termina	-13206
▁tijeras	-13207
▁torpedo	-13208
▁vayamos	-13209
▁vendría	-13210
▁ángeles	-13211
▁Antillas	-13212
▁Magestad	-13213
▁acompañó	-13214
▁acordaba	-13215
▁adoptado	-13216
▁adquirió	-13217
▁agradaba	-13218
▁amenazas	-13219
▁anfractu	-13220
▁arrastró	-13221
▁asientos	-13222
▁benefici	-13223
▁blancura	-13224
▁cabriolé	-13225
▁cangreja	-13226
▁caravana	-13227
▁causaron	-13228
▁cerrando	-13229
▁contaban	-13230
▁contorne	-13231
▁costados	-13232
▁decidida	-13233
▁desplegó	-13234
▁destello	-13235
▁divisaba	-13236
▁engañaba	-13237
▁entrecor	-13238
▁escudero	-13239
▁espuelas	-13240
▁extermin	-13241
▁flexible	-13242
▁formadas	-13243
▁generosa	-13244
▁honrados	-13245
▁humildad	-13246
▁intrigas	-13247
▁llegaría	-13248
▁malestar	-13249
▁moderada	-13250
▁mortales	-13251
▁mostrado	-13252
▁official	-13253
▁padecido	-13254
▁pasantes	-13255
▁penetran	-13256
▁pensaban	-13257
▁perecido	-13258
▁perplejo	-13259
▁precisar	-13260
▁princesa	-13261
▁protuber	-13262
▁provista	-13263
▁próximos	-13264
▁puntiagu	-13265
▁querella	-13266
▁reclamar	-13267
▁recuerda	-13268
▁reflejos	-13269
▁refugios	-13270
▁remolino	-13271
▁respetar	-13272
▁retenido	-13273
▁ruborizó	-13274
▁semillas	-13275
▁señorito	-13276
▁siguiera	-13277
▁sobrante	-13278
▁suplicio	-13279
▁tabiques	-13280
▁transmit	-13281
▁tuvieran	-13282
▁vengarse	-13283
▁volverme	-13284
fectamente	-13285
tablemente	-13286
▁Evangelio	-13287
▁Glicerina	-13288
▁Gualterio	-13289
▁Realmente	-13290
▁abundaban	-13291
▁acercaban	-13292
▁aparejado	-13293
▁cacharros	-13294
▁caníbales	-13295
▁comunidad	-13296
▁contemplé	-13297
▁contempló	-13298
▁contenían	-13299
▁cuadradas	-13300
▁cuadrados	-13301
▁decírselo	-13302
▁detenidos	-13303
▁disfrutar	-13304
▁disponían	-13305
▁doméstico	-13306
▁embarcado	-13307
▁enterrado	-13308
▁espantado	-13309
▁esperaron	-13310
▁estocadas	-13311
▁expansión	-13312
▁explorado	-13313
▁fatigados	-13314
▁ignorante	-13315
▁incorporé	-13316
▁infranque	-13317
▁inspirado	-13318
▁intervalo	-13319
▁jugadores	-13320
▁lamentaba	-13321
▁levantada	-13322
▁llevarnos	-13323
▁luminosos	-13324
▁murmuraba	-13325
▁perdonado	-13326
▁pergamino	-13327
▁portugués	-13328
▁prometida	-13329
▁protestas	-13330
▁puntillas	-13331
▁repentina	-13332
▁superiora	-13333
▁tendencia	-13334
▁verificar	-13335
▁violentos	-13336
▁volcánico	-13337
▁volátiles	-13338
interrumpió	-13339
▁Fossoyeurs	-13340
▁Luxemburgo	-13341
▁abnegación	-13342
▁antigüedad	-13343
▁arrastraba	-13344
▁arrastrada	-13345
▁atravesaba	-13346
▁caprichoso	-13347
▁centésimas	-13348
▁clasificar	-13349
▁complicado	-13350
▁compromiso	-13351
▁comunicaba	-13352
▁defenderme	-13353
▁defenderse	-13354
▁demostraba	-13355
▁excelencia	-13356
▁explicarse	-13357
▁extenderse	-13358
▁favorables	-13359
▁franqueado	-13360
▁haciéndose	-13361
▁imprevisto	-13362
▁inesperada	-13363
▁infusorios	-13364
▁ingenieros	-13365
▁interesaba	-13366
▁manifestar	-13367
▁monstruoso	-13368
▁murmurando	-13369
▁observaron	-13370
▁perjudicar	-13371
▁permanente	-13372
▁proporción	-13373
▁referencia	-13374
▁reflexionó	-13375
▁refugiarse	-13376
▁revelación	-13377
▁sacrificar	-13378
▁singulares	-13379
▁sospechaba	-13380
▁suponiendo	-13381
▁suspendida	-13382
▁suspendido	-13383
▁terminaban	-13384
▁tranquiliz	-13385
▁transmitir	-13386
▁tropicales	-13387
▁Armentières	-13388
▁Transcurrió	-13389
▁confortable	-13390
▁continuaban	-13391
▁evaporación	-13392
▁experimentó	-13393
▁inquietudes	-13394
▁melancólica	-13395
▁naturalidad	-13396
▁setecientas	-13397
▁sorprendida	-13398
▁tímidamente	-13399
▁alimentación	-13400
▁contrafuerte	-13401
▁contrariedad	-13402
▁convulsiones	-13403
▁desaparecían	-13404
▁descubiertos	-13405
▁deslumbrante	-13406
▁interrupción	-13407
▁pertenencias	-13408
▁superioridad	-13409
▁transformado	-13410
▁contramaestre	-13411
▁cuatrocientas	-13412
▁fortificación	-13413
▁imposibilidad	-13414
▁independiente	-13415
▁perteneciente	-13416
▁Constantinopla	-13417
▁Indudablemente	-13418
▁abundantemente	-13419
▁conversaciones	-13420
▁extremadamente	-13421
▁descubrimientos	-13422
▁insignificantes	-13423
▁invariablemente	-13424
▁momentáneamente	-13425
!-	-13426
0,	-13427
Im	-13428
RA	-13429
RI	-13430
mé	-13431
Aún	-13432
Dos	-13433
Sir	-13434
Tra	-13435
aca	-13436
jan	-13437
ley	-13438
plí	-13439
pur	-13440
rci	-13441
rpu	-13442
uri	-13443
▁Fo	-13444
▁bí	-13445
▁ic	-13446
Poco	-13447
Segu	-13448
adra	-13449
anta	-13450
años	-13451
ceán	-13452
dese	-13453
doso	-13454
eaba	-13455
edos	-13456
egas	-13457
emen	-13458
gran	-13459
insu	-13460
irla	-13461
itud	-13462
iást	-13463
ocía	-13464
orra	-13465
ples	-13466
puso	-13467
sela	-13468
taña	-13469
titu	-13470
trin	-13471
ulos	-13472
uses	-13473
usia	-13474
usoe	-13475
usta	-13476
vios	-13477
ácea	-13478
étri	-13479
▁Cen	-13480
▁Dec	-13481
▁Den	-13482
▁Lub	-13483
▁Pla	-13484
▁Pon	-13485
▁Pos	-13486
▁Roy	-13487
▁XVI	-13488
▁acá	-13489
▁adv	-13490
▁cae	-13491
▁cof	-13492
▁dig	-13493
▁eta	-13494
▁ger	-13495
▁gin	-13496
▁ist	-13497
▁nom	-13498
▁vul	-13499
Basta	-13500
Tenía	-13501
ampar	-13502
arney	-13503
azado	-13504
ciado	-13505
cosas	-13506
ctora	-13507
eando	-13508
egado	-13509
gicos	-13510
grafo	-13511
illot	-13512
ingue	-13513
inoso	-13514
jando	-13515
lezas	-13516
licas	-13517
linas	-13518
océis	-13519
ofens	-13520
rasse	-13521
rimió	-13522
tasen	-13523
ticar	-13524
tigos	-13525
vales	-13526
xéron	-13527
érico	-13528
índri	-13529
órico	-13530
▁Acer	-13531
▁Ayer	-13532
▁Clar	-13533
▁Cómo	-13534
▁Eres	-13535
▁Hist	-13536
▁Hizo	-13537
▁Papu	-13538
▁Salé	-13539
▁Toma	-13540
▁agre	-13541
▁alam	-13542
▁alem	-13543
▁apel	-13544
▁asim	-13545
▁atol	-13546
▁azad	-13547
▁burl	-13548
▁cand	-13549
▁caos	-13550
▁cern	-13551
▁cinc	-13552
▁coge	-13553
▁cúbi	-13554
▁diag	-13555
▁dulc	-13556
▁encu	-13557
▁faro	-13558
▁fúne	-13559
▁inad	-13560
▁inus	-13561
▁iris	-13562
▁lito	-13563
▁lujo	-13564
▁mata	-13565
▁mató	-13566
▁mera	-13567
▁mire	-13568
▁obtu	-13569
▁osos	-13570
▁pagó	-13571
▁piri	-13572
▁raso	-13573
▁relu	-13574
▁reza	-13575
▁rogó	-13576
▁ruda	-13577
▁rumi	-13578
▁sedi	-13579
▁sube	-13580
▁telé	-13581
▁vago	-13582
▁Éste	-13583
Además	-13584
Contin	-13585
Podría	-13586
Tienes	-13587
agregó	-13588
chones	-13589
iación	-13590
iduría	-13591
illada	-13592
inetes	-13593
sabéis	-13594
traves	-13595
ámonos	-13596
▁Abrió	-13597
▁Conte	-13598
▁Escri	-13599
▁Españ	-13600
▁Haced	-13601
▁Recor	-13602
▁Siete	-13603
▁Tibur	-13604
▁Traté	-13605
▁Valet	-13606
▁Venga	-13607
▁Young	-13608
▁acora	-13609
▁advir	-13610
▁alcal	-13611
▁bajos	-13612
▁bastó	-13613
▁bebía	-13614
▁borda	-13615
▁bravo	-13616
▁calmó	-13617
▁canas	-13618
▁centí	-13619
▁chica	-13620
▁cinta	-13621
▁comía	-13622
▁depar	-13623
▁dieta	-13624
▁episo	-13625
▁esboz	-13626
▁fauna	-13627
▁gafas	-13628
▁garan	-13629
▁gesti	-13630
▁harto	-13631
▁impun	-13632
▁incul	-13633
▁infal	-13634
▁inhab	-13635
▁intré	-13636
▁jarro	-13637
▁llame	-13638
▁llana	-13639
▁lángu	-13640
▁macho	-13641
▁manta	-13642
▁marej	-13643
▁monar	-13644
▁montó	-13645
▁moros	-13646
▁nacer	-13647
▁naran	-13648
▁novel	-13649
▁oyera	-13650
▁oírle	-13651
▁pongo	-13652
▁puños	-13653
▁ratón	-13654
▁recto	-13655
▁rocío	-13656
▁rodar	-13657
▁rodeo	-13658
▁rogué	-13659
▁ronda	-13660
▁suple	-13661
▁trapo	-13662
▁vaina	-13663
▁velar	-13664
adornes	-13665
gráfica	-13666
menores	-13667
murmuré	-13668
pientes	-13669
rentado	-13670
tencias	-13671
▁Carter	-13672
▁Crusoe	-13673
▁Dígame	-13674
▁Estuve	-13675
▁Veinte	-13676
▁abordo	-13677
▁aceler	-13678
▁agregó	-13679
▁ahogar	-13680
▁anoche	-13681
▁aprisa	-13682
▁aprobó	-13683
▁arpone	-13684
▁astuto	-13685
▁aterra	-13686
▁blancu	-13687
▁bocado	-13688
▁brandy	-13689
▁burlón	-13690
▁carbon	-13691
▁carcel	-13692
▁carita	-13693
▁celoso	-13694
▁chocar	-13695
▁cifras	-13696
▁compás	-13697
▁cubrió	-13698
▁cuente	-13699
▁deprim	-13700
▁desdén	-13701
▁divisó	-13702
▁domina	-13703
▁durado	-13704
▁empujó	-13705
▁entusi	-13706
▁erguía	-13707
▁escand	-13708
▁firmar	-13709
▁fortal	-13710
▁frasco	-13711
▁fuéron	-13712
▁garras	-13713
▁hilera	-13714
▁implor	-13715
▁inerte	-13716
▁insens	-13717
▁litera	-13718
▁llovía	-13719
▁maciza	-13720
▁mareas	-13721
▁mártir	-13722
▁negado	-13723
▁obuses	-13724
▁paseos	-13725
▁pector	-13726
▁pierde	-13727
▁poetas	-13728
▁presun	-13729
▁regoci	-13730
▁remota	-13731
▁rencor	-13732
▁respir	-13733
▁secund	-13734
▁serias	-13735
▁solían	-13736
▁sombre	-13737
▁sueldo	-13738
▁surgió	-13739
▁sustra	-13740
▁sábana	-13741
▁taller	-13742
▁timbre	-13743
▁titube	-13744
▁tontos	-13745
▁transe	-13746
▁tratan	-13747
▁tropel	-13748
▁unirse	-13749
▁vertic	-13750
▁áspera	-13751
▁áspero	-13752
contesté	-13753
▁Bretaña	-13754
▁Hablaba	-13755
▁Holanda	-13756
▁Kearney	-13757
▁Neptuno	-13758
▁Ninguno	-13759
▁Oriente	-13760
▁Pasaron	-13761
▁ahogada	-13762
▁ahorcar	-13763
▁alojado	-13764
▁animado	-13765
▁apagada	-13766
▁aprendí	-13767
▁astucia	-13768
▁balbuce	-13769
▁bastará	-13770
▁batirse	-13771
▁bonitas	-13772
▁bóvedas	-13773
▁chiquil	-13774
▁cicatri	-13775
▁circund	-13776
▁cliente	-13777
▁conoció	-13778
▁corazon	-13779
▁creedme	-13780
▁cuadras	-13781
▁declaro	-13782
▁dejadme	-13783
▁dejemos	-13784
▁delicad	-13785
▁derribó	-13786
▁desplom	-13787
▁detiene	-13788
▁disparé	-13789
▁dispone	-13790
▁doradas	-13791
▁empieza	-13792
▁errores	-13793
▁escalar	-13794
▁escoger	-13795
▁escribe	-13796
▁esmeral	-13797
▁estados	-13798
▁eucalip	-13799
▁europea	-13800
▁ferment	-13801
▁frescas	-13802
▁galleta	-13803
▁guerras	-13804
▁haberos	-13805
▁habréis	-13806
▁hagamos	-13807
▁inofens	-13808
▁jugaban	-13809
▁lealtad	-13810
▁mendigo	-13811
▁molusco	-13812
▁nadando	-13813
▁obedecí	-13814
▁patadas	-13815
▁pizarra	-13816
▁polares	-13817
▁ponerle	-13818
▁portado	-13819
▁pueblos	-13820
▁quitaba	-13821
▁rebelde	-13822
▁recorrí	-13823
▁reflejo	-13824
▁relojes	-13825
▁repercu	-13826
▁robusta	-13827
▁rumores	-13828
▁sagrado	-13829
▁separan	-13830
▁señalar	-13831
▁suspiró	-13832
▁sólidos	-13833
▁tirando	-13834
▁tocaban	-13835
▁tragado	-13836
▁truenos	-13837
▁trópico	-13838
▁vajilla	-13839
estamento	-13840
inaciones	-13841
openhague	-13842
▁Encontró	-13843
▁Hicieron	-13844
▁Nuestras	-13845
▁Papuasia	-13846
▁Tranquil	-13847
▁abandona	-13848
▁aceptado	-13849
▁afectaba	-13850
▁agitando	-13851
▁aparejos	-13852
▁aparente	-13853
▁apresuré	-13854
▁ardiendo	-13855
▁aversión	-13856
▁baronesa	-13857
▁buscarla	-13858
▁carnaval	-13859
▁cerrojos	-13860
▁cilíndri	-13861
▁comienza	-13862
▁comparti	-13863
▁concebir	-13864
▁contando	-13865
▁cortando	-13866
▁creación	-13867
▁curiosas	-13868
▁debieron	-13869
▁dedicaba	-13870
▁dibujaba	-13871
▁disgusta	-13872
▁dormirse	-13873
▁entregué	-13874
▁escapará	-13875
▁esconder	-13876
▁espontán	-13877
▁estabais	-13878
▁excitado	-13879
▁exclamar	-13880
▁existido	-13881
▁fatigada	-13882
▁flamenco	-13883
▁galletas	-13884
▁hallaría	-13885
▁holandés	-13886
▁ignorado	-13887
▁impedido	-13888
▁inexpres	-13889
▁interrog	-13890
▁jardines	-13891
▁jornadas	-13892
▁liberado	-13893
▁librarse	-13894
▁llevados	-13895
▁llevarse	-13896
▁madreper	-13897
▁mercader	-13898
▁ocuparon	-13899
▁olvidaba	-13900
▁permiten	-13901
▁precedía	-13902
▁presuros	-13903
▁quincena	-13904
▁reciente	-13905
▁reconfor	-13906
▁registró	-13907
▁saltaron	-13908
▁salvarme	-13909
▁seguimos	-13910
▁servirse	-13911
▁sospecho	-13912
▁trajeron	-13913
▁virtudes	-13914
▁volvimos	-13915
tecimiento	-13916
▁Atlántida	-13917
▁Colombier	-13918
▁Esperanza	-13919
▁acercarme	-13920
▁agradecer	-13921
▁amarillas	-13922
▁aplastado	-13923
▁apreciado	-13924
▁audiencia	-13925
▁australes	-13926
▁bendición	-13927
▁cambiando	-13928
▁concierne	-13929
▁conmoción	-13930
▁considero	-13931
▁consistía	-13932
▁consultar	-13933
▁cuchillos	-13934
▁culpables	-13935
▁cumplidos	-13936
▁desiertos	-13937
▁detenerme	-13938
▁dirigirme	-13939
▁discípulo	-13940
▁disparate	-13941
▁divertido	-13942
▁elefantes	-13943
▁fugitivos	-13944
▁hugonotes	-13945
▁indecible	-13946
▁iniciales	-13947
▁inocentes	-13948
▁laterales	-13949
▁marcharme	-13950
▁miércoles	-13951
▁mostraban	-13952
▁mostrando	-13953
▁ocultaban	-13954
▁oscurecer	-13955
▁permítame	-13956
▁practicar	-13957
▁precedido	-13958
▁procedían	-13959
▁procuraba	-13960
▁prolongar	-13961
▁proseguía	-13962
▁protegido	-13963
▁reglament	-13964
▁religioso	-13965
▁reservada	-13966
▁respiraba	-13967
▁revestido	-13968
▁sabiduría	-13969
▁sacudidas	-13970
▁semejanza	-13971
▁sentiment	-13972
▁sintiendo	-13973
▁sufriendo	-13974
▁sumamente	-13975
▁tenacidad	-13976
▁tentación	-13977
▁trabajado	-13978
▁trinchera	-13979
▁visitarla	-13980
▁vivacidad	-13981
▁Copenhague	-13982
▁accidentes	-13983
▁acontecido	-13984
▁aficionado	-13985
▁alteración	-13986
▁aumentaban	-13987
▁ceremonias	-13988
▁comenzamos	-13989
▁congéneres	-13990
▁construida	-13991
▁descansaba	-13992
▁desesperar	-13993
▁desolación	-13994
▁desprender	-13995
▁disgustado	-13996
▁ejercicios	-13997
▁encontrase	-13998
▁erupciones	-13999
▁escafandra	-14000
▁esparcidos	-14001
▁estimación	-14002
▁exteriores	-14003
▁formalidad	-14004
▁hábilmente	-14005
▁insensible	-14006
▁instalados	-14007
▁juramentos	-14008
▁llevábamos	-14009
▁modificado	-14010
▁permitiese	-14011
▁pormenores	-14012
▁preferiría	-14013
▁provincias	-14014
▁recordando	-14015
▁redondeada	-14016
▁religiosos	-14017
▁resignarse	-14018
▁revestidos	-14019
▁sobresalía	-14020
▁tendríamos	-14021
▁trasladado	-14022
fectivamente	-14023
▁actualmente	-14024
▁advertencia	-14025
▁articulados	-14026
▁bosquecillo	-14027
▁comprendida	-14028
▁contrastaba	-14029
▁devolvieron	-14030
▁equivocarse	-14031
▁escafandras	-14032
▁extrangeros	-14033
▁infatigable	-14034
▁institución	-14035
▁laboratorio	-14036
▁recorrieron	-14037
▁silenciosos	-14038
▁sobrevivido	-14039
▁torbellinos	-14040
▁traicionado	-14041
▁tristemente	-14042
▁Bassompierre	-14043
▁deslizándose	-14044
▁encontraréis	-14045
▁estupefactos	-14046
▁reconociendo	-14047
▁subterráneas	-14048
▁exclamaciones	-14049
▁habitualmente	-14050
▁imperturbable	-14051
▁impracticable	-14052
▁inexplicables	-14053
▁representaban	-14054
▁transparentes	-14055
▁Northumberland	-14056
▁cartilaginosos	-14057
▁presentimiento	-14058
▁repentinamente	-14059
▁arrepentimiento	-14060
▁manifestaciones	-14061
▁resplandeciente	-14062
eh	-14063
fí	-14064
ps	-14065
qü	-14066
ön	-14067
▁'	-14068
Bus	-14069
Mar	-14070
Nab	-14071
New	-14072
Rec	-14073
bes	-14074
deb	-14075
far	-14076
fic	-14077
fur	-14078
isi	-14079
odi	-14080
ric	-14081
tea	-14082
ómi	-14083
▁3.	-14084
▁Fí	-14085
▁Ti	-14086
▁Wh	-14087
▁oh	-14088
▁sú	-14089
▁vá	-14090
▁ál	-14091
Agua	-14092
Deci	-14093
Hola	-14094
Vete	-14095
abra	-14096
bara	-14097
dora	-14098
erve	-14099
fizo	-14100
game	-14101
gate	-14102
heit	-14103
hren	-14104
idar	-14105
igza	-14106
ince	-14107
itre	-14108
jame	-14109
kins	-14110
mesí	-14111
ojos	-14112
oras	-14113
pase	-14114
pida	-14115
pore	-14116
quet	-14117
rael	-14118
ravo	-14119
ráig	-14120
seme	-14121
tavo	-14122
tias	-14123
vela	-14124
veía	-14125
wich	-14126
zase	-14127
zoso	-14128
íais	-14129
önig	-14130
▁184	-14131
▁Ama	-14132
▁Cle	-14133
▁Cri	-14134
▁Dio	-14135
▁Fre	-14136
▁Qué	-14137
▁Sch	-14138
▁Vie	-14139
▁Vir	-14140
▁ada	-14141
▁aso	-14142
▁cás	-14143
▁deg	-14144
▁epí	-14145
▁mel	-14146
▁mud	-14147
▁oir	-14148
▁pén	-14149
Sabes	-14150
abana	-14151
anges	-14152
chase	-14153
codri	-14154
decer	-14155
decir	-14156
domos	-14157
doras	-14158
entro	-14159
ervor	-14160
falos	-14161
ficar	-14162
gonau	-14163
guaci	-14164
guéis	-14165
hacer	-14166
icion	-14167
ierte	-14168
inata	-14169
istes	-14170
iéron	-14171
jarse	-14172
jidad	-14173
larme	-14174
mados	-14175
mford	-14176
paras	-14177
parse	-14178
repli	-14179
rería	-14180
rillo	-14181
tagon	-14182
tidad	-14183
trada	-14184
ueles	-14185
ulado	-14186
urete	-14187
voros	-14188
ótico	-14189
▁Cogí	-14190
▁Dodo	-14191
▁Lake	-14192
▁Nave	-14193
▁Roma	-14194
▁Salv	-14195
▁Súbi	-14196
▁ardu	-14197
▁asió	-14198
▁baño	-14199
▁bram	-14200
▁brom	-14201
▁clam	-14202
▁cobi	-14203
▁coco	-14204
▁copa	-14205
▁cuen	-14206
▁dela	-14207
▁diur	-14208
▁elim	-14209
▁enví	-14210
▁expi	-14211
▁fior	-14212
▁gira	-14213
▁gozo	-14214
▁hara	-14215
▁hied	-14216
▁icti	-14217
▁invo	-14218
▁jagu	-14219
▁maté	-14220
▁miel	-14221
▁mulo	-14222
▁muse	-14223
▁notó	-14224
▁opul	-14225
▁palm	-14226
▁pesa	-14227
▁raci	-14228
▁reía	-14229
▁rudi	-14230
▁seas	-14231
▁seta	-14232
▁supi	-14233
▁supl	-14234
▁tome	-14235
▁tomo	-14236
▁unir	-14237
▁usos	-14238
▁vina	-14239
▁volu	-14240
▁vora	-14241
Aunque	-14242
aderos	-14243
adilla	-14244
enques	-14245
gadura	-14246
gapore	-14247
imento	-14248
insist	-14249
irones	-14250
latura	-14251
lechos	-14252
quista	-14253
raltar	-14254
ranova	-14255
rciéla	-14256
recida	-14257
rolabe	-14258
ríadas	-14259
tarlos	-14260
tarnos	-14261
tánica	-14262
vistas	-14263
árbara	-14264
émoslo	-14265
úmenes	-14266
▁Cerca	-14267
▁Emple	-14268
▁Están	-14269
▁König	-14270
▁Quien	-14271
▁Seguí	-14272
▁Semej	-14273
▁Tejos	-14274
▁acces	-14275
▁agreg	-14276
▁albañ	-14277
▁análo	-14278
▁aplau	-14279
▁arque	-14280
▁bifur	-14281
▁bomba	-14282
▁brida	-14283
▁china	-14284
▁cogía	-14285
▁colos	-14286
▁corté	-14287
▁desob	-14288
▁docto	-14289
▁elást	-14290
▁emped	-14291
▁enfil	-14292
▁evalu	-14293
▁fardo	-14294
▁finos	-14295
▁fruta	-14296
▁fruto	-14297
▁gavio	-14298
▁horca	-14299
▁inven	-14300
▁istmo	-14301
▁jaula	-14302
▁libra	-14303
▁limos	-14304
▁mecan	-14305
▁mueve	-14306
▁musgo	-14307
▁natal	-14308
▁niego	-14309
▁oblon	-14310
▁oscil	-14311
▁pajar	-14312
▁palma	-14313
▁parro	-14314
▁pedís	-14315
▁pilas	-14316
▁pinta	-14317
▁pizca	-14318
▁porte	-14319
▁púrpu	-14320
▁quedo	-14321
▁rebas	-14322
▁repor	-14323
▁rifle	-14324
▁salga	-14325
▁salva	-14326
▁salvó	-14327
▁saqué	-14328
▁sauce	-14329
▁sexto	-14330
▁socio	-14331
▁tapiz	-14332
▁tiemb	-14333
▁tigre	-14334
▁toque	-14335
▁tradu	-14336
▁turba	-14337
▁unida	-14338
▁valla	-14339
▁vecin	-14340
▁volum	-14341
▁zigza	-14342
▁árida	-14343
Maldita	-14344
Nuestro	-14345
Siempre	-14346
Tendría	-14347
Tenemos	-14348
Vuestra	-14349
ecillas	-14350
feriría	-14351
gnancia	-14352
guardia	-14353
insular	-14354
landesa	-14355
liegues	-14356
pensaba	-14357
strasse	-14358
tiendes	-14359
▁Africa	-14360
▁Calais	-14361
▁Fahren	-14362
▁Hornos	-14363
▁Madame	-14364
▁Muchos	-14365
▁Nevada	-14366
▁Paloma	-14367
▁Source	-14368
▁Tunder	-14369
▁abstra	-14370
▁acosté	-14371
▁activo	-14372
▁adoptó	-14373
▁afable	-14374
▁agrada	-14375
▁agudas	-14376
▁apremi	-14377
▁arenas	-14378
▁arista	-14379
▁bandas	-14380
▁barras	-14381
▁brilla	-14382
▁bruces	-14383
▁bultos	-14384
▁calaba	-14385
▁catara	-14386
▁cayera	-14387
▁cesado	-14388
▁chinos	-14389
▁cierra	-14390
▁climas	-14391
▁colore	-14392
▁confío	-14393
▁conson	-14394
▁cortas	-14395
▁cuesta	-14396
▁desnud	-14397
▁dieran	-14398
▁dorsal	-14399
▁empero	-14400
▁ensayo	-14401
▁estorn	-14402
▁eterno	-14403
▁fervor	-14404
▁filoso	-14405
▁fusión	-14406
▁guiado	-14407
▁hongos	-14408
▁impide	-14409
▁indias	-14410
▁intran	-14411
▁juncos	-14412
▁llanto	-14413
▁maleta	-14414
▁maltra	-14415
▁manada	-14416
▁margen	-14417
▁maríti	-14418
▁mascul	-14419
▁mataba	-14420
▁menuda	-14421
▁máxima	-14422
▁navegó	-14423
▁negoci	-14424
▁noveci	-14425
▁objeci	-14426
▁obligó	-14427
▁olvide	-14428
▁olvidó	-14429
▁parada	-14430
▁partía	-14431
▁pierdo	-14432
▁polvor	-14433
▁presid	-14434
▁primos	-14435
▁propon	-14436
▁quarto	-14437
▁ración	-14438
▁ramaje	-14439
▁recibe	-14440
▁rector	-14441
▁remoto	-14442
▁resaca	-14443
▁rugido	-14444
▁rígido	-14445
▁saínos	-14446
▁sienes	-14447
▁social	-14448
▁solemn	-14449
▁sonoro	-14450
▁soñado	-14451
▁sufrió	-14452
▁supuse	-14453
▁tierno	-14454
▁tirada	-14455
▁torres	-14456
▁tropas	-14457
▁vecina	-14458
▁verter	-14459
▁vistas	-14460
▁visual	-14461
aturales	-14462
ciéndose	-14463
lemencia	-14464
odamente	-14465
▁Acababa	-14466
▁Exclamó	-14467
▁Institu	-14468
▁Tiburón	-14469
▁aclarar	-14470
▁acusaba	-14471
▁admitía	-14472
▁aislada	-14473
▁alguaci	-14474
▁alusión	-14475
▁amplios	-14476
▁aparece	-14477
▁apuesto	-14478
▁artista	-14479
▁asistir	-14480
▁atónito	-14481
▁añadiré	-14482
▁bambúes	-14483
▁bandada	-14484
▁bigotes	-14485
▁cajones	-14486
▁caldera	-14487
▁campiña	-14488
▁carmesí	-14489
▁cerilla	-14490
▁cocodri	-14491
▁concede	-14492
▁cortaba	-14493
▁cortada	-14494
▁crueles	-14495
▁culpeos	-14496
▁cultivo	-14497
▁decidle	-14498
▁dejarla	-14499
▁desanim	-14500
▁deseáis	-14501
▁despeda	-14502
▁destina	-14503
▁emergió	-14504
▁emocion	-14505
▁enderez	-14506
▁escalón	-14507
▁exclamé	-14508
▁fijaron	-14509
▁firmado	-14510
▁fisonom	-14511
▁fracaso	-14512
▁futuros	-14513
▁fábrica	-14514
▁fáciles	-14515
▁habitan	-14516
▁hablase	-14517
▁habíais	-14518
▁hipócri	-14519
▁iceberg	-14520
▁incliné	-14521
▁indigno	-14522
▁lejanas	-14523
▁llevada	-14524
▁maderas	-14525
▁malhech	-14526
▁manejar	-14527
▁matarme	-14528
▁mendiga	-14529
▁metales	-14530
▁mirarme	-14531
▁moriría	-14532
▁médicos	-14533
▁obreros	-14534
▁ofender	-14535
▁oleadas	-14536
▁oprimía	-14537
▁penacho	-14538
▁peñasco	-14539
▁plancha	-14540
▁pobreza	-14541
▁ponerla	-14542
▁ponerlo	-14543
▁páginas	-14544
[...]
